<pad>	0
<unk>	0
</s>	0
▁the	-3.11958
▁,	-3.24585
s	-3.35965
▁.	-3.56235
▁of	-3.84211
ed	-3.8459
▁and	-3.93388
▁	-4.06023
▁to	-4.13734
▁in	-4.17174
▁a	-4.23002
▁=	-4.4665
▁"	-4.55785
ing	-4.70573
▁was	-4.77298
@	-4.79339
▁@	-4.828
▁'	-4.90384
-	-4.95991
▁The	-4.98559
ly	-5.13558
▁on	-5.20409
▁for	-5.21268
▁with	-5.22212
▁that	-5.23542
y	-5.25045
e	-5.31167
▁as	-5.32877
▁by	-5.35779
▁)	-5.38762
▁(	-5.38823
▁is	-5.51222
d	-5.56654
▁his	-5.67732
.	-5.68393
▁from	-5.68916
▁at	-5.72776
▁were	-5.88447
▁be	-5.89315
▁it	-5.93247
▁he	-5.95801
▁an	-6.00176
▁In	-6.01096
▁had	-6.07611
t	-6.1016
▁which	-6.13798
er	-6.18128
n	-6.3386
▁A	-6.35303
▁not	-6.42313
▁but	-6.43309
▁are	-6.44323
▁;	-6.50473
▁first	-6.50976
▁their	-6.53199
▁–	-6.53335
▁:	-6.55743
▁her	-6.55866
▁also	-6.56581
es	-6.59783
▁or	-6.60438
r	-6.61238
▁who	-6.62824
▁I	-6.64483
▁He	-6.65483
▁have	-6.65624
▁one	-6.66139
▁its	-6.66259
▁two	-6.70163
al	-6.72454
th	-6.72693
▁has	-6.73369
▁been	-6.73406
▁@,@	-6.75281
a	-6.77429
▁this	-6.776
▁1	-6.83673
▁after	-6.88066
▁time	-6.88131
o	-6.89975
▁would	-6.90928
▁It	-6.92196
▁into	-6.94164
▁other	-6.95605
▁over	-6.98243
▁2	-7.00138
in	-7.0273
▁more	-7.0544
▁they	-7.09226
▁she	-7.11562
▁when	-7.12287
▁all	-7.12729
▁up	-7.13387
▁3	-7.13969
▁him	-7.15365
▁out	-7.16945
st	-7.17308
during	-7.18553
▁game	-7.2125
▁most	-7.21271
▁On	-7.22725
▁film	-7.23823
▁than	-7.25426
▁about	-7.25501
▁only	-7.26202
▁between	-7.27665
▁later	-7.27877
▁new	-7.28337
i	-7.28609
▁three	-7.28899
▁whil	-7.30565
▁through	-7.31429
▁5	-7.3155
m	-7.31767
▁4	-7.3635
ever	-7.37012
ies	-7.376
▁season	-7.3938
l	-7.39595
▁made	-7.40035
us	-7.40276
▁B	-7.40446
▁where	-7.41508
▁New	-7.41829
▁000	-7.42531
▁some	-7.43009
on	-7.43554
▁year	-7.43658
▁such	-7.43692
▁before	-7.45191
▁second	-7.48024
▁This	-7.48757
▁/	-7.49131
▁under	-7.49889
▁S	-7.49893
le	-7.50013
est	-7.51237
▁large	-7.51563
en	-7.5163
▁part	-7.51714
▁years	-7.51844
ic	-7.51916
▁used	-7.52313
▁C	-7.54392
▁number	-7.54531
▁them	-7.55473
▁album	-7.55883
▁no	-7.55999
▁against	-7.56479
▁song	-7.56482
ion	-7.56571
▁being	-7.56795
▁can	-7.57407
came	-7.57669
▁de	-7.59208
man	-7.59847
▁6	-7.6031
out	-7.60995
▁including	-7.6139
▁—	-7.6158
▁D	-7.61927
▁so	-7.62029
▁United	-7.62593
▁After	-7.62632
▁well	-7.62963
▁both	-7.6323
▁high	-7.63418
or	-7.63759
▁series	-7.64271
ers	-7.64681
▁there	-7.6504
▁U	-7.6513
g	-7.6593
▁team	-7.6622
▁work	-7.6766
▁like	-7.68091
▁did	-7.68116
▁10	-7.68645
▁episode	-7.6865
▁al	-7.68763
p	-7.68903
▁four	-7.69447
▁7	-7.70386
▁then	-7.70497
▁American	-7.71507
▁E	-7.72265
▁said	-7.72883
▁many	-7.73549
though	-7.7359
▁She	-7.7394
▁could	-7.74142
re	-7.74369
c	-7.74592
▁several	-7.74747
▁found	-7.74981
an	-7.75084
▁Al	-7.75191
▁8	-7.76078
▁As	-7.76326
▁known	-7.76656
▁return	-7.79254
▁began	-7.79478
▁near	-7.80317
▁end	-7.80532
▁place	-7.81365
▁9	-7.81847
▁day	-7.81921
▁early	-7.82837
ation	-7.83298
▁M	-7.8375
▁use	-7.83826
▁until	-7.83929
▁called	-7.84446
▁show	-7.85278
▁At	-7.85377
▁17	-7.85412
▁15	-7.85853
▁m	-7.86038
▁million	-7.86305
▁un	-7.8663
▁back	-7.86881
▁how	-7.86919
ce	-7.87064
▁remain	-7.87077
able	-7.87204
▁War	-7.87855
▁along	-7.88658
▁20	-7.88846
k	-7.88904
▁O	-7.89118
▁British	-7.89473
▁16	-7.89718
um	-7.8972
S	-7.89786
▁re	-7.89847
▁P	-7.89847
▁long	-7.90078
▁R	-7.90439
▁12	-7.90998
$	-7.91292
▁F	-7.91395
▁final	-7.91411
▁G	-7.92145
▁these	-7.927
▁people	-7.92808
▁original	-7.92857
▁releas	-7.92891
▁0	-7.92991
▁receiv	-7.92994
ity	-7.93923
▁How	-7.94321
▁September	-7.94473
▁August	-7.94763
▁music	-7.94919
▁World	-7.95131
▁same	-7.95584
▁T	-7.95626
▁May	-7.95627
▁because	-7.9654
▁States	-7.96835
▁may	-7.9688
▁around	-7.98677
▁km	-7.99087
ton	-7.99405
el	-7.99475
▁state	-7.99649
▁order	-8.00089
▁off	-8.00312
▁John	-8.00618
ok	-8.01185
▁any	-8.01289
b	-8.01431
▁lead	-8.0156
▁following	-8.01708
▁start	-8.02072
▁18	-8.03062
▁October	-8.0335
▁area	-8.03948
▁main	-8.04235
u	-8.04587
▁life	-8.04655
▁war	-8.05144
▁each	-8.05576
▁five	-8.05933
▁century	-8.06512
ar	-8.06633
▁down	-8.07591
▁single	-8.07718
▁]	-8.07935
▁US	-8.08011
[	-8.0814
▁small	-8.0845
▁June	-8.08733
▁city	-8.0942
h	-8.09966
▁release	-8.10359
▁%	-8.10674
▁July	-8.10734
▁result	-8.1075
▁since	-8.10989
▁set	-8.11236
▁November	-8.11352
▁11	-8.11367
▁Dur	-8.11674
▁York	-8.1182
ch	-8.1276
▁March	-8.13121
▁will	-8.13164
▁April	-8.13269
▁13	-8.13371
▁attack	-8.14452
▁last	-8.14573
▁group	-8.15293
▁bas	-8.1574
▁allow	-8.15783
▁name	-8.1586
▁great	-8.16049
▁government	-8.16529
▁what	-8.16863
▁left	-8.16936
▁line	-8.17033
▁due	-8.17362
▁home	-8.17689
▁character	-8.18053
▁reach	-8.18198
▁...	-8.18465
▁De	-8.18527
▁system	-8.1858
▁North	-8.18599
▁14	-8.1873
▁N	-8.18879
▁They	-8.19099
▁consider	-8.19202
▁December	-8.19249
▁third	-8.19357
ian	-8.19575
▁open	-8.19844
ta	-8.19867
▁No	-8.20351
▁L	-8.20354
▁much	-8.20358
▁30	-8.20533
▁January	-8.20838
▁if	-8.20951
▁W	-8.2102
▁another	-8.21034
▁included	-8.21233
▁own	-8.21336
▁St	-8.21408
▁band	-8.21568
▁K	-8.21917
ry	-8.22195
▁played	-8.22212
▁South	-8.22219
2	-8.22239
▁wrote	-8.22456
▁When	-8.22625
▁force	-8.22778
▁change	-8.22961
▁death	-8.23308
▁per	-8.23623
▁won	-8.24056
▁short	-8.24199
▁record	-8.24208
ia	-8.24314
▁do	-8.2463
▁support	-8.25098
▁six	-8.25788
▁just	-8.26622
▁play	-8.26964
▁By	-8.27043
▁previous	-8.27101
▁described	-8.27109
▁family	-8.27349
▁video	-8.27697
▁appear	-8.27899
▁led	-8.28016
▁include	-8.284
▁make	-8.28604
▁named	-8.28834
▁ship	-8.29364
▁world	-8.29824
▁German	-8.29827
▁north	-8.29874
▁now	-8.30246
▁For	-8.30294
▁perform	-8.30619
▁late	-8.31584
▁form	-8.31858
ent	-8.3226
▁very	-8.32324
ist	-8.32335
those	-8.32499
▁men	-8.3252
▁H	-8.32607
▁best	-8.32782
z	-8.3285
▁side	-8.33053
▁February	-8.33143
▁still	-8.33339
▁old	-8.33616
▁species	-8.33812
▁next	-8.33815
ro	-8.34167
▁match	-8.34201
▁direct	-8.34332
▁National	-8.34466
▁take	-8.3457
▁19	-8.35014
▁His	-8.35594
▁major	-8.35714
▁power	-8.35848
▁water	-8.36228
▁role	-8.36429
▁local	-8.3689
it	-8.36943
▁built	-8.37121
▁French	-8.37189
▁held	-8.37212
is	-8.37213
▁2010	-8.37509
▁100	-8.37604
▁co	-8.37757
▁house	-8.37903
▁former	-8.38042
▁25	-8.38922
▁again	-8.3924
▁way	-8.39475
▁storm	-8.39604
▁public	-8.3977
▁period	-8.39773
▁To	-8.39989
▁south	-8.40035
ive	-8.40099
ism	-8.40425
▁school	-8.40461
▁air	-8.40635
▁There	-8.40742
▁title	-8.4089
▁help	-8.41257
▁you	-8.41907
▁production	-8.42132
▁games	-8.4225
▁even	-8.42793
▁2008	-8.42829
▁book	-8.42855
▁2009	-8.43336
et	-8.43384
▁few	-8.43489
▁All	-8.43494
▁top	-8.43496
▁West	-8.43642
ri	-8.43927
less	-8.44182
▁different	-8.44391
ter	-8.44996
▁follow	-8.45004
▁turn	-8.45031
▁2011	-8.45034
ley	-8.45054
▁continued	-8.45124
▁among	-8.45326
▁often	-8.45351
▁career	-8.45443
▁similar	-8.45478
▁members	-8.46701
&	-8.46812
▁England	-8.46831
▁point	-8.47055
▁days	-8.47124
▁further	-8.47647
land	-8.47764
▁half	-8.47779
▁La	-8.48169
▁J	-8.48478
▁h	-8.4849
▁King	-8.48521
▁came	-8.4874
▁we	-8.4882
▁2007	-8.49162
▁want	-8.49294
son	-8.49366
▁One	-8.49554
▁position	-8.49614
having	-8.49679
▁become	-8.49704
▁story	-8.49758
▁player	-8.49777
▁version	-8.49892
▁An	-8.49903
▁total	-8.50225
ne	-8.5071
▁City	-8.5083
ra	-8.50842
went	-8.51003
ness	-8.51007
▁English	-8.5119
▁River	-8.51328
ous	-8.51471
na	-8.51909
3	-8.52177
▁II	-8.52283
▁join	-8.52499
▁2012	-8.52974
▁21	-8.53184
▁history	-8.53278
▁track	-8.53592
▁V	-8.5392
ur	-8.54071
▁London	-8.54112
▁increase	-8.54172
▁contain	-8.54228
f	-8.54259
▁every	-8.55109
ment	-8.55254
▁full	-8.55294
▁land	-8.55294
▁establish	-8.55323
co	-8.55353
▁man	-8.55762
ant	-8.55785
▁written	-8.55794
▁c	-8.5604
ine	-8.56179
▁list	-8.56253
▁24	-8.56342
by	-8.57148
▁fire	-8.57326
to	-8.57387
▁close	-8.57556
ie	-8.58013
▁east	-8.58043
▁pass	-8.58127
▁given	-8.58467
ary	-8.58493
▁strong	-8.58506
▁gave	-8.58962
▁University	-8.59023
age	-8.59206
▁Man	-8.5922
▁wide	-8.59591
▁control	-8.59617
▁week	-8.59657
▁While	-8.59788
▁never	-8.59788
▁service	-8.6023
▁though	-8.60601
▁head	-8.60657
▁act	-8.60782
▁company	-8.61178
id	-8.61182
ma	-8.61355
▁p	-8.61599
▁initial	-8.61655
▁town	-8.61822
▁caus	-8.61882
▁published	-8.61932
▁building	-8.6206
nd	-8.62105
stead	-8.62446
▁development	-8.62755
▁young	-8.62798
▁common	-8.62802
▁2006	-8.62851
▁lost	-8.63073
▁performance	-8.63251
am	-8.63381
▁west	-8.6346
▁particular	-8.63672
▁reported	-8.63725
▁stated	-8.63791
w	-8.63822
te	-8.63868
▁run	-8.64061
▁low	-8.64065
▁According	-8.64416
▁State	-8.64838
▁enter	-8.64883
▁right	-8.65131
▁live	-8.65156
▁suggest	-8.65187
ol	-8.65222
▁22	-8.65225
▁class	-8.6526
▁militar	-8.65682
▁style	-8.65685
▁mi	-8.65832
▁country	-8.65881
▁tour	-8.65984
▁General	-8.66016
▁less	-8.66019
▁club	-8.67034
moved	-8.67093
▁father	-8.67093
ve	-8.67254
▁light	-8.67358
▁making	-8.67391
il	-8.67449
▁claim	-8.67556
▁William	-8.677
▁These	-8.67706
▁aircraft	-8.67858
▁himself	-8.68005
▁2013	-8.68088
▁recorded	-8.6821
▁Australia	-8.68223
ally	-8.6838
ty	-8.68497
▁cover	-8.68541
▁sign	-8.68658
▁real	-8.68727
▁produc	-8.68914
▁We	-8.69202
▁featur	-8.6946
▁50	-8.69649
▁design	-8.70234
▁post	-8.70247
▁toward	-8.70656
▁James	-8.70682
ish	-8.7071
ate	-8.70783
▁ten	-8.70987
▁command	-8.71041
▁forces	-8.71158
▁ships	-8.71315
men	-8.71505
▁With	-8.71534
x	-8.716
▁Park	-8.72021
▁Co	-8.72103
▁23	-8.72389
▁range	-8.72409
▁Re	-8.72521
▁age	-8.72597
spite	-8.72615
▁good	-8.72629
▁present	-8.72699
▁en	-8.72783
▁Army	-8.73022
▁Australian	-8.73067
▁ft	-8.73191
▁Division	-8.73326
▁America	-8.73447
▁win	-8.73579
▁League	-8.74121
▁George	-8.74244
▁political	-8.74249
most	-8.74322
▁40	-8.74334
▁finish	-8.74546
▁died	-8.74608
▁campaign	-8.74641
▁children	-8.75009
▁developed	-8.75192
▁national	-8.75309
▁Air	-8.75375
▁months	-8.75867
▁Me	-8.76011
▁official	-8.76027
▁son	-8.76401
▁Street	-8.76581
▁eight	-8.77258
▁f	-8.773
▁felt	-8.77357
▁writing	-8.77422
▁see	-8.77543
▁sent	-8.7761
▁away	-8.77744
▁damage	-8.77998
either	-8.78122
▁announced	-8.78461
C	-8.78502
▁television	-8.78618
▁need	-8.78742
▁characters	-8.79015
▁seven	-8.79036
▁level	-8.79142
▁County	-8.79223
▁route	-8.79419
▁should	-8.79502
▁Japanese	-8.79811
▁2005	-8.79844
▁Road	-8.79924
ling	-8.8
▁station	-8.80093
▁successful	-8.80104
▁songs	-8.80297
▁get	-8.80304
▁28	-8.80324
▁race	-8.80337
▁eventual	-8.80426
▁various	-8.80726
▁thought	-8.80834
▁go	-8.81103
▁success	-8.81134
▁seen	-8.81186
ad	-8.81257
ga	-8.8131
▁East	-8.81576
▁provid	-8.81602
▁battle	-8.8165
▁Her	-8.81846
▁general	-8.81946
▁2014	-8.82044
▁me	-8.8207
▁27	-8.82273
ance	-8.8234
▁road	-8.82343
A	-8.82848
ll	-8.83269
▁Le	-8.83494
▁come	-8.83725
D	-8.83775
▁look	-8.8379
▁addition	-8.84108
▁ask	-8.84281
▁26	-8.84344
▁stage	-8.84361
▁white	-8.8459
▁night	-8.84635
▁member	-8.84693
▁black	-8.84815
▁award	-8.84862
▁serv	-8.84864
▁killed	-8.85029
▁tropical	-8.85245
▁debut	-8.85245
▁fight	-8.85286
▁little	-8.85489
▁front	-8.85552
▁significant	-8.85829
▁complete	-8.85881
be	-8.8621
▁peak	-8.86454
▁creat	-8.86784
mi	-8.86858
▁areas	-8.86876
▁law	-8.86893
ir	-8.86999
▁players	-8.87031
▁involv	-8.8707
▁earlie	-8.87125
▁entire	-8.8726
▁House	-8.87288
da	-8.87314
▁Michael	-8.87411
▁!	-8.87434
▁does	-8.87439
ard	-8.87445
hind	-8.87683
▁Robert	-8.87818
▁face	-8.87868
ough	-8.87871
▁mm	-8.87901
▁X	-8.88091
▁mid	-8.88199
▁Royal	-8.88387
▁sea	-8.88395
▁women	-8.8856
▁miles	-8.8869
▁provide	-8.88858
▁leas	-8.88992
▁San	-8.89125
▁writer	-8.89211
me	-8.89216
▁decided	-8.89336
1	-8.89464
▁ground	-8.89635
▁non	-8.89741
▁able	-8.89958
den	-8.9015
mo	-8.90168
▁body	-8.90214
▁too	-8.90327
taken	-8.90372
ner	-8.90493
▁rock	-8.90663
B	-8.90824
▁action	-8.9099
▁sold	-8.91045
ba	-8.91086
▁feet	-8.91179
▁David	-8.91189
at	-8.91268
▁move	-8.91312
ot	-8.91342
▁Be	-8.91386
▁together	-8.91435
▁features	-8.91734
▁average	-8.91849
▁free	-8.91862
▁France	-8.91937
▁Star	-8.91939
▁located	-8.91944
▁Some	-8.91999
▁population	-8.92009
▁field	-8.92214
▁limit	-8.92237
▁added	-8.92286
go	-8.92381
▁El	-8.92381
ka	-8.92847
▁points	-8.92946
▁29	-8.93128
▁visit	-8.93171
é	-8.9333
▁consist	-8.93339
▁site	-8.93345
▁once	-8.9336
▁important	-8.93361
▁Z	-8.93422
▁pre	-8.93434
ti	-8.93514
▁crew	-8.93587
▁interest	-8.93648
▁popular	-8.9368
▁saw	-8.93699
▁times	-8.93707
vi	-8.9377
▁Dr	-8.93956
ler	-8.9432
▁project	-8.94761
▁completed	-8.94775
▁Other	-8.94825
▁attempt	-8.94925
ac	-8.9498
▁2004	-8.95084
▁scene	-8.95293
▁put	-8.95403
▁believ	-8.95415
▁rest	-8.95446
rather	-8.95499
tic	-8.9556
ke	-8.95619
▁my	-8.95801
▁modern	-8.95811
la	-8.95836
▁formed	-8.95904
▁coast	-8.95918
▁Earl	-8.95944
▁car	-8.95986
mph	-8.96042
ci	-8.96121
▁playing	-8.9626
ell	-8.96268
▁Battle	-8.96434
ha	-8.96535
▁You	-8.96568
▁event	-8.96962
▁chart	-8.96994
▁replac	-8.97213
▁Great	-8.9724
▁construction	-8.97331
▁Go	-8.97346
▁2015	-8.97513
▁case	-8.97654
side	-8.97875
way	-8.97985
▁heavy	-8.98048
▁process	-8.98264
ul	-8.98369
▁Black	-8.98371
▁School	-8.98403
om	-8.98523
▁lack	-8.98649
▁subsequent	-8.98697
▁highway	-8.98719
▁Mar	-8.9882
▁base	-8.98837
sh	-8.98875
▁hit	-8.99053
▁born	-8.99186
▁special	-8.99193
▁court	-8.99561
▁Henry	-8.9999
▁novel	-9.00025
ful	-9.00052
▁party	-9.00097
li	-9.00141
▁upon	-9.00279
▁far	-9.0036
▁b	-9.00387
▁guns	-9.00572
▁Music	-9.00608
ship	-9.00705
M	-9.00837
▁office	-9.00881
▁region	-9.00965
▁view	-9.0112
▁2000	-9.01213
▁scored	-9.01222
using	-9.01319
▁fourth	-9.01394
▁example	-9.01449
▁Sa	-9.01556
do	-9.01631
▁Best	-9.0164
▁current	-9.01662
▁Paul	-9.01708
▁rank	-9.01948
▁cost	-9.0201
▁200	-9.02186
▁brought	-9.02339
ge	-9.02528
im	-9.02717
▁review	-9.02754
▁individual	-9.02775
▁extend	-9.02802
▁continue	-9.02831
▁sound	-9.02833
took	-9.02932
▁hand	-9.02966
▁mother	-9.02997
▁gun	-9.03224
▁launch	-9.0324
▁Washington	-9.03759
▁noted	-9.03785
▁center	-9.03863
▁arm	-9.04277
▁quick	-9.04348
▁500	-9.04438
4	-9.0444
▁cause	-9.04477
▁weeks	-9.04593
▁month	-9.04605
pp	-9.04609
▁working	-9.04712
▁Bo	-9.04723
ang	-9.04754
▁experience	-9.04793
▁star	-9.04875
▁us	-9.04909
▁European	-9.05295
▁Ne	-9.05298
line	-9.05387
▁wife	-9.05394
▁Europe	-9.05621
▁discover	-9.05712
▁critics	-9.05737
os	-9.05805
ph	-9.05812
▁studio	-9.05849
ni	-9.05904
▁troops	-9.05924
▁worked	-9.05947
▁t	-9.06023
rd	-9.06187
▁met	-9.06212
ak	-9.06356
▁2003	-9.06397
▁Follow	-9.06526
▁31	-9.06615
lo	-9.06844
ck	-9.06931
▁agree	-9.07
ab	-9.0718
▁island	-9.0723
▁prais	-9.07323
▁President	-9.07481
▁round	-9.0749
▁generally	-9.07555
▁fail	-9.07768
ig	-9.07946
▁hurricane	-9.08192
▁director	-9.08209
▁Cup	-9.08355
op	-9.08384
▁love	-9.08506
▁First	-9.08703
▁Con	-9.08881
▁shot	-9.09004
ca	-9.09254
▁Japan	-9.09281
▁term	-9.09306
▁Sea	-9.09329
▁victory	-9.09391
v	-9.09476
▁g	-9.0951
▁Charles	-9.09607
▁voice	-9.09608
▁positive	-9.09629
▁length	-9.09698
▁gain	-9.09795
▁fall	-9.09828
ial	-9.09894
▁Two	-9.09972
▁soon	-9.10138
▁runs	-9.10328
▁break	-9.10415
▁opening	-9.10426
▁White	-9.10455
▁space	-9.10507
▁business	-9.10738
▁works	-9.10794
▁regard	-9.1088
▁room	-9.10886
▁accept	-9.10922
▁anti	-9.11043
ought	-9.11064
▁goal	-9.11121
ham	-9.11133
▁person	-9.1117
▁hard	-9.11286
▁cast	-9.11623
▁human	-9.11689
head	-9.11734
▁ever	-9.11745
▁Route	-9.11759
▁cut	-9.11834
▁usual	-9.11862
▁score	-9.11925
j	-9.11943
▁events	-9.11975
▁saying	-9.1199
▁Hall	-9.12039
▁travel	-9.12186
▁Lo	-9.12208
▁regular	-9.12492
▁hours	-9.12579
▁My	-9.12598
▁designed	-9.1284
▁Christian	-9.12973
▁art	-9.13152
▁Li	-9.13384
▁southern	-9.13418
▁possible	-9.13556
▁issue	-9.13775
▁arriv	-9.13789
▁clear	-9.13904
ut	-9.14042
▁From	-9.14046
▁International	-9.14131
▁2001	-9.14136
▁Peter	-9.14154
▁available	-9.14211
▁Ka	-9.1436
▁contract	-9.14564
▁training	-9.14903
▁must	-9.15008
pe	-9.15013
▁Red	-9.15118
▁keep	-9.15171
E	-9.15187
▁appearance	-9.15283
▁create	-9.15287
▁Court	-9.15292
▁Thomas	-9.15308
▁Kingdom	-9.15314
▁figure	-9.15315
▁king	-9.15391
der	-9.1543
▁Navy	-9.15509
▁park	-9.15722
▁decision	-9.1575
ger	-9.15766
▁minutes	-9.15901
▁magazine	-9.16266
▁central	-9.16513
▁relationship	-9.16757
▁maintain	-9.16783
▁lower	-9.16785
▁Ra	-9.16969
▁Smith	-9.17257
▁focus	-9.17476
▁northern	-9.17613
▁So	-9.17744
▁league	-9.17794
ov	-9.17796
lin	-9.17837
▁surface	-9.17999
▁2002	-9.18079
ium	-9.18274
▁Canada	-9.18321
▁difficult	-9.1846
▁speed	-9.18809
▁Island	-9.18859
▁size	-9.1888
▁nine	-9.19004
▁find	-9.19029
ized	-9.19062
▁personal	-9.1911
▁past	-9.19223
▁Po	-9.19259
▁market	-9.19259
▁influence	-9.19284
▁introduc	-9.19328
▁church	-9.19351
▁Roman	-9.19394
no	-9.19556
▁taking	-9.19561
▁California	-9.19677
ville	-9.19905
▁outside	-9.19947
▁Game	-9.19956
▁plan	-9.19959
G	-9.19966
▁immediate	-9.20056
▁High	-9.20267
ber	-9.20267
va	-9.20306
▁Award	-9.20479
▁social	-9.20579
H	-9.20638
▁con	-9.20781
▁w	-9.20885
one	-9.20943
▁Union	-9.20946
V	-9.21344
▁defeat	-9.21352
▁better	-9.21418
▁attend	-9.21906
▁units	-9.21924
ey	-9.22045
▁Brown	-9.22372
▁commercial	-9.22387
N	-9.22425
▁fact	-9.22499
▁Act	-9.22584
field	-9.22604
▁conduct	-9.2284
▁according	-9.2288
▁recording	-9.22918
▁concern	-9.2292
▁India	-9.22942
▁above	-9.23088
▁beginning	-9.23505
▁winds	-9.23673
▁told	-9.23742
▁football	-9.23756
▁relative	-9.23801
▁additional	-9.23917
F	-9.23969
▁tri	-9.24043
mp	-9.24072
▁prevent	-9.24092
▁daughter	-9.24149
▁1990	-9.2415
▁Hill	-9.24219
▁Richard	-9.24299
▁account	-9.24351
▁going	-9.24463
▁section	-9.24532
▁appoint	-9.24591
▁ended	-9.24782
▁Company	-9.24806
▁response	-9.25009
▁give	-9.25075
▁required	-9.25247
▁Indian	-9.25323
ag	-9.25348
▁others	-9.25632
▁interview	-9.25648
▁College	-9.25721
▁pressure	-9.25804
▁brother	-9.25837
▁Ha	-9.25867
▁propos	-9.25867
▁evidence	-9.2591
▁itself	-9.25924
▁sometime	-9.26017
▁cross	-9.26028
▁rate	-9.26172
▁Church	-9.26223
▁Bay	-9.26274
▁Ro	-9.2653
▁That	-9.26548
▁elements	-9.2659
▁develop	-9.26635
▁red	-9.26707
▁Force	-9.26755
▁Germany	-9.26762
▁idea	-9.26864
▁village	-9.26872
▁Na	-9.2695
£	-9.27026
▁NY	-9.2714
▁approach	-9.27157
▁bridge	-9.2719
ko	-9.27234
▁protect	-9.2739
▁media	-9.27485
▁course	-9.27538
▁musical	-9.27877
▁material	-9.27977
ki	-9.28017
▁Day	-9.28036
▁international	-9.28171
the	-9.28179
▁poor	-9.28181
▁UK	-9.28265
▁election	-9.28273
ier	-9.28313
▁60	-9.28729
▁Western	-9.28764
▁future	-9.28771
▁intend	-9.28832
▁serve	-9.28848
▁program	-9.2885
▁Final	-9.2885
▁sell	-9.28977
day	-9.2906
▁specific	-9.29082
▁recent	-9.29107
▁Soviet	-9.29204
ated	-9.29386
▁rule	-9.29503
ite	-9.2956
▁female	-9.29656
▁Times	-9.29661
▁host	-9.29669
▁Car	-9.29914
▁reviews	-9.30067
▁Grand	-9.30113
▁Film	-9.3012
▁Rock	-9.30136
across	-9.30191
▁chose	-9.30194
▁whom	-9.30434
▁police	-9.30461
ence	-9.30557
▁suffer	-9.3066
▁select	-9.30703
▁produce	-9.30833
▁Championship	-9.30855
6	-9.3087
di	-9.31037
▁alread	-9.31056
up	-9.31125
▁report	-9.31157
▁carri	-9.31168
▁deep	-9.31206
▁know	-9.31291
▁loss	-9.3141
▁structure	-9.31712
▁Love	-9.31743
▁1970	-9.31917
▁Most	-9.32097
ford	-9.32273
▁western	-9.32391
▁1980	-9.32399
▁type	-9.32409
▁meeting	-9.32434
▁unit	-9.32448
▁earn	-9.32456
▁study	-9.32514
▁Britain	-9.32628
ina	-9.3272
▁feature	-9.32742
▁exist	-9.32784
▁Ma	-9.32787
▁president	-9.32979
ical	-9.33085
bo	-9.33085
▁money	-9.33148
▁question	-9.33232
▁Ca	-9.33244
▁spen	-9.33306
▁bring	-9.33474
▁especial	-9.33546
▁food	-9.3358
io	-9.33674
▁summer	-9.33679
▁Los	-9.33736
5	-9.33926
▁fleet	-9.33932
▁Virginia	-9.33964
▁estimat	-9.33973
▁Awards	-9.34047
▁radio	-9.34066
▁Mo	-9.34108
▁Later	-9.34119
▁Ta	-9.34207
▁Lake	-9.34321
▁Cor	-9.34371
▁river	-9.34633
▁might	-9.34634
▁ball	-9.3476
▁compos	-9.34822
▁community	-9.34851
ud	-9.34964
▁But	-9.35061
▁grow	-9.35077
▁Vi	-9.35099
que	-9.35115
▁broadcast	-9.35131
▁audience	-9.35229
P	-9.35263
▁1999	-9.35315
▁eastern	-9.35397
▁35	-9.35398
ster	-9.35422
▁Green	-9.35485
▁research	-9.35742
▁date	-9.35749
▁actual	-9.35792
▁deal	-9.3598
▁God	-9.36022
▁Ko	-9.3609
ru	-9.36222
R	-9.36425
▁percent	-9.3651
▁Or	-9.3673
▁sub	-9.36886
▁Sch	-9.36907
min	-9.3693
▁leav	-9.37009
▁latter	-9.37046
▁separate	-9.37068
▁rais	-9.37088
▁Lord	-9.37279
▁brief	-9.37281
▁states	-9.37292
ea	-9.37305
▁Pro	-9.37375
▁Jackson	-9.37404
▁winning	-9.37533
tion	-9.37575
ill	-9.37592
▁division	-9.377
▁practice	-9.3777
▁certain	-9.37808
▁private	-9.37845
▁defeated	-9.37992
▁Se	-9.38033
▁Do	-9.38048
▁If	-9.38088
ah	-9.38305
▁referr	-9.38321
▁Edward	-9.38383
com	-9.38798
▁staff	-9.38818
▁groups	-9.38834
▁amount	-9.38943
un	-9.38987
▁Bill	-9.39081
mar	-9.39083
▁stay	-9.39124
▁elect	-9.39185
▁movement	-9.39402
▁double	-9.39414
▁students	-9.39506
▁Club	-9.39511
▁Sun	-9.39585
ten	-9.39586
▁Spanish	-9.39678
▁seem	-9.39703
▁vote	-9.39784
▁self	-9.40063
▁lines	-9.40081
▁Association	-9.4034
▁destroyed	-9.40459
▁manager	-9.40578
▁tell	-9.40595
▁overall	-9.40769
ven	-9.40773
▁Don	-9.4085
▁1960	-9.40941
▁Party	-9.40946
▁board	-9.41017
wood	-9.41032
▁Second	-9.41142
▁Council	-9.41142
▁watch	-9.41147
▁language	-9.41252
▁Queen	-9.41304
po	-9.41325
▁effects	-9.41399
▁pair	-9.41455
▁script	-9.41494
▁professional	-9.41848
▁Chicago	-9.41863
▁running	-9.41895
▁our	-9.4214
▁test	-9.42142
army	-9.42298
▁effect	-9.42316
▁Ho	-9.42393
▁natural	-9.42414
▁model	-9.4267
▁affect	-9.42696
▁80	-9.42699
▁pay	-9.42706
▁married	-9.42754
▁1998	-9.42914
ff	-9.42938
▁Chinese	-9.4294
▁producer	-9.4306
▁operat	-9.43251
ana	-9.43275
ron	-9.43342
▁Up	-9.43349
ities	-9.43419
▁child	-9.43463
ow	-9.43504
ran	-9.43621
▁Many	-9.43647
▁fast	-9.43663
▁display	-9.43793
▁traditional	-9.43903
▁forward	-9.43965
▁Russian	-9.43999
▁Jack	-9.44001
▁commander	-9.44079
▁dark	-9.44212
▁Ben	-9.44306
time	-9.44391
au	-9.44393
ure	-9.44415
▁press	-9.44444
▁port	-9.44544
gen	-9.44551
▁critical	-9.44592
▁scenes	-9.44607
za	-9.44715
▁subject	-9.4472
▁inspir	-9.4474
▁advance	-9.44915
▁trial	-9.44948
▁planned	-9.45003
▁increasing	-9.45128
▁centre	-9.45138
▁Mary	-9.45163
▁friend	-9.4523
▁commission	-9.45276
▁annual	-9.45288
▁effective	-9.453
▁Mark	-9.45398
▁Johnson	-9.45413
▁compared	-9.45451
▁color	-9.4548
mer	-9.45499
ver	-9.45525
▁active	-9.45617
▁living	-9.45627
▁longer	-9.45628
▁Pacific	-9.4564
▁approximately	-9.45651
▁captured	-9.4572
▁guitar	-9.45785
▁fifth	-9.45787
pa	-9.45846
▁themselves	-9.45892
▁singer	-9.45973
▁leader	-9.45992
▁History	-9.46025
▁sp	-9.46081
▁related	-9.46105
▁higher	-9.46107
▁done	-9.46153
▁Billboard	-9.4655
▁Martin	-9.46597
▁believe	-9.46642
▁gold	-9.46644
▁thus	-9.4685
▁plot	-9.46864
▁capital	-9.46887
▁Har	-9.46896
▁grant	-9.46932
em	-9.46996
▁Canadian	-9.47029
▁Di	-9.4708
▁competition	-9.4709
▁Pe	-9.47161
▁woman	-9.47286
kin	-9.47407
wa	-9.4743
▁v	-9.47451
▁probab	-9.47466
▁parts	-9.47475
▁coach	-9.47486
▁fans	-9.4755
▁rights	-9.47554
▁Mu	-9.47626
▁via	-9.4766
▁drive	-9.47677
▁whether	-9.47692
cross	-9.47978
▁think	-9.48047
cy	-9.48116
▁learn	-9.48152
▁leave	-9.48241
▁prior	-9.48309
▁300	-9.48392
▁location	-9.48472
▁copies	-9.48481
▁Since	-9.48496
ho	-9.48543
▁Squadron	-9.48596
ya	-9.48614
▁typical	-9.48628
▁offer	-9.48733
▁Atlantic	-9.48751
▁1997	-9.48765
hu	-9.4878
▁complex	-9.48958
▁soldiers	-9.48999
▁trade	-9.49107
▁45	-9.49208
▁pop	-9.4923
▁lyrics	-9.49249
▁Super	-9.49255
▁countries	-9.49283
▁China	-9.49377
▁supported	-9.4938
▁Florida	-9.49654
▁mention	-9.49727
▁Both	-9.49752
▁cm	-9.49823
▁Highway	-9.5012
▁demand	-9.50146
▁Big	-9.50162
▁pilot	-9.50219
▁And	-9.50254
▁operations	-9.50331
▁Sever	-9.50407
▁request	-9.50439
▁fell	-9.50569
▁minute	-9.50619
nother	-9.50648
▁edition	-9.50657
▁target	-9.50881
mb	-9.50947
▁shows	-9.51042
▁stop	-9.51074
▁Italian	-9.51115
▁mixed	-9.51156
▁Texas	-9.51241
▁expand	-9.51252
▁reduc	-9.51301
ches	-9.5153
▁health	-9.51607
▁portion	-9.51658
▁historian	-9.51676
▁cyclone	-9.5169
▁wind	-9.51698
▁Qu	-9.51796
▁always	-9.51796
O	-9.518
per	-9.51831
▁removed	-9.51843
▁ran	-9.51872
bu	-9.5189
▁flight	-9.51919
▁network	-9.51944
▁Sir	-9.5196
▁status	-9.51964
▁70	-9.521
berg	-9.52232
▁Center	-9.52328
ny	-9.52345
▁films	-9.52423
ker	-9.52512
▁stars	-9.52589
▁share	-9.52685
▁got	-9.52688
▁metal	-9.52788
▁Ri	-9.5282
hi	-9.52884
▁Earth	-9.5294
▁Tour	-9.52963
▁camp	-9.53119
tor	-9.53143
▁something	-9.5316
T	-9.53215
▁Africa	-9.53407
▁key	-9.53431
▁carry	-9.53463
▁avoid	-9.53578
▁foot	-9.53644
L	-9.53648
▁officers	-9.53759
▁majority	-9.53792
▁refus	-9.53929
▁Du	-9.53973
tra	-9.54054
▁di	-9.54059
▁pro	-9.54087
▁hour	-9.54215
▁Year	-9.54217
▁screen	-9.54327
▁ex	-9.54494
▁problems	-9.54726
▁Wood	-9.54768
▁offered	-9.54945
▁becom	-9.54991
▁access	-9.55015
▁goals	-9.55032
▁Ar	-9.55035
▁tons	-9.55043
▁tracks	-9.55153
▁nature	-9.55185
▁frequent	-9.55295
ions	-9.5534
▁direction	-9.55436
▁potential	-9.55671
mon	-9.55721
▁Empire	-9.5576
▁numero	-9.55786
house	-9.55952
▁culture	-9.56122
▁respectively	-9.56133
▁Central	-9.56193
▁1995	-9.56378
▁revealed	-9.56472
▁impact	-9.56495
▁plans	-9.56619
▁Angeles	-9.56665
▁cit	-9.56679
▁hold	-9.56695
▁III	-9.56702
▁Can	-9.56801
▁territor	-9.56852
▁standard	-9.56929
▁associat	-9.56944
▁yet	-9.57051
▁Port	-9.57118
▁buildings	-9.57186
▁Over	-9.57237
▁legal	-9.57336
▁minor	-9.57412
▁Su	-9.575
▁Congress	-9.57527
▁dead	-9.57534
▁upper	-9.57623
▁moving	-9.5764
▁word	-9.57648
▁teams	-9.57703
▁Lu	-9.57733
▁occurred	-9.57739
▁Sp	-9.57755
▁Per	-9.57808
▁Test	-9.57911
▁male	-9.57926
▁occur	-9.57928
ide	-9.58089
▁32	-9.58137
▁Tom	-9.58158
▁whole	-9.58228
▁Group	-9.58266
▁treat	-9.58342
▁Frank	-9.58381
▁transport	-9.58396
▁college	-9.58456
▁terms	-9.58457
▁information	-9.58459
▁2016	-9.58477
▁shown	-9.58496
▁1996	-9.58669
▁slight	-9.58714
he	-9.58766
▁1950	-9.58795
▁depression	-9.5883
▁blue	-9.58838
▁00	-9.58842
▁collection	-9.58938
▁episodes	-9.58968
oc	-9.58971
▁Greek	-9.58973
▁sales	-9.5903
▁defend	-9.59043
▁operation	-9.59063
▁TV	-9.59101
▁author	-9.59108
ious	-9.59135
▁Te	-9.59217
▁slow	-9.59238
▁build	-9.59339
▁sister	-9.5939
▁Bur	-9.59447
▁Old	-9.59501
▁issu	-9.59503
▁Am	-9.59522
▁Sal	-9.5963
▁castle	-9.59648
W	-9.59655
▁injur	-9.59678
tro	-9.59709
qui	-9.59764
▁letter	-9.59835
▁Minister	-9.59903
▁severe	-9.59965
▁quarter	-9.59978
▁officer	-9.60047
▁conditions	-9.60075
▁la	-9.60086
▁Stone	-9.60133
▁murder	-9.60283
▁Men	-9.60292
▁captain	-9.60376
▁independent	-9.60376
▁border	-9.60423
▁artist	-9.60492
▁industry	-9.60527
▁1994	-9.60554
▁session	-9.60597
▁feel	-9.60697
▁Gu	-9.60716
▁Corps	-9.60722
▁Bar	-9.60848
▁situation	-9.6088
▁Jo	-9.60942
▁services	-9.60949
▁Hot	-9.60988
sen	-9.61085
▁90	-9.61098
▁heavi	-9.6113
▁assigned	-9.61157
▁attention	-9.61172
▁economic	-9.61174
▁link	-9.6121
▁plant	-9.61264
▁Time	-9.61283
▁Team	-9.61398
▁n	-9.61455
▁conflict	-9.61462
▁primar	-9.61625
▁attempted	-9.61675
▁DVD	-9.61685
▁commented	-9.61729
▁mass	-9.61799
▁moment	-9.62004
▁expected	-9.62005
▁education	-9.62043
▁75	-9.6214
▁yards	-9.62154
▁normal	-9.62183
K	-9.6222
▁heart	-9.62256
fa	-9.6235
▁Ke	-9.62522
▁oppos	-9.62597
▁dance	-9.62629
▁extra	-9.6293
▁Michigan	-9.63046
▁horse	-9.63372
▁Bridge	-9.63502
▁retain	-9.63513
han	-9.63571
▁hop	-9.63592
▁1940	-9.63635
▁below	-9.63661
▁closed	-9.63729
▁scale	-9.63812
▁Wales	-9.63874
▁distance	-9.63933
▁inter	-9.64026
▁fish	-9.64035
▁concept	-9.64242
▁issues	-9.64275
▁mount	-9.64283
▁resident	-9.64303
▁content	-9.64318
▁giving	-9.64318
▁declared	-9.64416
▁bill	-9.64508
▁marriage	-9.64512
▁blood	-9.64621
▁religious	-9.64621
▁middle	-9.64625
▁African	-9.6463
ek	-9.64701
ise	-9.64901
eg	-9.64902
▁stone	-9.6492
we	-9.64944
▁ability	-9.65104
ap	-9.65119
ett	-9.65212
▁science	-9.65252
▁combat	-9.6529
▁draft	-9.65314
▁rapid	-9.65381
▁Major	-9.65384
▁Pa	-9.65412
con	-9.655
▁effort	-9.65522
▁promot	-9.65544
▁Scott	-9.6559
▁nation	-9.65698
▁ultimate	-9.65728
▁read	-9.6578
▁concert	-9.6581
▁Saint	-9.65865
▁matches	-9.65902
▁decade	-9.65937
ip	-9.65995
▁describe	-9.66061
▁serious	-9.66073
▁kind	-9.66075
ney	-9.66097
vo	-9.66106
▁Chris	-9.66267
▁Hu	-9.6639
▁couple	-9.66467
▁district	-9.66479
ub	-9.66521
▁1992	-9.66605
▁friends	-9.66633
ade	-9.66747
▁financial	-9.66775
▁call	-9.66828
▁energy	-9.66924
ong	-9.67098
jo	-9.67114
▁movie	-9.67169
ists	-9.6718
▁Fort	-9.67259
▁search	-9.67299
▁collect	-9.67311
▁adopt	-9.67354
▁Fox	-9.67663
▁appears	-9.67764
▁Zealand	-9.67783
▁contact	-9.67883
▁Operation	-9.68136
chi	-9.68152
U	-9.68189
▁constructed	-9.68381
▁Under	-9.6842
well	-9.68614
nt	-9.68647
board	-9.68659
▁pick	-9.68692
▁temperature	-9.687
▁takes	-9.68792
▁vocals	-9.68827
▁chief	-9.68889
▁source	-9.68961
▁charge	-9.69075
á	-9.69122
▁Mexico	-9.69129
ze	-9.69174
▁Like	-9.6925
▁Sam	-9.69411
aught	-9.69429
espite	-9.69478
▁Un	-9.69565
▁Van	-9.69661
lan	-9.69741
▁1930	-9.69742
▁escape	-9.69755
▁defense	-9.69816
▁dis	-9.69851
▁damag	-9.69906
▁Mac	-9.69961
▁wall	-9.70015
▁transferr	-9.70045
▁Latin	-9.70064
▁physical	-9.70221
▁meaning	-9.70234
▁Da	-9.70294
▁receive	-9.70379
▁Madonna	-9.7043
▁fill	-9.70431
▁box	-9.70493
▁twenty	-9.70495
▁attacks	-9.70574
▁Service	-9.70625
▁engine	-9.70635
▁1993	-9.70655
▁fund	-9.70692
▁stating	-9.70756
▁1991	-9.70781
▁Long	-9.70811
▁oil	-9.70853
ius	-9.70857
▁Jones	-9.70977
▁Line	-9.71001
ja	-9.71015
▁lot	-9.71091
▁argu	-9.7114
ization	-9.71155
▁Pre	-9.71166
▁Scotland	-9.71242
▁ring	-9.71329
▁yard	-9.71576
▁Department	-9.71709
▁royal	-9.71723
▁wing	-9.71728
▁Lee	-9.71857
kept	-9.71884
ex	-9.71952
▁bar	-9.71964
▁Hurricane	-9.721
▁represent	-9.7213
▁train	-9.72234
▁dropp	-9.72259
▁More	-9.72262
▁morning	-9.7227
▁executive	-9.72339
▁mission	-9.72356
▁Cha	-9.72382
ft	-9.72474
▁bad	-9.72514
▁means	-9.72515
▁Three	-9.72572
▁responsibl	-9.72794
▁stand	-9.72885
▁guest	-9.72971
▁400	-9.72988
▁managed	-9.73128
▁Prince	-9.73208
▁enjoy	-9.73283
▁Infantry	-9.73308
▁books	-9.73342
▁Their	-9.73345
▁Creek	-9.73378
▁identifi	-9.73437
▁inside	-9.73446
▁wear	-9.73485
▁makes	-9.73682
▁Catholic	-9.73705
▁Simpson	-9.73705
▁floor	-9.73745
▁ending	-9.7394
▁performances	-9.73945
▁Bre	-9.73973
▁variety	-9.74104
▁Life	-9.74142
▁depict	-9.74192
▁rain	-9.74218
▁championship	-9.7439
▁seat	-9.74414
▁speak	-9.74435
▁machine	-9.74491
▁divid	-9.74551
▁forest	-9.74568
▁arrest	-9.74598
▁Pi	-9.74728
▁hospital	-9.74772
fe	-9.74823
▁Committee	-9.74839
▁presented	-9.74842
▁era	-9.74859
▁count	-9.7486
▁Post	-9.75008
▁square	-9.75025
▁33	-9.75228
▁squadron	-9.7538
▁discuss	-9.75578
▁Battalion	-9.75769
▁Records	-9.75833
ach	-9.75863
▁marked	-9.75881
▁Cross	-9.75885
▁notes	-9.75915
quality	-9.75974
▁tower	-9.75992
▁broke	-9.76138
▁formation	-9.76178
▁criticiz	-9.76216
▁hundred	-9.76271
▁Y	-9.76291
▁efforts	-9.76351
▁meant	-9.76371
▁portray	-9.76441
▁Art	-9.76479
ory	-9.76512
cher	-9.76514
▁piece	-9.76535
▁Live	-9.76571
▁sex	-9.76587
ator	-9.7662
▁multiple	-9.76697
ev	-9.76749
▁presence	-9.76749
▁Society	-9.76885
▁engage	-9.76935
don	-9.76946
▁begins	-9.77005
▁1942	-9.77013
pi	-9.77069
▁reflect	-9.77128
▁federal	-9.77215
▁write	-9.77221
▁block	-9.77258
▁Ni	-9.77306
▁Southern	-9.77368
our	-9.77473
▁i	-9.77479
▁primari	-9.77554
▁document	-9.77609
▁speech	-9.77655
▁add	-9.77657
▁Jim	-9.77792
▁theme	-9.7786
▁Stephen	-9.77863
gar	-9.77868
town	-9.77968
▁raid	-9.78031
▁foreign	-9.78042
ino	-9.78056
▁kill	-9.78076
▁viewers	-9.781
▁metres	-9.78142
▁Louis	-9.78174
▁winter	-9.78215
▁traffic	-9.78225
▁contrast	-9.78264
▁Oxford	-9.78265
7	-9.78281
▁extreme	-9.78292
ther	-9.78294
▁secret	-9.78337
▁Captain	-9.78403
▁value	-9.78416
▁enemy	-9.785
▁leg	-9.78517
▁storie	-9.78609
▁levels	-9.78707
▁words	-9.78768
▁fear	-9.7878
ez	-9.79012
▁Republican	-9.7906
▁Joseph	-9.79075
▁actor	-9.79087
▁reason	-9.79095
▁Chief	-9.79175
▁Boston	-9.79265
ick	-9.79316
▁concluded	-9.79367
▁Tri	-9.79428
▁honor	-9.79435
▁scoring	-9.79437
▁property	-9.79443
▁encounter	-9.79493
▁Harrison	-9.79499
▁Manchester	-9.79609
▁risk	-9.79666
ung	-9.79695
▁Mr	-9.79702
ai	-9.79739
▁prominent	-9.79761
▁setting	-9.79787
▁job	-9.7987
ecause	-9.79875
▁Before	-9.80015
▁threat	-9.80072
▁weaken	-9.80095
▁rating	-9.80101
▁extensive	-9.80114
▁societ	-9.8012
▁Brigade	-9.80142
▁records	-9.80408
▁Vietnam	-9.80582
val	-9.80655
▁Che	-9.80661
more	-9.80696
▁cap	-9.80697
▁Mi	-9.80876
▁Paris	-9.80896
▁Regiment	-9.80923
iv	-9.80928
▁1944	-9.80943
▁observed	-9.80967
qu	-9.80987
▁36	-9.80989
▁governor	-9.81032
▁tournament	-9.81037
▁strength	-9.81082
▁Little	-9.81108
▁sense	-9.81133
▁rough	-9.81153
▁cases	-9.81193
▁reception	-9.81273
▁positions	-9.81377
▁paid	-9.81424
▁things	-9.81531
▁prov	-9.81534
▁appeal	-9.81581
▁Ga	-9.81618
▁invasion	-9.81624
all	-9.8169
▁incident	-9.81725
▁meet	-9.81782
▁Ver	-9.81798
▁Home	-9.8183
port	-9.81851
▁companies	-9.81854
▁inch	-9.81922
▁convert	-9.82103
▁37	-9.82252
▁say	-9.82255
▁historical	-9.82268
▁Williams	-9.82323
▁Series	-9.82447
▁mind	-9.82651
▁powerful	-9.82702
▁Mor	-9.82724
▁animals	-9.82809
▁Si	-9.82841
over	-9.82939
▁don	-9.8295
▁candidate	-9.82968
tar	-9.82973
▁flag	-9.82978
ised	-9.83006
uc	-9.8301
▁parents	-9.83027
▁reject	-9.83053
▁BBC	-9.83067
har	-9.83159
che	-9.83238
▁Gold	-9.8325
▁En	-9.83264
stone	-9.83315
tz	-9.83323
▁draw	-9.83391
▁onto	-9.83405
▁supplie	-9.83435
▁maximum	-9.83464
▁innings	-9.8361
▁assist	-9.83698
▁38	-9.83832
▁comic	-9.8388
▁Academy	-9.83889
▁1920	-9.84056
▁1945	-9.84058
▁policy	-9.8408
▁disease	-9.84095
▁Middle	-9.84166
ward	-9.84171
▁your	-9.84174
fi	-9.84326
▁Young	-9.84348
▁Entertainment	-9.8436
▁Museum	-9.84419
▁1941	-9.84558
▁designated	-9.84581
▁reference	-9.8476
▁participat	-9.84839
▁ice	-9.84867
led	-9.84867
▁activity	-9.85041
▁task	-9.85041
ari	-9.85072
▁opportunit	-9.85085
▁label	-9.85178
▁Italy	-9.85189
▁thousand	-9.85279
▁combined	-9.85293
▁capture	-9.85337
▁split	-9.85432
truck	-9.85449
▁Ex	-9.85505
fer	-9.85554
▁schools	-9.85569
ou	-9.85633
▁organization	-9.85663
▁Law	-9.85711
▁green	-9.85712
▁34	-9.85723
▁Ten	-9.85796
▁eye	-9.85841
▁battleship	-9.85851
shi	-9.85856
mm	-9.85912
ng	-9.8596
if	-9.85968
▁background	-9.85979
wise	-9.86116
▁Parliament	-9.8616
▁Avenue	-9.86176
▁railway	-9.86201
▁Production	-9.86208
▁birth	-9.86219
▁Ba	-9.86236
▁Bas	-9.86264
▁calling	-9.86271
▁aid	-9.86351
▁nominated	-9.86432
▁talk	-9.86515
▁Fleet	-9.86583
▁naval	-9.86613
▁tax	-9.8668
ese	-9.86716
▁weather	-9.86719
▁fan	-9.86728
▁succeed	-9.8681
▁beat	-9.86818
▁Gar	-9.86891
▁49	-9.86918
▁treatment	-9.87017
▁Ireland	-9.87128
▁husband	-9.87158
▁Though	-9.8716
▁Joe	-9.87276
▁flow	-9.87425
▁shape	-9.87425
▁confirmed	-9.87577
ren	-9.87583
ji	-9.87597
▁image	-9.87721
av	-9.87752
▁push	-9.87801
▁throw	-9.87833
▁Ed	-9.87852
▁Games	-9.87874
▁attempts	-9.87893
▁Show	-9.87934
▁1989	-9.87957
bi	-9.88009
▁Victoria	-9.88037
▁visual	-9.88103
▁connect	-9.88117
▁Republic	-9.88178
I	-9.88199
▁native	-9.88219
▁150	-9.88308
▁begin	-9.88317
▁explained	-9.88383
▁surrounding	-9.88399
ack	-9.88455
▁Dan	-9.88496
▁1943	-9.88539
▁rise	-9.88541
▁student	-9.88554
▁formal	-9.88555
▁rat	-9.8862
ps	-9.88632
▁sixth	-9.88729
▁happen	-9.88774
gan	-9.88799
▁chance	-9.88839
▁county	-9.88966
▁weight	-9.89031
ski	-9.89118
▁ceremon	-9.892
▁farm	-9.89238
▁names	-9.89255
▁sexual	-9.89363
▁website	-9.89398
▁table	-9.89485
▁organiz	-9.89529
▁Br	-9.89555
▁Tropical	-9.89584
▁soundtrack	-9.89616
▁coming	-9.89629
▁progress	-9.89715
▁tail	-9.89786
▁Valley	-9.89789
▁steam	-9.89818
▁attract	-9.8982
▁cities	-9.8983
▁owned	-9.89836
let	-9.89908
▁price	-9.89942
▁sources	-9.89978
▁choice	-9.89989
▁sustain	-9.89989
▁matter	-9.90018
▁Ch	-9.90039
▁forms	-9.90042
▁seek	-9.90044
mann	-9.90096
hile	-9.90106
▁true	-9.90165
▁landing	-9.90217
▁Tech	-9.90296
low	-9.90318
▁expressed	-9.90405
▁agreement	-9.90472
▁fuel	-9.90481
coming	-9.90492
▁Dutch	-9.90553
▁numbers	-9.90555
▁Alli	-9.90583
▁sail	-9.90616
▁passing	-9.90651
▁reign	-9.90915
▁thick	-9.90916
▁kg	-9.90945
▁artillery	-9.91088
▁armor	-9.9114
▁advanc	-9.91157
▁multi	-9.9118
▁bi	-9.91189
▁artists	-9.91252
▁protest	-9.9131
ara	-9.91376
▁Football	-9.91405
▁Through	-9.91408
▁edge	-9.91629
▁save	-9.91696
▁Carolina	-9.9174
ik	-9.9182
▁theory	-9.91841
▁wood	-9.91911
▁Land	-9.91957
▁improv	-9.91973
▁failure	-9.92026
ax	-9.9203
▁big	-9.92042
▁detail	-9.92106
▁negative	-9.9212
▁alone	-9.92167
▁care	-9.92206
▁Bank	-9.92211
▁Governor	-9.92215
▁becomes	-9.92299
▁guard	-9.92303
▁apparent	-9.92343
water	-9.92359
▁senior	-9.92375
tan	-9.92379
▁actions	-9.92391
▁studies	-9.92466
▁coin	-9.92594
gu	-9.92632
▁What	-9.92647
▁says	-9.92659
▁Ti	-9.92661
▁Of	-9.92756
▁sides	-9.92848
▁kilometre	-9.92904
▁contribut	-9.93093
og	-9.93107
▁equipment	-9.93114
▁Top	-9.93129
▁drama	-9.93166
ile	-9.93204
wi	-9.9323
▁strike	-9.93234
▁weapons	-9.93249
▁Korean	-9.93281
▁flood	-9.93356
▁spread	-9.93421
▁Ocean	-9.93436
▁super	-9.93514
▁walk	-9.93519
▁gas	-9.93676
▁Civil	-9.93727
▁represented	-9.93793
▁injury	-9.9385
▁Christ	-9.93871
▁composition	-9.93937
▁Daniel	-9.9399
▁growth	-9.94024
▁Chi	-9.94069
▁lane	-9.94112
▁contemporary	-9.94122
▁Will	-9.94196
▁Duke	-9.94236
▁medical	-9.94297
vin	-9.94329
▁except	-9.94333
▁Homer	-9.94376
▁Bond	-9.9438
▁destroy	-9.94409
▁paper	-9.94414
▁Northern	-9.94575
▁laid	-9.94584
gi	-9.94607
ability	-9.94684
▁fired	-9.94771
▁capacit	-9.94868
▁Government	-9.94884
▁Castle	-9.94891
▁spring	-9.94941
▁Prime	-9.94972
▁hair	-9.95057
▁medal	-9.95058
▁reviewer	-9.95062
ris	-9.95115
▁achiev	-9.95123
▁Out	-9.95175
▁Light	-9.952
▁problem	-9.95222
▁committee	-9.95364
▁interchange	-9.95393
▁computer	-9.95412
▁District	-9.95443
▁Song	-9.95468
▁imp	-9.95474
▁crowd	-9.95476
▁officials	-9.95501
▁BC	-9.95536
▁Storm	-9.95567
und	-9.95576
▁offensive	-9.95608
ble	-9.95632
▁activities	-9.95681
▁mean	-9.95728
▁counter	-9.95968
▁northeast	-9.95982
▁degree	-9.96172
▁categor	-9.9622
▁billion	-9.96249
row	-9.96266
ect	-9.9629
▁print	-9.96307
▁condition	-9.96322
grew	-9.96425
▁Admiral	-9.96485
▁Field	-9.96553
▁Scottish	-9.96593
▁Pan	-9.96636
▁settlement	-9.96679
▁civil	-9.96686
▁killing	-9.96713
▁prisoner	-9.9672
▁1987	-9.9673
▁aspect	-9.96737
▁Hol	-9.96759
▁worldwide	-9.96808
cha	-9.96809
▁sequence	-9.96845
▁ca	-9.96938
▁dress	-9.9696
▁1988	-9.96964
istic	-9.9704
▁element	-9.97083
▁System	-9.97088
▁Short	-9.9709
▁suit	-9.97091
▁Fantasy	-9.97205
▁boat	-9.97209
▁Boy	-9.97376
▁intersection	-9.9739
▁Background	-9.97391
▁vi	-9.97426
▁broad	-9.97458
▁proposal	-9.97498
▁fellow	-9.97504
▁Par	-9.97513
▁appearances	-9.97543
▁Mount	-9.97631
▁trying	-9.97673
▁famous	-9.9771
▁hope	-9.97724
▁rainfall	-9.97729
▁Bi	-9.97867
▁Not	-9.97887
▁universit	-9.98001
▁600	-9.98051
ef	-9.98198
J	-9.98205
▁vocal	-9.98208
▁adapt	-9.98211
▁fine	-9.98248
▁twice	-9.98268
▁Coast	-9.98303
sis	-9.9833
▁55	-9.98342
▁Blue	-9.98351
ala	-9.98352
▁Polish	-9.98361
▁newspaper	-9.98362
▁supply	-9.98472
▁Chart	-9.98499
▁crash	-9.98512
▁doing	-9.98635
▁trip	-9.9865
▁acre	-9.98701
▁Senate	-9.98738
▁height	-9.98804
▁address	-9.98817
▁therefore	-9.98997
▁consecutive	-9.99
▁bank	-9.99033
▁Christmas	-9.99037
▁pieces	-9.99058
▁Eastern	-9.99069
▁spend	-9.99137
▁Festival	-9.99154
▁opinion	-9.99218
▁expedition	-9.99239
▁perfect	-9.99274
▁Mike	-9.99328
tu	-9.99339
▁Fi	-9.99374
▁estate	-9.99465
▁Studios	-9.99487
▁du	-9.99587
9	-9.99602
▁purpose	-9.99636
▁Andrew	-9.99644
ita	-9.997
▁Wilson	-9.99747
▁birds	-9.99749
▁ha	-9.99773
▁Pennsylvania	-9.99823
▁herself	-9.99845
▁accompani	-9.99926
▁trees	-9.99952
▁expansion	-9.99995
▁Far	-10.0003
▁aim	-10.0014
▁Taylor	-10.0015
▁48	-10.0017
▁fair	-10.0018
▁Pat	-10.0021
▁genre	-10.0024
▁simply	-10.0029
▁brown	-10.005
ric	-10.0052
▁respect	-10.006
▁assault	-10.0068
losing	-10.007
▁41	-10.0076
▁plays	-10.0082
▁storyline	-10.0083
▁leaders	-10.0084
▁1986	-10.0087
▁Elizabeth	-10.0091
▁crime	-10.0091
▁Bell	-10.0092
▁Alexander	-10.0098
▁wounded	-10.0099
▁nothing	-10.0103
▁Win	-10.0107
▁authority	-10.0113
▁firm	-10.0114
20	-10.0119
▁camera	-10.0127
▁tree	-10.0136
king	-10.0138
▁Each	-10.0139
▁deck	-10.0146
▁unknown	-10.0151
▁breed	-10.0154
▁silver	-10.0155
ative	-10.0161
▁Ku	-10.0163
▁Q	-10.0168
▁workers	-10.0168
▁simple	-10.0175
▁Fe	-10.0184
▁Water	-10.0188
▁semi	-10.0191
▁environment	-10.021
▁opposition	-10.021
▁sh	-10.0212
▁fiction	-10.0213
▁Za	-10.0225
▁econom	-10.0231
▁inform	-10.0232
ture	-10.0233
▁solo	-10.024
▁standing	-10.0244
▁Four	-10.0253
▁council	-10.0254
ement	-10.0262
▁cell	-10.0264
tter	-10.0268
▁bowl	-10.0283
back	-10.0286
▁Due	-10.0287
▁Night	-10.0289
▁occupi	-10.0294
▁text	-10.0295
▁64	-10.0296
▁39	-10.0299
▁Col	-10.03
▁catch	-10.0301
ica	-10.0302
▁Reception	-10.0315
▁basis	-10.0316
off	-10.0317
▁Railway	-10.0319
▁Han	-10.0323
▁budget	-10.0329
ec	-10.0344
▁heard	-10.0347
▁advantage	-10.0349
▁versions	-10.0349
▁rear	-10.0351
▁hands	-10.0351
▁defin	-10.0355
▁favor	-10.0356
▁Irish	-10.0358
▁master	-10.0358
▁miss	-10.0359
▁Further	-10.0362
▁serving	-10.0365
▁bit	-10.0365
▁Institute	-10.0367
ö	-10.0368
ü	-10.0368
▁reserve	-10.0368
▁iron	-10.0369
▁shift	-10.0372
▁winner	-10.0376
▁walls	-10.0394
▁regiment	-10.0394
▁Doctor	-10.0394
▁42	-10.0395
▁starr	-10.0398
▁crossing	-10.0403
▁spot	-10.0405
▁adult	-10.0412
▁65	-10.0415
▁pull	-10.042
▁message	-10.0423
her	-10.043
▁Harry	-10.0431
▁Marine	-10.0433
▁Wall	-10.0434
▁accus	-10.0435
▁administration	-10.0439
▁Spain	-10.0443
▁47	-10.0443
▁Jersey	-10.0451
▁abandoned	-10.0455
ria	-10.0457
haps	-10.0459
▁roof	-10.0466
▁Tu	-10.0473
▁flying	-10.0475
▁leaves	-10.0479
aw	-10.0482
▁criticism	-10.0483
yond	-10.0485
▁passe	-10.0489
▁horses	-10.049
▁stopp	-10.0493
▁northwest	-10.0509
▁girl	-10.0517
▁rival	-10.0517
shire	-10.0522
▁possibl	-10.0524
rie	-10.0531
▁convince	-10.0531
▁debate	-10.0533
▁comed	-10.0541
▁unique	-10.0541
uck	-10.0545
▁reports	-10.0546
▁wait	-10.0552
ane	-10.0558
▁1939	-10.0567
▁ch	-10.0579
ay	-10.058
▁creation	-10.0584
zi	-10.0593
▁Town	-10.0597
▁Carl	-10.06
▁bodies	-10.0601
▁narrow	-10.0601
▁Mill	-10.0605
par	-10.061
▁Bob	-10.0613
▁engineer	-10.0614
▁Columbia	-10.0619
▁mile	-10.062
▁wave	-10.062
▁Va	-10.0627
▁carrier	-10.0627
▁ma	-10.063
▁retreat	-10.0635
▁animal	-10.0639
▁function	-10.0641
von	-10.0646
▁ho	-10.065
▁province	-10.0652
▁Commission	-10.066
▁digital	-10.067
▁Arthur	-10.0679
▁hall	-10.068
▁phase	-10.0682
▁k	-10.0682
work	-10.0683
▁article	-10.0683
car	-10.0691
▁purchas	-10.0695
▁sports	-10.0697
▁dai	-10.0704
▁torpedo	-10.0709
ix	-10.071
▁recogniz	-10.0712
▁cultural	-10.0713
8	-10.0714
▁retired	-10.0718
bury	-10.0723
▁data	-10.0724
▁heat	-10.0724
▁reduce	-10.0724
▁systems	-10.0725
▁hir	-10.0726
▁creating	-10.0728
▁shar	-10.0729
▁r	-10.0733
▁warning	-10.0734
▁Cambridge	-10.0743
▁Book	-10.0746
▁arrange	-10.0752
▁editor	-10.0753
▁actors	-10.0754
▁1985	-10.0756
▁opera	-10.076
▁1968	-10.0764
ress	-10.0764
▁Inter	-10.0776
▁selection	-10.0776
▁Board	-10.078
▁disc	-10.0781
ep	-10.0781
▁necessary	-10.0783
ata	-10.0785
▁personnel	-10.0791
▁Meanw	-10.0791
▁dedicat	-10.0794
▁twelve	-10.081
▁Asia	-10.0812
gun	-10.0814
▁Bra	-10.0815
qua	-10.0826
▁am	-10.0828
▁gross	-10.0838
▁52	-10.0838
▁leadership	-10.084
▁surrender	-10.0843
▁Also	-10.0845
▁yellow	-10.0849
▁planet	-10.085
▁Sha	-10.085
▁producers	-10.0853
▁Jean	-10.0863
▁street	-10.0866
▁Ohio	-10.0866
▁repeated	-10.0866
▁Sc	-10.087
▁stations	-10.0873
▁mode	-10.0873
▁management	-10.0875
40	-10.0875
▁threaten	-10.0879
▁Point	-10.0881
ring	-10.0887
▁infantry	-10.0887
mor	-10.0902
▁Order	-10.091
▁Walter	-10.091
▁parallel	-10.0911
▁conference	-10.0913
▁description	-10.0917
▁Secretary	-10.0921
ku	-10.0922
▁Gra	-10.0928
▁Com	-10.093
▁Rose	-10.0944
lu	-10.0951
▁peace	-10.0951
▁broken	-10.0957
▁results	-10.0959
▁ancient	-10.0962
af	-10.0965
▁Mer	-10.0967
▁improve	-10.097
▁1984	-10.0974
▁Georgia	-10.0975
▁pitch	-10.098
▁partner	-10.0982
▁battalion	-10.0986
ize	-10.0996
▁Good	-10.0997
▁permanent	-10.0998
▁Even	-10.0998
▁Part	-10.1002
▁critic	-10.1002
▁bomb	-10.1004
▁Philadelphia	-10.1004
▁motion	-10.1016
▁defence	-10.1016
▁arms	-10.1037
▁franchise	-10.1037
▁reveal	-10.104
▁alternative	-10.1041
▁replace	-10.1044
▁tradition	-10.1045
▁colour	-10.1048
▁exchange	-10.1051
▁composer	-10.1055
▁Science	-10.1056
▁contest	-10.1062
▁mountain	-10.1062
▁holding	-10.1064
▁arrival	-10.1064
fr	-10.1071
▁acquired	-10.1072
▁finding	-10.1073
▁reform	-10.1074
▁canno	-10.1079
▁newly	-10.108
▁Val	-10.1083
tle	-10.1088
▁MD	-10.1095
▁claims	-10.11
▁programme	-10.1115
▁Never	-10.1119
▁zone	-10.1125
▁path	-10.1127
▁Islands	-10.113
▁43	-10.1131
▁investigation	-10.1131
▁46	-10.1134
▁Player	-10.1139
▁occasional	-10.114
▁let	-10.1141
▁driver	-10.1143
▁seventh	-10.1143
pon	-10.1147
▁Ja	-10.1148
▁authorities	-10.1153
▁depend	-10.1155
▁44	-10.1156
▁CD	-10.1161
ating	-10.1165
▁Sound	-10.1165
▁Grant	-10.1165
▁Pu	-10.1167
tre	-10.1169
▁Russia	-10.1175
▁centuries	-10.1179
▁defensive	-10.1185
▁1967	-10.1188
▁genu	-10.119
▁Cat	-10.1193
▁People	-10.1193
▁Mc	-10.12
▁headquarters	-10.1202
▁recommend	-10.1206
unt	-10.1209
▁Matt	-10.122
▁Development	-10.122
▁equal	-10.1221
▁nest	-10.1227
yn	-10.1231
▁800	-10.1232
▁affair	-10.1236
lor	-10.1238
▁Square	-10.1242
▁vehicles	-10.1251
▁here	-10.1253
▁determined	-10.1255
▁families	-10.1255
▁Among	-10.1258
▁Ottoman	-10.1259
▁household	-10.126
▁Liverpool	-10.1261
rew	-10.1261
▁Ray	-10.1263
▁prison	-10.1265
90	-10.1265
▁security	-10.1266
▁controlled	-10.1268
ology	-10.1271
X	-10.1273
cal	-10.1275
▁warm	-10.1276
▁Nintendo	-10.1298
▁refer	-10.13
▁drop	-10.1302
▁row	-10.1306
▁Lewis	-10.1307
▁SS	-10.1317
▁Ash	-10.132
▁turret	-10.1326
▁corner	-10.1334
▁Command	-10.1335
sk	-10.1335
▁Ru	-10.1344
▁temple	-10.1344
▁dominat	-10.1348
▁emerg	-10.1348
▁Tor	-10.1351
▁minister	-10.1352
uk	-10.1353
▁Lieutenant	-10.1357
▁paint	-10.1358
▁Additional	-10.1359
▁dollar	-10.136
▁Office	-10.1362
▁branch	-10.1362
▁protection	-10.1376
▁acid	-10.1378
▁flat	-10.1378
▁singing	-10.138
ini	-10.1383
▁piano	-10.1399
30	-10.14
▁symbol	-10.1402
ified	-10.1407
ible	-10.1409
▁fruit	-10.1411
▁ski	-10.1411
▁shooting	-10.1413
▁try	-10.1419
▁Turk	-10.1421
▁Olympic	-10.1429
▁Power	-10.1433
▁gradual	-10.1437
▁touchdown	-10.1443
▁influenc	-10.1443
▁Brad	-10.1452
▁Bart	-10.1456
▁thing	-10.1458
▁1983	-10.1461
old	-10.1465
▁plants	-10.1466
▁intensit	-10.1474
▁Gulf	-10.1474
▁ideas	-10.1476
▁Arm	-10.1477
ret	-10.1477
▁brigade	-10.1481
▁Rome	-10.1482
▁rare	-10.1483
▁climb	-10.1487
▁Jewish	-10.1487
▁lap	-10.1488
▁promote	-10.1489
▁lives	-10.1499
▁Cal	-10.1506
▁appli	-10.1507
lock	-10.1508
▁Francisco	-10.151
▁Cu	-10.1512
▁Anderson	-10.1514
▁Singapore	-10.1525
▁1964	-10.1532
▁deni	-10.1541
▁End	-10.1544
▁1969	-10.1546
▁Miller	-10.1557
▁mouth	-10.156
▁fresh	-10.1562
tt	-10.1564
▁Master	-10.1564
▁flooding	-10.1565
▁Who	-10.1571
▁domestic	-10.1571
▁Carey	-10.1574
ju	-10.1579
▁SR	-10.1582
ood	-10.1585
▁Davis	-10.1592
▁120	-10.1594
▁renam	-10.1611
why	-10.1622
▁Disney	-10.1622
▁Dar	-10.1627
▁51	-10.1627
▁Dark	-10.1628
▁Thu	-10.1629
▁Emperor	-10.163
▁indicate	-10.163
ries	-10.163
▁1914	-10.1635
▁purchase	-10.1635
▁volume	-10.1636
▁industrial	-10.1638
▁Conference	-10.165
▁declin	-10.1652
▁PlayStation	-10.1654
▁wor	-10.1659
▁cr	-10.1659
▁1918	-10.166
rus	-10.166
▁generation	-10.1662
▁HMS	-10.1663
▁Steve	-10.1669
▁follows	-10.1669
▁spin	-10.1679
▁product	-10.168
▁1982	-10.1687
▁Brian	-10.1697
▁tall	-10.1699
▁schedul	-10.17
▁1971	-10.17
ani	-10.1706
ify	-10.1708
NA	-10.1713
ves	-10.1718
▁compet	-10.1724
▁1966	-10.1727
▁travell	-10.1729
▁Yu	-10.1733
▁1972	-10.1739
▁sun	-10.174
▁rail	-10.1743
ug	-10.1744
▁decline	-10.1746
▁Press	-10.1747
▁Ken	-10.1747
▁1979	-10.1752
▁kick	-10.1761
▁promotion	-10.1763
▁Tra	-10.1766
▁facilities	-10.1767
▁Its	-10.1769
▁install	-10.1772
ain	-10.1773
▁survey	-10.1777
▁Fa	-10.1785
▁tend	-10.1787
▁principal	-10.179
▁arrive	-10.1791
▁constant	-10.1794
▁poll	-10.1795
▁accident	-10.1795
▁signal	-10.1799
▁publication	-10.1799
▁weak	-10.18
▁escort	-10.1816
▁department	-10.1822
▁reaction	-10.1827
ight	-10.1832
▁notable	-10.1837
▁drawn	-10.1845
▁cold	-10.1847
▁1965	-10.1849
▁submarine	-10.1854
▁NHL	-10.1867
▁types	-10.1867
ington	-10.1871
oon	-10.1872
▁platform	-10.1875
▁unusual	-10.1879
▁wild	-10.1885
▁straight	-10.1897
▁core	-10.1902
▁Indiana	-10.1903
▁analysis	-10.1906
sky	-10.1907
▁surprise	-10.1908
▁1975	-10.1909
▁continu	-10.1913
▁News	-10.1915
ken	-10.192
var	-10.1923
▁combination	-10.1923
▁Mel	-10.1924
▁steel	-10.1925
cu	-10.193
▁cat	-10.1935
ob	-10.1939
worth	-10.1943
▁gives	-10.1946
▁Bu	-10.1948
▁fit	-10.1955
▁roads	-10.1958
mat	-10.1958
▁Original	-10.1958
▁Bowl	-10.1971
▁lay	-10.1972
rr	-10.1974
▁shoot	-10.1974
▁habitat	-10.198
bound	-10.1986
▁Hollywood	-10.1992
▁southeast	-10.1994
▁religion	-10.2
▁1974	-10.2005
▁buy	-10.201
▁cricket	-10.2012
▁dry	-10.2013
▁Americans	-10.202
pl	-10.2022
▁Ham	-10.2024
▁Jr	-10.2024
▁hotel	-10.2029
▁entrance	-10.2034
▁assistant	-10.2037
je	-10.2037
dra	-10.2041
▁southwest	-10.2053
sha	-10.2056
▁1973	-10.206
nything	-10.2063
▁Special	-10.2066
iz	-10.2069
▁Democratic	-10.2071
stein	-10.2077
▁Station	-10.2081
▁load	-10.2084
▁supporter	-10.2087
▁lake	-10.2088
ox	-10.2089
▁rush	-10.2096
▁Ju	-10.2099
▁secure	-10.2102
▁casualties	-10.2106
cation	-10.2107
▁Between	-10.211
▁Supreme	-10.2121
▁easi	-10.2125
▁highlight	-10.2125
▁Cap	-10.213
▁Albert	-10.2139
▁tank	-10.2143
▁1976	-10.2147
▁method	-10.2153
cc	-10.2153
▁painting	-10.2157
▁Way	-10.2163
▁Lady	-10.2171
▁agent	-10.2174
▁gr	-10.2178
▁finds	-10.2181
▁singles	-10.2192
▁coal	-10.2198
▁Gi	-10.2209
▁journalist	-10.2214
▁joint	-10.222
▁approved	-10.2223
and	-10.2224
▁islands	-10.2227
▁Ball	-10.2228
▁honour	-10.2228
▁Colonel	-10.223
▁Cla	-10.2231
▁themes	-10.2232
▁passage	-10.2233
▁depart	-10.2236
▁boats	-10.2241
▁95	-10.2246
▁slave	-10.2247
▁locations	-10.225
q	-10.2258
▁poem	-10.2264
knew	-10.2268
▁nuclea	-10.2279
▁literature	-10.2284
quite	-10.2285
▁losses	-10.2287
▁Women	-10.2289
ole	-10.2289
▁Ki	-10.2293
▁exact	-10.2294
▁electric	-10.2294
▁Daily	-10.2294
▁250	-10.2298
▁decide	-10.2299
▁boy	-10.2301
▁basic	-10.2312
▁Muslim	-10.2315
▁stock	-10.2317
▁Sand	-10.2319
drew	-10.2322
▁garden	-10.2322
▁dispute	-10.2323
▁Director	-10.2329
▁str	-10.2331
ama	-10.2332
ena	-10.2334
ose	-10.2338
▁Beyoncé	-10.2343
lia	-10.2346
▁unsuccessful	-10.235
▁dismiss	-10.2351
▁unlike	-10.2351
í	-10.2353
▁trains	-10.2359
▁actress	-10.2364
ux	-10.2367
▁urban	-10.2367
▁store	-10.2369
▁technology	-10.2369
itt	-10.2372
▁march	-10.2377
▁Simon	-10.2379
▁resistance	-10.2379
▁eyes	-10.238
rac	-10.2382
▁prepared	-10.2387
▁Cape	-10.2387
▁reputation	-10.2393
▁roll	-10.2394
▁Play	-10.2395
▁Summer	-10.2397
▁desire	-10.2401
▁introduction	-10.2405
▁goes	-10.2405
▁Ya	-10.2409
▁Wi	-10.2415
▁responsibilit	-10.242
▁proceed	-10.2422
▁Ph	-10.2429
nes	-10.2433
▁Knight	-10.2436
war	-10.244
▁adaptation	-10.244
▁Main	-10.2444
▁challenge	-10.2445
▁Clark	-10.2452
▁lb	-10.2452
▁sequel	-10.2453
▁fashion	-10.2455
▁calls	-10.2459
▁skin	-10.2464
▁hero	-10.2473
ston	-10.2478
▁Kentucky	-10.2481
ura	-10.2485
dding	-10.2487
▁grade	-10.2489
▁scientific	-10.249
▁le	-10.2491
▁1946	-10.2493
▁1981	-10.2498
▁eat	-10.2506
▁object	-10.2516
▁gett	-10.2523
▁85	-10.2526
▁campus	-10.2528
▁raise	-10.253
▁Airport	-10.253
▁popularity	-10.2532
▁freeway	-10.2533
▁Ross	-10.2533
ew	-10.2534
▁Lincoln	-10.2543
▁Norway	-10.2567
lived	-10.2574
▁extension	-10.2575
▁employed	-10.2579
▁channel	-10.2581
▁import	-10.2588
▁nor	-10.2603
▁museum	-10.2608
▁IV	-10.261
▁Golden	-10.261
▁1917	-10.261
lon	-10.2619
▁praise	-10.2623
▁Kar	-10.2628
▁settl	-10.2633
▁ray	-10.2642
illa	-10.2646
▁express	-10.2648
▁distinguish	-10.2655
▁wish	-10.266
▁Massachusetts	-10.2662
bra	-10.2671
▁hip	-10.2676
▁strateg	-10.2678
▁Dream	-10.268
▁transfer	-10.2681
ib	-10.2684
▁journey	-10.2685
▁Radio	-10.2685
▁Public	-10.2685
▁Whit	-10.2687
▁depth	-10.2692
▁fun	-10.2704
ification	-10.2704
▁touch	-10.2706
tus	-10.2714
0	-10.2716
▁Mad	-10.2722
▁roles	-10.2722
▁para	-10.2723
▁stadium	-10.2728
▁internal	-10.2732
▁fort	-10.2734
▁structures	-10.2735
▁turns	-10.2736
60	-10.274
▁l	-10.2742
tal	-10.2751
▁distribution	-10.2752
▁Kent	-10.2756
graph	-10.2758
▁planning	-10.276
▁possibilit	-10.2762
▁knowledge	-10.2767
▁pit	-10.277
ode	-10.2775
▁wealth	-10.2775
▁stream	-10.2777
▁ill	-10.2783
▁1948	-10.2783
▁driv	-10.2784
▁layer	-10.2791
▁existence	-10.2794
▁register	-10.2796
▁distinct	-10.2802
▁buri	-10.2804
▁statement	-10.2805
tur	-10.2812
▁plane	-10.2813
lam	-10.2815
▁missing	-10.2816
▁About	-10.2821
sch	-10.2828
▁Pen	-10.283
▁favour	-10.2831
▁Video	-10.2833
▁awards	-10.2836
body	-10.2837
▁worth	-10.2842
▁Jay	-10.2844
sey	-10.2845
bal	-10.2852
light	-10.2872
▁association	-10.2874
du	-10.2875
▁Cast	-10.2884
▁Moon	-10.2886
▁chapter	-10.2888
▁responded	-10.2889
▁theatre	-10.2894
bel	-10.2894
▁Byzantine	-10.29
▁surround	-10.2903
▁1978	-10.2906
▁Moore	-10.2913
tes	-10.2914
▁Pop	-10.2915
▁54	-10.2917
▁baseball	-10.2919
▁connected	-10.2919
▁van	-10.2923
▁Pal	-10.2924
80	-10.2929
▁homes	-10.2929
▁code	-10.293
▁Em	-10.293
▁surviv	-10.2931
▁th	-10.2931
ink	-10.2934
▁Imperial	-10.2938
▁entitl	-10.294
▁letters	-10.2941
ola	-10.2945
▁reading	-10.2948
▁verse	-10.2949
▁assum	-10.2951
▁Ac	-10.2955
▁cl	-10.2955
▁festival	-10.2957
▁rich	-10.2961
▁moderate	-10.2962
▁Justice	-10.2966
▁Spring	-10.2976
▁56	-10.2978
▁albums	-10.2982
▁Sta	-10.2987
▁committ	-10.2987
▁recruit	-10.2987
▁Fire	-10.2988
▁Sunday	-10.2994
end	-10.2999
ular	-10.3
▁1915	-10.3012
▁Olympics	-10.3012
▁Head	-10.3018
▁safet	-10.302
▁animat	-10.3021
▁reasons	-10.3022
▁youth	-10.3024
▁Mountain	-10.303
rin	-10.3032
▁distribut	-10.3032
▁Poland	-10.3035
▁regions	-10.3036
▁1977	-10.304
▁Sydney	-10.3041
▁chain	-10.3046
▁landfall	-10.3047
▁Naval	-10.3047
▁Just	-10.305
▁Maryland	-10.305
▁Maria	-10.3051
▁exhibit	-10.3055
ath	-10.3056
▁bird	-10.3056
▁technical	-10.3057
▁invit	-10.3059
▁Ban	-10.3064
▁Recording	-10.3071
ō	-10.3072
▁Ab	-10.3074
▁53	-10.3076
▁seconds	-10.3081
thing	-10.3087
▁Arab	-10.3088
▁Age	-10.3088
▁afterward	-10.3094
▁scheme	-10.3095
▁Ram	-10.3096
▁MTV	-10.3096
ith	-10.3097
▁em	-10.3115
▁Band	-10.3115
dom	-10.3123
▁brand	-10.3124
▁repair	-10.3131
▁700	-10.3143
▁rescue	-10.3147
▁violence	-10.3151
round	-10.3156
▁1963	-10.3156
▁credited	-10.3156
▁fin	-10.3165
▁Egypt	-10.317
▁none	-10.3179
▁correct	-10.3182
▁Lind	-10.3188
uff	-10.319
oid	-10.319
▁organis	-10.3199
phy	-10.32
▁orbit	-10.3201
án	-10.3202
▁struggle	-10.3203
▁Theatre	-10.3206
▁battery	-10.3212
▁expos	-10.3215
▁Angel	-10.3217
▁manner	-10.322
▁1916	-10.3226
▁politics	-10.323
▁send	-10.323
▁predict	-10.3232
▁argue	-10.3242
▁min	-10.3244
hr	-10.3246
▁cells	-10.3249
borne	-10.3265
pped	-10.327
▁Mulder	-10.327
▁Gordon	-10.3271
▁charts	-10.3271
craft	-10.3272
▁independence	-10.3276
mus	-10.3285
▁turning	-10.3288
▁Fo	-10.3293
▁Bal	-10.3299
▁Tim	-10.3301
▁items	-10.3306
▁Alex	-10.3322
▁transition	-10.3326
ada	-10.3327
▁Hart	-10.333
▁bottom	-10.333
▁Ye	-10.3331
▁76	-10.3332
▁Alan	-10.3336
▁Eric	-10.3338
▁Bel	-10.3351
▁prompt	-10.3353
▁Stadium	-10.3357
▁1919	-10.3363
▁doctor	-10.3366
▁Dun	-10.3367
ological	-10.3373
▁glass	-10.3375
▁1962	-10.3377
▁classic	-10.3382
▁employee	-10.3387
ram	-10.3387
pur	-10.339
hood	-10.3398
▁nomination	-10.3399
▁rules	-10.34
▁Songs	-10.3404
▁brothers	-10.3405
lus	-10.3412
▁equipp	-10.3413
▁evening	-10.3416
▁j	-10.3422
▁indicated	-10.3423
▁delivered	-10.3427
▁sites	-10.3427
▁Research	-10.3429
bar	-10.343
▁lose	-10.3431
▁scientist	-10.3432
▁civilian	-10.3436
▁observation	-10.3441
▁Space	-10.3448
▁aware	-10.3448
▁Wa	-10.3449
▁attribut	-10.345
▁Mal	-10.3451
▁studi	-10.3454
▁exit	-10.3464
▁Key	-10.3464
cat	-10.3465
▁alter	-10.3467
▁Prior	-10.3472
▁bigge	-10.3472
▁Wing	-10.3478
▁solid	-10.3481
▁1938	-10.3482
▁clean	-10.3491
▁Critical	-10.3491
▁argument	-10.3494
▁producing	-10.3495
▁bought	-10.3495
▁Guard	-10.3498
gon	-10.3498
▁FA	-10.35
▁protein	-10.3503
▁soul	-10.3503
▁encourag	-10.3505
▁knots	-10.3506
▁deriv	-10.351
▁gamepla	-10.3515
▁flank	-10.3517
bert	-10.352
▁cent	-10.3523
▁behavior	-10.3525
ock	-10.3526
▁factor	-10.3529
▁frame	-10.3532
▁page	-10.3534
zz	-10.3538
nam	-10.354
▁essential	-10.3542
▁replacement	-10.3546
▁download	-10.3547
▁owner	-10.3552
▁relief	-10.3555
▁premiere	-10.356
▁showing	-10.356
▁substantial	-10.3561
▁secur	-10.357
▁Down	-10.3577
ball	-10.3589
▁Ser	-10.3589
hal	-10.3591
▁restrict	-10.3594
▁Senator	-10.3596
lum	-10.3597
▁crown	-10.3599
70	-10.3602
▁shell	-10.3604
bro	-10.3604
▁note	-10.3605
▁kingdom	-10.3607
▁boundar	-10.3608
nic	-10.3617
▁deploy	-10.3621
ette	-10.3622
▁Del	-10.3623
▁duty	-10.3628
▁Bad	-10.3632
▁equivalent	-10.3633
▁online	-10.3636
▁Revolution	-10.3639
▁controversy	-10.3641
▁Kim	-10.3644
▁component	-10.3646
ula	-10.3649
▁titles	-10.365
▁Tony	-10.3658
▁Memorial	-10.3658
▁spirit	-10.366
▁considerabl	-10.3665
▁format	-10.3666
▁Cre	-10.3666
▁beach	-10.3668
▁Beach	-10.3671
▁se	-10.3673
spread	-10.3673
▁1956	-10.3677
ue	-10.3681
▁academic	-10.3683
▁photo	-10.3686
▁inspiration	-10.3687
▁Forest	-10.3688
▁stretch	-10.3693
▁models	-10.3705
▁Garden	-10.3705
▁Adam	-10.3705
▁entry	-10.3711
▁assert	-10.3712
▁Jeff	-10.3713
▁Philip	-10.3713
▁ridge	-10.3717
▁recalled	-10.3718
▁Sky	-10.3722
▁hill	-10.3722
▁teacher	-10.3723
▁global	-10.3725
▁sufficient	-10.3728
▁Comp	-10.3728
▁Iron	-10.3729
▁handle	-10.3732
FC	-10.3734
▁Str	-10.3738
▁dog	-10.3742
▁160	-10.3743
▁Hungarian	-10.3743
▁admitted	-10.3746
▁cars	-10.3747
▁establishment	-10.3752
▁da	-10.3753
▁departure	-10.3754
▁survived	-10.3761
▁projects	-10.377
▁66	-10.3771
▁remainder	-10.3772
▁emergenc	-10.3777
▁1936	-10.378
▁breeding	-10.3782
▁Hamilton	-10.3783
▁relations	-10.3785
▁Tro	-10.3786
▁Ste	-10.3786
▁Douglas	-10.3791
▁Free	-10.3793
▁airport	-10.3795
▁details	-10.3798
ction	-10.3799
▁Plot	-10.3803
▁IGN	-10.3808
▁Wal	-10.382
▁Arts	-10.382
▁powers	-10.382
▁classification	-10.382
▁Kong	-10.3821
▁convoy	-10.3821
▁Singles	-10.3829
▁brain	-10.3847
AAF	-10.3848
of	-10.3855
▁ago	-10.3858
▁drug	-10.3862
▁Adams	-10.3863
van	-10.3863
▁Francis	-10.3865
▁hot	-10.3865
▁preparation	-10.3866
▁Kennedy	-10.3867
dale	-10.3867
▁income	-10.3872
SA	-10.3876
▁Hard	-10.3879
▁headed	-10.3886
▁chorus	-10.389
lis	-10.3893
▁Bush	-10.3893
dar	-10.3897
kh	-10.3903
▁credit	-10.3904
▁emotional	-10.3906
▁1961	-10.3908
▁restor	-10.3909
▁views	-10.391
▁Shi	-10.3912
▁switch	-10.3913
▁lock	-10.3915
▁trail	-10.3916
▁tunnel	-10.3925
▁meters	-10.3926
▁Track	-10.3929
▁Your	-10.3933
▁Norman	-10.3933
▁Anna	-10.3936
▁intention	-10.3937
▁instance	-10.3939
▁Howard	-10.3943
▁heads	-10.3948
▁picture	-10.3948
burg	-10.3952
▁Premier	-10.3953
gue	-10.3955
▁Roger	-10.3959
▁NBA	-10.396
▁sole	-10.3961
▁premier	-10.3965
▁withdraw	-10.3972
UTC	-10.3972
▁poet	-10.3975
▁Fame	-10.3977
▁connection	-10.3978
▁snow	-10.3979
ique	-10.398
▁1953	-10.3983
▁Vo	-10.3987
▁engines	-10.3999
▁Death	-10.4
▁attain	-10.4003
oo	-10.4003
▁Fair	-10.4008
▁Today	-10.4009
▁duties	-10.401
▁ensure	-10.4016
▁Magazine	-10.402
▁union	-10.4021
▁remember	-10.4028
ira	-10.403
▁Military	-10.403
▁rural	-10.4033
▁decrease	-10.4036
▁someone	-10.4041
▁Fre	-10.4041
▁monument	-10.4043
▁Initial	-10.4046
bin	-10.4049
eb	-10.4058
▁eighth	-10.4059
▁Sel	-10.4061
▁Project	-10.4064
▁exception	-10.4066
▁Back	-10.4072
▁Scully	-10.4072
▁identity	-10.4076
>	-10.408
▁pattern	-10.4085
▁Fu	-10.4085
▁Norwegian	-10.4085
▁Design	-10.409
▁measure	-10.4093
▁Five	-10.4098
▁armour	-10.4105
▁UN	-10.4108
▁segment	-10.4109
▁Hitler	-10.4109
▁generat	-10.4113
▁achieve	-10.4115
log	-10.4115
▁champion	-10.4118
▁recognition	-10.4119
▁programs	-10.4119
▁freedom	-10.412
▁Gri	-10.412
cla	-10.4123
▁pl	-10.4127
▁1947	-10.4128
▁ends	-10.4128
▁tanks	-10.413
▁Tan	-10.4132
▁string	-10.4136
▁humans	-10.4138
▁lift	-10.4139
▁exercise	-10.414
▁180	-10.414
▁climate	-10.4142
▁Finn	-10.4143
▁conclusion	-10.4145
▁designer	-10.4145
▁delay	-10.4146
▁1958	-10.4149
▁organ	-10.4152
▁stages	-10.4153
▁writes	-10.4161
▁convention	-10.4164
ean	-10.4167
▁Cho	-10.4168
▁regional	-10.4179
▁Media	-10.4183
▁fly	-10.4183
▁patrol	-10.4189
▁Constitution	-10.4192
▁WWE	-10.4194
▁Cur	-10.4197
▁Nazi	-10.42
▁1910	-10.4205
▁Mexican	-10.4205
▁describing	-10.4205
▁Santa	-10.4207
▁Son	-10.4207
▁1957	-10.4209
▁shap	-10.421
▁sets	-10.421
▁rose	-10.4215
▁judge	-10.4216
▁Girl	-10.4218
▁products	-10.422
▁ticket	-10.4226
▁enemies	-10.4229
pin	-10.423
▁Rob	-10.4232
▁1937	-10.4235
▁determine	-10.424
▁Ryan	-10.424
rate	-10.4241
▁Assembly	-10.4244
▁130	-10.4245
10	-10.4246
▁belt	-10.4249
▁dated	-10.4254
▁panel	-10.426
bon	-10.426
▁certifi	-10.4263
▁visitor	-10.4263
▁drawing	-10.4265
▁58	-10.4266
▁Cleveland	-10.4271
osaurus	-10.4272
▁references	-10.4272
▁Jordan	-10.4274
▁card	-10.4275
▁Ze	-10.4284
▁origin	-10.4288
▁Max	-10.4292
▁objects	-10.4294
▁stoo	-10.4295
▁sight	-10.4297
▁Illinois	-10.4297
rat	-10.4301
▁reli	-10.4302
▁Rolling	-10.4302
▁restaurant	-10.4303
▁Pass	-10.4304
rich	-10.4307
▁Nick	-10.4308
▁Federal	-10.4308
▁convecti	-10.4316
▁slowly	-10.4317
▁chemical	-10.4322
▁Ge	-10.4328
▁AD	-10.4328
▁seasons	-10.433
▁del	-10.4334
ano	-10.4335
▁sections	-10.4335
▁Review	-10.4336
▁Mon	-10.4337
▁males	-10.4339
▁57	-10.4341
▁cool	-10.4346
▁spoke	-10.4347
▁Horse	-10.4347
▁memorial	-10.4355
▁Arsenal	-10.4361
▁gate	-10.4363
▁attached	-10.4366
▁cycle	-10.4367
▁earth	-10.4372
ich	-10.4372
▁Cro	-10.4374
▁pack	-10.4376
▁atmosphere	-10.4377
▁Ve	-10.4378
▁Sh	-10.4381
▁provision	-10.4385
▁deem	-10.4386
oli	-10.4389
ella	-10.4391
▁1959	-10.4397
▁Oregon	-10.4404
▁acclaim	-10.4407
▁recognis	-10.4407
▁Mont	-10.4409
▁Weekly	-10.441
▁circulation	-10.4412
▁bright	-10.4416
▁profit	-10.4416
net	-10.4416
lli	-10.4417
▁Stanley	-10.4419
▁step	-10.4427
▁favorite	-10.4428
▁towns	-10.4433
▁Bruce	-10.4436
▁Third	-10.4437
▁Six	-10.4443
▁valley	-10.4447
▁obtained	-10.4453
▁foundation	-10.4454
▁demo	-10.4458
▁Kat	-10.4466
▁Tre	-10.4468
▁Dean	-10.4469
▁Hav	-10.4469
▁Beatles	-10.4471
cus	-10.4472
▁Kevin	-10.4472
▁Family	-10.4474
▁dream	-10.4477
▁terminus	-10.4479
rum	-10.448
▁Gre	-10.4482
▁Sur	-10.4484
▁opposite	-10.4484
▁Mediterranea	-10.4485
▁1954	-10.4491
▁1955	-10.4491
▁successor	-10.4493
pen	-10.4495
▁intelligence	-10.4496
▁li	-10.4497
▁Ann	-10.4501
▁supposed	-10.4502
▁vessels	-10.4505
▁Bristol	-10.4506
older	-10.4511
▁admir	-10.4512
▁citizens	-10.4516
kar	-10.4516
▁Andy	-10.4517
ida	-10.4517
▁Release	-10.4517
▁tr	-10.4519
▁insist	-10.4522
▁Allen	-10.4526
SBN	-10.4528
▁Morgan	-10.4535
uch	-10.4539
▁criminal	-10.4539
▁superior	-10.4539
▁Ber	-10.4539
▁Channel	-10.4539
▁deliver	-10.4541
era	-10.4542
▁Germans	-10.4546
▁operate	-10.4548
ash	-10.4549
▁shipp	-10.455
▁Gen	-10.4556
▁waters	-10.4559
▁theater	-10.4561
▁hits	-10.4564
▁bus	-10.4564
▁Dam	-10.4565
▁literar	-10.4565
▁completion	-10.457
▁Morris	-10.4575
ato	-10.4576
▁benefit	-10.4578
▁fictional	-10.4581
▁news	-10.4583
wick	-10.4583
▁62	-10.4593
▁feeling	-10.4593
▁moral	-10.4594
▁Gal	-10.46
▁seed	-10.4601
▁funds	-10.4604
▁thirty	-10.461
▁Bishop	-10.461
▁prey	-10.461
▁merchant	-10.4621
▁downtown	-10.4621
▁possession	-10.463
▁answer	-10.4632
▁110	-10.4633
▁alien	-10.4633
▁sort	-10.4636
▁participate	-10.4637
art	-10.4642
▁initiat	-10.4649
▁objective	-10.4654
×	-10.4656
▁destruction	-10.4665
▁images	-10.4665
▁laws	-10.4665
▁talent	-10.4665
▁cruiser	-10.4665
nar	-10.4667
▁interior	-10.4667
bit	-10.4669
▁knock	-10.467
▁lands	-10.4671
▁Ly	-10.4673
▁mix	-10.468
▁orchestra	-10.4681
▁Korea	-10.4686
▁cloud	-10.4687
▁sport	-10.4689
▁assistance	-10.4689
▁adventure	-10.4695
mont	-10.4698
▁experienc	-10.4703
▁Lisa	-10.4704
▁collapse	-10.4708
char	-10.4709
▁fl	-10.471
can	-10.4711
▁estimate	-10.4723
▁Robinson	-10.4729
▁venue	-10.4734
▁Wild	-10.4737
▁Anne	-10.4741
▁electronic	-10.4742
▁wickets	-10.4747
▁vehicle	-10.4748
▁suspect	-10.4753
▁creator	-10.4755
▁Temple	-10.4757
▁hearing	-10.4757
▁properties	-10.4759
del	-10.4761
▁tied	-10.4764
▁Within	-10.4769
▁map	-10.4775
oft	-10.4779
▁impress	-10.4787
▁1952	-10.479
▁72	-10.4796
▁gather	-10.4802
▁massive	-10.4803
▁experiment	-10.4809
▁Den	-10.4809
▁charg	-10.4811
gate	-10.4813
▁alleged	-10.4821
▁61	-10.4821
▁jump	-10.4822
uri	-10.4823
▁safe	-10.4832
▁founder	-10.4837
▁garrison	-10.4842
▁schedule	-10.4844
▁ride	-10.4845
▁circle	-10.4845
▁crop	-10.4848
▁door	-10.4849
aka	-10.485
▁Th	-10.485
▁cavalry	-10.4859
▁differ	-10.4862
▁narrative	-10.4863
▁Dis	-10.4863
▁ready	-10.487
▁Unlike	-10.4871
▁designs	-10.4874
rick	-10.4884
▁Construction	-10.4885
▁1933	-10.4892
▁Television	-10.4893
▁compete	-10.4894
▁incorporated	-10.4898
▁romantic	-10.4898
▁Similar	-10.4901
▁Journal	-10.491
▁mark	-10.4913
▁outer	-10.4914
▁passengers	-10.4916
▁strip	-10.4916
pol	-10.4916
▁Education	-10.4921
▁Nelson	-10.4927
▁weapon	-10.4931
▁dam	-10.4934
▁grand	-10.4935
zo	-10.4935
ban	-10.4936
▁dissipat	-10.4938
▁loan	-10.4945
▁govern	-10.4952
▁bass	-10.4956
▁Barr	-10.4962
▁Gate	-10.4962
▁recovered	-10.497
▁classified	-10.4971
▁Sweden	-10.498
▁dates	-10.4981
▁shore	-10.4984
▁feed	-10.4988
▁1935	-10.4996
yan	-10.5001
▁eleven	-10.5002
▁females	-10.5006
▁Patrick	-10.5006
rom	-10.5009
▁Nu	-10.501
▁trad	-10.5011
▁Winter	-10.5015
▁solution	-10.5017
▁intensifi	-10.5018
▁ocean	-10.5023
▁Tower	-10.5033
▁Toronto	-10.5034
▁statue	-10.5034
▁survive	-10.5036
▁challeng	-10.5036
▁transform	-10.5039
▁ranking	-10.5041
▁patient	-10.5063
▁Je	-10.5063
▁1951	-10.5067
▁Welsh	-10.5069
▁1949	-10.507
▁isolat	-10.5071
▁Open	-10.5077
▁check	-10.5084
nan	-10.5087
isation	-10.509
▁outbreak	-10.5094
▁capabl	-10.5094
what	-10.5095
▁sand	-10.5098
▁Real	-10.5098
▁Camp	-10.51
▁originat	-10.5102
▁protagonist	-10.5103
▁animation	-10.5107
gin	-10.5107
▁predecessor	-10.5109
▁sale	-10.5124
▁memory	-10.5126
▁trouble	-10.5129
▁Sk	-10.5135
▁pen	-10.5137
▁Jane	-10.5138
▁reality	-10.514
▁trans	-10.5143
▁99	-10.5143
▁pure	-10.515
▁Ag	-10.5153
▁places	-10.5154
▁Netherlands	-10.5161
▁obtain	-10.5166
▁Matthew	-10.5167
▁Jan	-10.5169
ona	-10.5173
▁basketball	-10.5181
▁59	-10.5186
▁Heart	-10.5192
▁communities	-10.5196
▁soft	-10.5196
elli	-10.5206
▁shop	-10.5208
▁translat	-10.5212
▁Victor	-10.5218
▁Op	-10.5228
▁controversial	-10.5231
▁vision	-10.5236
tel	-10.5238
temporary	-10.5239
▁charges	-10.5247
play	-10.5255
▁deposit	-10.5256
▁Nations	-10.5258
▁classical	-10.5258
▁Hospital	-10.526
▁bands	-10.5266
▁finishing	-10.5266
formula	-10.5271
▁bound	-10.5271
▁anniversary	-10.5271
▁appointment	-10.5275
▁shock	-10.5278
▁organisation	-10.5279
▁carbon	-10.5283
ami	-10.5284
▁passenger	-10.5285
▁Again	-10.5286
▁differences	-10.5287
▁Jacob	-10.5295
▁doubt	-10.5303
▁architecture	-10.5304
▁Ford	-10.5308
▁63	-10.5319
cast	-10.5319
▁soil	-10.5324
▁1900	-10.5324
▁assembl	-10.5325
▁die	-10.5325
▁routes	-10.5327
▁penalty	-10.5332
▁Croatian	-10.5332
▁phone	-10.5332
▁teaching	-10.5333
▁Hay	-10.5333
▁Jews	-10.5334
▁Centre	-10.5336
▁Russell	-10.5336
▁sharp	-10.5339
▁methods	-10.5343
neath	-10.5346
▁sit	-10.5346
▁absence	-10.5348
ire	-10.5351
▁Wright	-10.5353
wan	-10.5353
▁evolv	-10.5353
▁apart	-10.5356
▁consistent	-10.5359
▁discussion	-10.536
▁invad	-10.5364
▁fighter	-10.5366
▁batting	-10.5368
▁cancer	-10.5369
ó	-10.5369
▁cloth	-10.5371
▁giant	-10.5371
▁Fer	-10.5373
▁ignor	-10.5374
▁throne	-10.5374
iel	-10.5375
▁comparison	-10.5383
▁Sports	-10.5386
▁Bow	-10.5387
lim	-10.539
ora	-10.5394
▁wrong	-10.5398
▁documentary	-10.5405
▁angle	-10.5408
eck	-10.5408
▁twin	-10.5409
▁Run	-10.5412
▁involvement	-10.5414
▁96	-10.5414
▁rep	-10.5418
rk	-10.5419
arian	-10.542
ä	-10.5421
▁fil	-10.5424
▁Thompson	-10.5427
▁worst	-10.5431
▁Sol	-10.5433
ua	-10.5433
▁tries	-10.5441
tis	-10.5441
▁missions	-10.5448
▁Miss	-10.5451
power	-10.5455
▁chairman	-10.5459
▁77	-10.5459
▁criticis	-10.5459
▁Class	-10.5462
ott	-10.5464
▁Cooper	-10.5464
oma	-10.5466
▁Sy	-10.5472
▁Puerto	-10.5481
▁delayed	-10.5482
▁discovery	-10.5487
▁monitor	-10.5487
▁par	-10.5488
▁Race	-10.5489
▁Ron	-10.5491
▁athlete	-10.5493
▁intense	-10.5499
▁Yo	-10.5499
▁interpret	-10.5504
▁prove	-10.5507
▁weekend	-10.551
▁NFL	-10.5512
▁Islam	-10.5515
▁Carter	-10.5519
▁Persian	-10.552
▁eliminat	-10.5526
nie	-10.5531
ila	-10.5533
▁Late	-10.5536
▁Im	-10.5537
▁requirement	-10.554
▁medieval	-10.5544
▁presidential	-10.5549
▁genetic	-10.5551
▁folk	-10.5553
▁inner	-10.5553
▁residence	-10.5555
▁library	-10.5556
▁Hor	-10.5559
▁colonial	-10.5562
▁der	-10.5564
▁Fly	-10.5566
iff	-10.5569
▁Here	-10.5574
▁Commander	-10.5575
▁DE	-10.5575
▁ban	-10.558
▁option	-10.5581
lac	-10.5581
▁Kelly	-10.5582
▁chamber	-10.5586
▁Last	-10.5589
▁politician	-10.5595
▁retirement	-10.5596
▁Modern	-10.5601
▁bow	-10.5603
▁ninth	-10.5607
wall	-10.5607
▁grounds	-10.5608
▁nav	-10.5616
▁resources	-10.5619
▁Jon	-10.5619
▁Now	-10.5619
▁Along	-10.562
▁Network	-10.5637
▁gift	-10.5643
▁motor	-10.5646
▁siege	-10.5647
▁arrangement	-10.5653
▁musicians	-10.5653
▁render	-10.5662
rod	-10.5663
▁Phil	-10.5664
▁Blu	-10.5665
fo	-10.567
▁Common	-10.5675
aries	-10.5676
▁Plan	-10.5684
▁revenue	-10.5686
▁1913	-10.5688
▁steal	-10.5689
▁Police	-10.569
vel	-10.569
▁fi	-10.5698
▁fitted	-10.5699
▁renew	-10.5701
cho	-10.5702
▁Batman	-10.5702
▁weigh	-10.5702
▁else	-10.5703
▁environmental	-10.5712
zy	-10.5725
▁Harris	-10.5733
▁68	-10.5734
▁fifteen	-10.5738
▁Berlin	-10.5738
ore	-10.5744
▁See	-10.5751
▁dating	-10.5751
▁mere	-10.5754
▁Mario	-10.5756
ison	-10.5763
▁1926	-10.5764
▁78	-10.5765
▁ratings	-10.5767
▁negotiation	-10.5768
▁94	-10.5769
▁Parker	-10.5769
▁Palace	-10.5778
▁87	-10.5782
▁facility	-10.5787
▁1927	-10.5789
▁Murray	-10.579
▁canal	-10.579
▁indicat	-10.5791
▁spell	-10.5791
▁visible	-10.5791
▁Holy	-10.5796
▁Library	-10.5796
▁cur	-10.5797
▁colony	-10.5799
down	-10.5801
▁DNA	-10.5804
▁Rat	-10.5805
lie	-10.5807
▁140	-10.5808
▁partial	-10.5809
▁fled	-10.5811
▁legislation	-10.5812
▁1921	-10.5816
▁shark	-10.5818
▁eggs	-10.5826
▁1934	-10.5832
▁modified	-10.5837
▁mental	-10.5841
lt	-10.5844
▁Report	-10.5846
▁Human	-10.585
▁ruler	-10.5852
▁remove	-10.5852
▁bond	-10.5853
tenance	-10.5855
▁Kra	-10.5856
core	-10.5858
▁lo	-10.5863
▁dialogue	-10.5864
▁Houston	-10.5864
gle	-10.5866
▁Scout	-10.5869
▁expert	-10.5871
top	-10.5872
▁Fred	-10.5875
▁gone	-10.5876
▁stable	-10.5877
▁Kan	-10.588
▁engagement	-10.5884
▁74	-10.5886
▁desert	-10.5886
▁Silver	-10.5887
▁Corporation	-10.5893
▁Jun	-10.5897
▁sponsor	-10.59
▁audio	-10.5902
gh	-10.5902
▁pan	-10.5905
MA	-10.5911
▁techniques	-10.5916
▁Vice	-10.5916
▁monarch	-10.592
vert	-10.5921
▁Asian	-10.5922
▁1912	-10.5925
▁vice	-10.5928
▁Wind	-10.5939
rant	-10.5941
▁Warner	-10.5944
36	-10.5946
▁Pol	-10.5946
▁Gun	-10.5948
▁anyone	-10.5953
shore	-10.5955
▁gay	-10.5956
▁Swedish	-10.5958
▁sudden	-10.5958
ati	-10.596
▁Samuel	-10.5961
▁82	-10.5962
▁Commonwealth	-10.5964
▁designation	-10.5965
▁ideal	-10.5967
ugg	-10.5969
cra	-10.5978
▁huge	-10.598
▁relocat	-10.5983
▁Carr	-10.5983
▁mill	-10.5996
air	-10.5999
▁suffering	-10.6002
▁colleague	-10.6002
▁67	-10.6003
▁shots	-10.6004
▁su	-10.6004
▁characteristics	-10.6005
izing	-10.6005
lay	-10.601
▁listing	-10.6012
▁Story	-10.6012
▁Sho	-10.6014
▁railroad	-10.6014
▁1932	-10.6015
▁belong	-10.6018
▁Count	-10.6029
▁girls	-10.6033
▁emphasis	-10.6033
▁universe	-10.6033
▁separat	-10.6037
▁require	-10.6041
▁thin	-10.6043
▁Medal	-10.605
▁Tur	-10.605
▁stands	-10.6052
ave	-10.6055
▁erect	-10.6056
cut	-10.6056
▁sector	-10.6057
▁Gaga	-10.6061
▁nickname	-10.6065
▁ways	-10.6066
get	-10.6069
▁preced	-10.6069
▁grave	-10.607
▁Anthon	-10.6071
▁enlist	-10.6073
▁craft	-10.6074
▁intersect	-10.6077
nce	-10.6079
▁Hell	-10.608
win	-10.6081
▁difference	-10.6084
▁console	-10.609
▁historic	-10.6091
▁divisions	-10.6092
▁lies	-10.6093
▁Pope	-10.6094
▁Rick	-10.6095
▁USA	-10.6095
▁understand	-10.6095
▁implement	-10.6099
load	-10.6105
▁seal	-10.6112
▁Pr	-10.6119
▁Jason	-10.6126
▁beautiful	-10.6128
wo	-10.6132
▁NBC	-10.6133
▁architect	-10.6134
▁materials	-10.6135
▁explosion	-10.6138
▁Cook	-10.614
▁platin	-10.6142
▁influential	-10.6147
▁closer	-10.6153
▁sleep	-10.6155
▁manage	-10.6166
▁balance	-10.6169
▁Croatia	-10.6169
▁Sub	-10.6169
▁emperor	-10.617
▁Dragon	-10.6171
▁populations	-10.6171
▁hear	-10.6172
▁professor	-10.6174
▁PA	-10.6175
▁Israel	-10.6176
ids	-10.6178
▁Democrat	-10.618
▁69	-10.6181
▁graphics	-10.6183
▁Let	-10.6183
▁costume	-10.6185
▁Hindu	-10.6185
▁Gilbert	-10.6192
▁Lion	-10.6194
▁Detroit	-10.6195
▁occupation	-10.6195
▁device	-10.6199
▁ear	-10.62
▁lit	-10.6201
▁Writing	-10.6202
bridge	-10.6202
▁Guy	-10.6204
▁Hi	-10.6205
hl	-10.6207
▁streets	-10.6207
▁Lin	-10.6213
▁demonstrat	-10.6215
lla	-10.622
▁Frederick	-10.6221
▁qualify	-10.6224
▁votes	-10.6224
▁struggl	-10.6227
▁RAF	-10.6227
▁pain	-10.6227
lip	-10.6228
▁1929	-10.6229
▁Isle	-10.623
▁adults	-10.6231
▁witness	-10.6236
▁Roy	-10.6242
unk	-10.6244
matic	-10.6245
▁bishop	-10.625
▁Au	-10.6254
▁movements	-10.6258
▁commenc	-10.626
▁squad	-10.626
▁childhood	-10.6261
▁1911	-10.6262
▁developer	-10.6264
▁73	-10.6267
▁guilt	-10.6273
▁exceed	-10.6279
▁impos	-10.628
▁alcohol	-10.6282
▁900	-10.6285
▁Clinton	-10.6286
▁tip	-10.6294
ail	-10.6296
▁Spears	-10.6298
▁trust	-10.63
▁Gill	-10.6302
▁Princess	-10.6305
▁graduat	-10.6314
▁Egyptian	-10.6315
▁interaction	-10.6316
▁concentration	-10.6323
die	-10.6324
▁ethnic	-10.6324
az	-10.6325
▁1931	-10.633
▁1922	-10.6335
▁crosse	-10.6341
▁Jesus	-10.6344
▁firing	-10.6345
▁Staff	-10.6345
▁Gor	-10.6347
▁gap	-10.6354
▁loop	-10.6355
▁Dor	-10.6356
▁Nielsen	-10.6357
▁Greg	-10.6357
▁parish	-10.6359
▁Melbourne	-10.6367
▁wooden	-10.6368
▁chair	-10.6369
▁Building	-10.637
ult	-10.6371
▁98	-10.6372
▁diameter	-10.6373
▁Stewart	-10.6376
▁tension	-10.6377
▁tape	-10.6377
▁happ	-10.6381
▁arch	-10.6381
▁false	-10.6386
▁nucle	-10.6387
▁Lane	-10.6387
▁executed	-10.6402
▁Ter	-10.6405
▁Work	-10.6408
▁Evans	-10.6412
▁tribute	-10.6412
▁coat	-10.6414
▁Xbox	-10.642
avi	-10.642
▁meets	-10.642
ivity	-10.6427
▁hunting	-10.643
▁Sar	-10.6432
ort	-10.6433
▁uniform	-10.6433
▁moves	-10.6438
▁belief	-10.6442
▁facing	-10.6445
▁recover	-10.6447
▁Category	-10.6449
▁Lennon	-10.6449
▁Dance	-10.6452
mark	-10.6454
56	-10.6455
▁Anglo	-10.646
ien	-10.6462
▁afternoon	-10.6462
▁advis	-10.6468
▁sounds	-10.6468
▁Low	-10.6477
▁Khan	-10.648
▁bear	-10.6484
▁involve	-10.6487
▁preferred	-10.6488
▁measures	-10.649
▁Cra	-10.649
▁radar	-10.6491
▁Vol	-10.6494
▁footage	-10.6497
▁vessel	-10.6499
ologist	-10.65
aj	-10.6505
▁resigned	-10.6507
▁trained	-10.6511
▁promise	-10.6511
▁curve	-10.6512
▁instruments	-10.6514
▁victims	-10.6515
▁91	-10.6516
▁88	-10.6518
▁flew	-10.6518
▁79	-10.6519
▁Mag	-10.6521
▁neck	-10.6522
▁lawyer	-10.6523
▁Colorado	-10.6531
lash	-10.6535
▁bell	-10.654
▁Ian	-10.654
onic	-10.6543
▁collaboration	-10.6552
▁remix	-10.6553
▁Dave	-10.6556
▁circuit	-10.6561
▁extent	-10.6561
▁Foundation	-10.6563
▁tie	-10.6563
50	-10.6567
▁violent	-10.6578
▁Marc	-10.6578
▁Brazil	-10.6578
▁notabl	-10.6581
▁junior	-10.6581
▁resolution	-10.6584
place	-10.6586
▁Sarah	-10.6591
▁sentence	-10.6594
▁Baltimore	-10.6594
▁Austria	-10.6597
▁Greece	-10.6601
▁debt	-10.6605
▁Area	-10.6607
▁Trans	-10.6607
▁accompany	-10.6611
ero	-10.6612
▁preserv	-10.6613
▁81	-10.6614
▁Stra	-10.6615
▁window	-10.6616
▁fee	-10.662
▁confront	-10.6621
▁ruin	-10.6622
ull	-10.6625
▁thereafter	-10.6626
▁militia	-10.6638
▁71	-10.6642
▁poetry	-10.6645
▁Mars	-10.6647
▁copy	-10.6648
▁Mil	-10.6649
▁Seven	-10.6652
▁suspend	-10.6661
▁Raw	-10.6668
▁Guardian	-10.6682
▁disaster	-10.6685
▁Edge	-10.6685
▁technique	-10.6686
▁exhibition	-10.6688
▁Fall	-10.6688
▁flu	-10.6691
▁edit	-10.6691
ros	-10.6694
mas	-10.67
▁Bird	-10.6706
▁stress	-10.6708
▁Ci	-10.6709
▁labor	-10.6711
▁Lock	-10.6712
▁Somerset	-10.6718
▁teeth	-10.6722
▁Iowa	-10.6722
▁owners	-10.6727
▁Marshall	-10.6739
▁Call	-10.674
ić	-10.674
▁wings	-10.6742
▁Lim	-10.6745
▁Austrian	-10.675
▁offering	-10.6751
▁skills	-10.6752
▁Fl	-10.6755
▁earning	-10.6756
gency	-10.6758
▁Mah	-10.6759
▁wheel	-10.676
▁hull	-10.6765
▁charter	-10.6765
▁continuous	-10.6766
▁joke	-10.6767
▁easy	-10.6769
▁Off	-10.677
▁taught	-10.677
▁watching	-10.677
▁error	-10.6779
▁span	-10.678
▁shear	-10.6781
▁fields	-10.6781
▁publisher	-10.6786
▁smooth	-10.6786
▁margin	-10.6787
lf	-10.6803
▁instrumental	-10.6807
▁factors	-10.681
▁drums	-10.6811
▁Wrestling	-10.6814
▁1928	-10.6815
▁Apple	-10.6816
gra	-10.6827
▁alliance	-10.6831
▁opponents	-10.6831
▁whale	-10.6835
▁journal	-10.6836
▁holds	-10.6844
▁identify	-10.6844
form	-10.685
▁stem	-10.685
▁Min	-10.685
rap	-10.685
▁upgrad	-10.6851
▁ballad	-10.6852
▁feud	-10.6855
▁representative	-10.6856
▁creature	-10.686
▁creative	-10.6862
▁column	-10.6862
ori	-10.6863
▁Miami	-10.6869
▁skill	-10.6877
residential	-10.6878
▁Char	-10.6883
▁sure	-10.6884
▁1925	-10.6884
▁authors	-10.6888
▁prize	-10.6889
▁alignment	-10.689
fire	-10.6893
▁Soon	-10.6897
▁junction	-10.6899
▁standards	-10.69
▁trace	-10.69
▁sav	-10.6901
▁teammate	-10.6903
sburg	-10.6903
▁fift	-10.6904
▁Albums	-10.6905
ept	-10.6906
▁Confederate	-10.6909
▁Canal	-10.6911
▁wedding	-10.6913
▁dangerous	-10.6915
▁Every	-10.6915
bri	-10.6919
▁dive	-10.692
▁Week	-10.6921
▁priest	-10.6923
▁arc	-10.6925
▁northward	-10.6926
▁Place	-10.6932
right	-10.6937
▁Peninsula	-10.6937
▁parent	-10.6937
▁el	-10.6937
▁Hal	-10.6943
▁Les	-10.6947
▁simultaneous	-10.6947
hill	-10.6948
▁1890	-10.6953
▁Seattle	-10.6954
▁permission	-10.6955
▁Ak	-10.6956
aba	-10.6959
▁tone	-10.696
own	-10.6961
▁interpretation	-10.6962
olo	-10.6963
▁medium	-10.6963
▁partie	-10.6964
▁Mega	-10.6964
pper	-10.6971
▁satellite	-10.6975
▁1924	-10.6977
▁choose	-10.6979
▁withdrew	-10.6982
▁Ministr	-10.6982
▁crisis	-10.6989
▁learning	-10.6989
▁construct	-10.7002
▁sons	-10.7002
▁conservative	-10.7003
▁scar	-10.7005
▁Pri	-10.701
▁plain	-10.7012
▁Ol	-10.7016
▁Wei	-10.7018
▁97	-10.7019
▁salt	-10.7019
▁whereas	-10.7021
▁expression	-10.7024
▁classe	-10.7027
▁shelter	-10.7027
25	-10.7029
▁Bus	-10.7031
▁cannon	-10.7032
▁appropriate	-10.7034
▁Tar	-10.7035
▁boiler	-10.7036
▁tourist	-10.7036
▁Ren	-10.7037
▁wrestl	-10.7038
▁veteran	-10.7038
▁guide	-10.7044
▁Treaty	-10.7045
▁apartment	-10.705
▁Giants	-10.7055
▁Hawk	-10.7057
▁advice	-10.7059
▁celebrat	-10.7061
fu	-10.7063
▁thirteen	-10.7066
▁Trek	-10.7077
▁Sin	-10.7089
atory	-10.7089
▁legs	-10.7091
oll	-10.7096
▁mainstream	-10.7096
▁policies	-10.7097
▁Alabama	-10.7101
▁mine	-10.7102
▁Caribbean	-10.7104
▁bypass	-10.7104
▁pace	-10.7107
hold	-10.7108
▁Sen	-10.7115
▁testing	-10.7116
▁spott	-10.7117
▁collaborat	-10.712
▁difficulties	-10.712
▁submitt	-10.7126
▁gene	-10.7126
▁elections	-10.7129
▁rarely	-10.713
11	-10.7133
▁personality	-10.7135
▁prime	-10.7137
▁cruisers	-10.714
▁diet	-10.7141
▁proportion	-10.7143
▁Charlie	-10.7143
▁Cam	-10.7148
▁Nan	-10.7159
▁Rod	-10.716
▁illegal	-10.716
una	-10.7161
▁predator	-10.7163
96	-10.7164
▁pounds	-10.7164
▁Lawrence	-10.7164
▁engineering	-10.7164
▁landscape	-10.7172
zu	-10.7173
▁Front	-10.7177
burn	-10.7181
▁89	-10.7183
▁Mas	-10.7185
▁Ali	-10.7187
▁tune	-10.7189
▁1923	-10.719
fall	-10.7191
▁Lar	-10.7196
▁evolution	-10.7201
▁elder	-10.7201
▁suicide	-10.7203
ography	-10.7204
▁specimens	-10.7206
▁tale	-10.7206
▁Minnesota	-10.7214
tropical	-10.7214
stra	-10.7218
▁84	-10.7219
▁fragment	-10.7221
▁achievement	-10.7221
▁86	-10.7224
▁Wolf	-10.7228
▁minimal	-10.7228
iva	-10.7232
ctor	-10.7233
ky	-10.7236
▁truth	-10.7238
▁approval	-10.7238
▁forcing	-10.7241
▁Crown	-10.7243
▁attitude	-10.7245
idi	-10.7247
▁scholars	-10.7248
▁wound	-10.7248
▁vertical	-10.7249
▁graduate	-10.7251
▁compilation	-10.7256
▁93	-10.7257
▁faith	-10.7259
▁hockey	-10.7263
▁justice	-10.7264
dor	-10.7264
fl	-10.7265
ranging	-10.7266
▁characteriz	-10.7271
▁rap	-10.7272
gram	-10.7276
▁minimum	-10.7285
▁perspective	-10.7285
▁Wil	-10.7289
▁spiritual	-10.7292
ase	-10.7296
▁Gro	-10.7298
▁pr	-10.7298
▁Bon	-10.7303
▁Township	-10.7305
▁Ring	-10.7305
CA	-10.7306
▁neighborhood	-10.7307
▁Grammy	-10.7313
▁Hungary	-10.7321
▁housing	-10.7323
▁alternate	-10.7323
▁favorabl	-10.7324
▁custom	-10.7329
▁mate	-10.7329
▁tenth	-10.733
▁Dead	-10.7331
ø	-10.7335
31	-10.7336
▁consequence	-10.7342
▁Qui	-10.7344
▁Hotel	-10.7348
▁Country	-10.7349
ito	-10.7351
▁adjacent	-10.7353
▁fur	-10.7355
▁swimm	-10.7355
mu	-10.7356
aire	-10.7356
▁Bull	-10.7358
fish	-10.7358
è	-10.7358
▁Adventure	-10.736
▁respond	-10.7365
och	-10.737
▁dynasty	-10.7373
▁churches	-10.7377
▁pursu	-10.7377
▁triple	-10.7382
▁Health	-10.7383
33	-10.7384
▁inde	-10.7389
▁Return	-10.7389
▁comments	-10.7391
▁Belgium	-10.7393
▁finance	-10.7395
ute	-10.7395
▁pleas	-10.7395
▁perceiv	-10.74
07	-10.7401
hin	-10.7402
▁funeral	-10.7404
▁Flight	-10.7406
▁Christopher	-10.7406
▁react	-10.7412
▁bid	-10.7414
▁palace	-10.7414
▁Diego	-10.7416
▁partnership	-10.7417
▁Pin	-10.7421
▁Blood	-10.7422
▁existed	-10.7423
▁Ur	-10.7426
▁agents	-10.743
▁descend	-10.7431
▁interests	-10.7431
▁Much	-10.7436
list	-10.7438
▁blow	-10.7439
▁92	-10.744
hn	-10.7441
▁pursue	-10.7442
▁prepare	-10.7444
▁und	-10.7446
▁complain	-10.7446
▁clubs	-10.7448
tting	-10.745
▁changing	-10.7451
▁Bor	-10.7451
▁PC	-10.7452
▁USD	-10.7452
▁Guide	-10.7454
▁Hero	-10.7456
▁Indians	-10.7457
▁Legac	-10.7459
▁Native	-10.7461
▁abandon	-10.7462
▁Walker	-10.7466
ges	-10.7466
▁Interstate	-10.7469
▁pole	-10.7469
▁Mir	-10.7473
run	-10.7475
tric	-10.7477
▁Bros	-10.7479
▁appreciat	-10.748
▁Children	-10.748
amp	-10.7482
▁grown	-10.7482
▁resum	-10.7483
uit	-10.7485
▁needs	-10.7486
▁shoulder	-10.749
stan	-10.7495
▁trend	-10.7496
▁Kid	-10.7497
chan	-10.7497
▁attendance	-10.7497
▁definition	-10.7498
▁Ana	-10.7506
▁Stand	-10.7512
▁1905	-10.7517
▁Ros	-10.7519
▁evil	-10.752
▁friendly	-10.7524
▁USS	-10.7525
▁1908	-10.7526
arrow	-10.7527
▁Benjamin	-10.7527
▁hat	-10.7528
▁Dec	-10.753
▁disappear	-10.7533
▁mono	-10.7535
▁elevation	-10.7537
▁airline	-10.7538
▁victories	-10.7538
▁destroyers	-10.754
▁Saxon	-10.7542
rig	-10.7543
▁warn	-10.7543
▁Nor	-10.7545
▁Mos	-10.7549
▁opponent	-10.7552
▁lieutenant	-10.7553
▁percentage	-10.7553
cri	-10.7553
▁windows	-10.7555
▁1909	-10.7559
▁Penn	-10.7559
PA	-10.7562
▁elsewhere	-10.7568
▁bombers	-10.7568
▁Hockey	-10.7571
▁rec	-10.7575
hen	-10.7583
ility	-10.7585
▁Roosevelt	-10.7586
path	-10.7587
etic	-10.7589
▁abuse	-10.7601
▁Gil	-10.7604
▁scholar	-10.7604
▁entertainment	-10.7605
▁Cold	-10.7613
▁pitched	-10.7615
▁aggressive	-10.7616
enberg	-10.7619
▁operational	-10.7622
▁toll	-10.7622
▁Las	-10.7622
▁Alfred	-10.7627
▁Chronicle	-10.7628
▁Halo	-10.7631
▁Bla	-10.7633
▁notice	-10.7637
▁stick	-10.764
▁pool	-10.7645
▁Manhattan	-10.7656
▁manuscript	-10.7656
▁absorb	-10.7664
▁fighters	-10.7664
▁Franklin	-10.7667
▁danger	-10.7669
▁context	-10.7671
▁Ven	-10.7675
▁Lang	-10.7677
▁marry	-10.7682
rop	-10.7687
▁brick	-10.7688
17	-10.7688
▁handed	-10.7688
▁neutral	-10.769
ddy	-10.7693
▁net	-10.7694
▁Born	-10.7699
▁concrete	-10.7708
ante	-10.7711
▁audition	-10.7712
▁Trust	-10.7713
▁beam	-10.7719
▁translation	-10.7732
▁quot	-10.7732
mel	-10.7739
▁Serb	-10.774
▁1907	-10.7741
▁Hy	-10.7744
▁Die	-10.7746
rose	-10.7746
▁Digital	-10.7749
▁Margaret	-10.7749
▁finale	-10.7753
osa	-10.7753
▁regain	-10.7761
mic	-10.7762
▁crystal	-10.7764
▁westward	-10.7765
▁Burn	-10.7765
▁grey	-10.7767
▁survivors	-10.777
▁influences	-10.7771
▁advisor	-10.7773
▁languages	-10.7778
▁bat	-10.7779
▁signing	-10.7782
lar	-10.7783
▁Kansas	-10.7783
▁Bryan	-10.7789
▁abilities	-10.7794
▁Pla	-10.7796
▁Industry	-10.7798
▁profile	-10.7798
▁accurate	-10.7802
▁sculpture	-10.7802
ency	-10.7806
▁investment	-10.7815
utter	-10.782
▁Mississippi	-10.7821
▁impossible	-10.7828
▁mat	-10.7829
▁phrase	-10.7832
▁agricultural	-10.7838
▁Nash	-10.7838
▁Portland	-10.7839
▁situat	-10.7842
▁Thi	-10.7843
▁occasion	-10.7843
▁races	-10.7848
itz	-10.7848
▁organizations	-10.7851
▁Eu	-10.7852
▁Lev	-10.7855
▁donat	-10.7858
▁understanding	-10.7858
▁Kurt	-10.7862
▁Independent	-10.7874
▁Saturday	-10.7874
▁helicopter	-10.7874
bird	-10.7875
▁telling	-10.7878
▁export	-10.7879
▁educat	-10.788
▁Sim	-10.7882
going	-10.7889
▁Luc	-10.7895
▁Cole	-10.7895
▁cook	-10.7895
tsu	-10.7897
▁armament	-10.79
▁introduce	-10.7901
▁credits	-10.7903
▁horror	-10.7904
▁dense	-10.7904
▁boys	-10.7905
▁fer	-10.7911
▁Kh	-10.7911
▁prospect	-10.7912
▁Campbell	-10.7912
▁Hong	-10.7912
▁Hunt	-10.7913
▁Reg	-10.7913
▁oxygen	-10.7923
▁acknowledg	-10.7926
▁sample	-10.7928
▁communist	-10.7934
▁1880	-10.7936
▁restoration	-10.7937
for	-10.7939
▁charit	-10.7941
▁closing	-10.7943
▁McCa	-10.7953
elle	-10.7955
87	-10.7956
▁explore	-10.7957
▁distinctive	-10.7957
▁realiz	-10.7959
tte	-10.7961
▁tornado	-10.7961
▁occasions	-10.7963
▁bay	-10.7966
▁cu	-10.7972
▁Shakespeare	-10.7977
▁behalf	-10.7977
▁virtual	-10.7977
▁bombing	-10.7978
▁rhythm	-10.7979
▁legend	-10.7982
▁poly	-10.7985
▁Ice	-10.7987
ides	-10.7991
▁resemble	-10.7992
▁worship	-10.7995
▁Kenne	-10.7996
▁ammunition	-10.8
▁guy	-10.8001
▁truck	-10.8001
AP	-10.8005
▁symptoms	-10.8007
▁Liberal	-10.8015
▁sank	-10.8023
78	-10.8024
▁dancer	-10.8024
▁execution	-10.8027
▁Sullivan	-10.8032
▁complet	-10.8036
▁Brand	-10.8037
met	-10.804
rian	-10.8042
room	-10.8052
▁Dog	-10.8053
▁auto	-10.8054
▁philosoph	-10.8055
▁photograph	-10.8055
▁illness	-10.8057
▁covering	-10.8059
▁Oak	-10.8066
▁Er	-10.8069
▁Enterprise	-10.8073
▁imperial	-10.8073
▁listen	-10.8077
▁Var	-10.8079
▁Warren	-10.808
▁repli	-10.8085
▁celebration	-10.8087
▁expect	-10.8087
▁grass	-10.8092
▁fourteen	-10.8092
ón	-10.8093
▁Historic	-10.8094
▁god	-10.8097
▁noble	-10.8099
▁explain	-10.8101
▁burn	-10.8104
▁realize	-10.8106
▁Rain	-10.8108
▁dramatic	-10.811
▁tests	-10.811
▁Graham	-10.8114
▁Lucas	-10.8116
▁Small	-10.812
▁Tennessee	-10.8123
▁skull	-10.8123
not	-10.8125
▁scatter	-10.8127
▁exile	-10.8128
▁underground	-10.8128
▁artistic	-10.813
▁Louisiana	-10.8131
▁regulation	-10.8131
▁sunk	-10.8132
▁CR	-10.8137
▁Hans	-10.8138
▁cargo	-10.814
ert	-10.8142
▁Know	-10.8148
▁seats	-10.8148
▁bonus	-10.8151
▁Hand	-10.8153
OK	-10.8158
▁Villa	-10.8158
▁paintings	-10.8158
▁portrait	-10.8158
▁faction	-10.8158
ulation	-10.8164
▁Bri	-10.8166
▁Missouri	-10.8174
▁Mun	-10.8174
▁funn	-10.8179
▁relationships	-10.8181
▁earthquake	-10.8182
▁Honor	-10.8186
▁1906	-10.8186
▁bio	-10.8189
▁communication	-10.8194
▁Av	-10.8199
▁fantas	-10.82
▁Montreal	-10.8201
▁Labour	-10.8202
▁drum	-10.8205
▁360	-10.8211
▁Kirk	-10.8211
▁Tamil	-10.8211
▁courts	-10.8213
WC	-10.8217
▁Box	-10.8218
▁concerts	-10.8219
▁1904	-10.8222
▁Hat	-10.8227
▁Depression	-10.8229
▁Kn	-10.8235
▁Mass	-10.8239
▁queen	-10.8241
▁Get	-10.8241
18	-10.8243
▁Glen	-10.8244
▁moon	-10.8245
▁offices	-10.8252
▁Season	-10.8253
▁1870	-10.8254
▁bull	-10.8256
▁strategic	-10.8261
▁mini	-10.8261
▁wicket	-10.8261
▁loose	-10.8262
▁disappoint	-10.8262
▁investigate	-10.8266
▁tight	-10.8267
▁harm	-10.8268
▁encourage	-10.8272
▁temporari	-10.8272
ico	-10.8273
▁starts	-10.8276
▁Jam	-10.8279
▁Mitchell	-10.828
ural	-10.8281
▁guitarist	-10.8285
▁plus	-10.8285
▁mayor	-10.8287
kan	-10.8289
▁Harvey	-10.8292
95	-10.8292
hawk	-10.8294
▁coup	-10.8303
▁Gl	-10.8309
gel	-10.8311
▁expensive	-10.832
▁proper	-10.8321
▁ob	-10.8322
▁forecast	-10.8324
▁Ridge	-10.8333
▁Fri	-10.8336
▁jazz	-10.8339
▁magic	-10.8341
▁McG	-10.8342
nna	-10.8344
ily	-10.8346
▁wreck	-10.8347
▁newspapers	-10.8349
▁administrative	-10.8351
▁strengthen	-10.8355
▁cult	-10.8358
▁artwork	-10.8362
▁radical	-10.8364
▁dozen	-10.8374
▁associate	-10.8374
eur	-10.8377
▁permitt	-10.8377
▁purposes	-10.8379
▁Bach	-10.8379
▁interesting	-10.8387
▁drove	-10.8387
ali	-10.8388
▁knee	-10.839
▁Cuba	-10.8394
▁familiar	-10.8395
▁publicly	-10.8397
▁Philippines	-10.84
▁Marie	-10.8406
▁Tag	-10.8408
▁bridges	-10.8409
▁08	-10.8414
▁Business	-10.8415
▁measured	-10.8417
mir	-10.8419
▁Near	-10.842
▁Take	-10.8421
Y	-10.8424
▁Gray	-10.8426
point	-10.8427
▁procedure	-10.8427
▁underst	-10.8431
▁rebuil	-10.8433
▁Stan	-10.8435
ites	-10.8457
▁bronze	-10.8459
idden	-10.846
bur	-10.8465
67	-10.8466
▁meat	-10.8467
▁disorder	-10.8467
▁cancelled	-10.8468
▁plate	-10.8469
▁halt	-10.847
▁regime	-10.8471
▁strict	-10.8472
▁inhabitant	-10.8473
▁Championships	-10.8478
▁Critics	-10.8483
▁clock	-10.8488
▁coverage	-10.8492
nu	-10.8492
stream	-10.8493
▁rising	-10.8496
▁revolt	-10.85
▁degrees	-10.8503
▁DC	-10.8505
▁runner	-10.8509
ima	-10.8509
book	-10.8511
▁escap	-10.8511
chen	-10.8513
▁Base	-10.8515
▁Rio	-10.8524
▁application	-10.8527
▁monster	-10.8528
▁Zo	-10.8529
▁racing	-10.8531
▁Kin	-10.8532
▁pointed	-10.8542
▁mechanism	-10.8548
▁rent	-10.8551
▁wins	-10.8552
▁behaviour	-10.8556
▁ownership	-10.8558
▁helping	-10.8558
▁Files	-10.8561
adi	-10.8565
▁practical	-10.8566
▁83	-10.8567
▁Arizona	-10.8568
▁colonie	-10.8573
▁cousin	-10.8573
▁values	-10.8573
▁songwriter	-10.8575
AC	-10.8576
▁anchor	-10.8577
udi	-10.858
88	-10.858
▁Eight	-10.8581
▁speculat	-10.8582
gy	-10.8583
▁villain	-10.8585
▁tomb	-10.8585
▁Mid	-10.8586
▁Are	-10.8588
▁rebellion	-10.8589
▁undergo	-10.8589
▁micro	-10.859
▁Bureau	-10.8594
tory	-10.8594
▁Dylan	-10.8597
▁absolute	-10.8601
▁ruling	-10.8601
▁Indies	-10.8601
79	-10.8611
▁Snow	-10.8613
▁sees	-10.8621
▁Athletic	-10.8621
▁Tokyo	-10.8621
39	-10.8623
▁Deb	-10.863
pan	-10.863
▁feelings	-10.8635
85	-10.8637
▁Eagle	-10.8638
▁enabl	-10.8639
▁repairs	-10.864
ister	-10.8643
▁Rad	-10.8646
ér	-10.8646
▁reward	-10.8648
▁keyboard	-10.8648
▁signature	-10.865
▁Beck	-10.8652
▁Bat	-10.8652
▁representation	-10.8654
▁jet	-10.8655
▁topic	-10.8655
▁Sto	-10.8658
▁typhoon	-10.8662
▁Shin	-10.8663
▁hid	-10.8667
bla	-10.8674
▁conversion	-10.8675
▁missile	-10.868
▁formula	-10.8682
▁Ward	-10.8683
▁Mur	-10.8689
▁Forces	-10.869
▁MP	-10.8692
ika	-10.8693
▁Blues	-10.8694
▁Hil	-10.8695
▁VI	-10.87
▁pin	-10.8701
▁Nine	-10.8703
llo	-10.8705
▁09	-10.8705
▁defender	-10.8708
▁dock	-10.8712
▁tag	-10.8712
▁flagship	-10.8715
aging	-10.8722
▁waves	-10.8726
▁Express	-10.8731
▁Album	-10.8734
cl	-10.8734
▁tribes	-10.8738
▁Horn	-10.8741
▁Eli	-10.8741
▁willing	-10.8743
▁vari	-10.8744
▁Oklahoma	-10.8745
▁Murphy	-10.8745
▁Well	-10.8747
29	-10.8749
▁reinforcement	-10.875
▁Sony	-10.8752
▁Officer	-10.8757
▁clip	-10.8758
▁prett	-10.8765
▁Delaware	-10.8765
▁chapel	-10.877
09	-10.8771
▁remnants	-10.8771
▁shall	-10.8772
▁shut	-10.8777
▁sing	-10.8778
▁companion	-10.8778
▁condemn	-10.8778
▁Hunter	-10.8779
▁legislature	-10.8782
nut	-10.8784
ware	-10.8784
▁Unit	-10.879
▁Fur	-10.8792
▁Such	-10.8794
▁allie	-10.8794
▁flee	-10.8794
▁Federation	-10.8794
37	-10.8795
▁pet	-10.8797
▁thinking	-10.88
48	-10.8804
▁gust	-10.8806
▁embark	-10.8811
▁kW	-10.8813
▁quiet	-10.8815
▁Eve	-10.8816
▁recordings	-10.8819
▁Bir	-10.8819
▁Switzerland	-10.8819
▁dominant	-10.8821
13	-10.8824
▁cancel	-10.8824
▁obvious	-10.8824
49	-10.8825
▁institution	-10.8827
▁marine	-10.8828
▁maneuver	-10.8828
15	-10.8829
▁Brit	-10.8835
▁shield	-10.8836
▁Prize	-10.8838
▁musician	-10.8842
▁trick	-10.8842
▁Rico	-10.8842
▁Mat	-10.8844
▁EP	-10.8845
▁exclud	-10.8847
▁Broadway	-10.8849
▁functions	-10.8851
▁excellent	-10.8853
▁assists	-10.8853
▁frigate	-10.8857
▁universal	-10.8857
▁electron	-10.8858
TA	-10.8864
▁manufacture	-10.8864
▁Personal	-10.8865
▁consult	-10.8865
▁Anti	-10.8873
eau	-10.8874
▁secondar	-10.8876
▁1901	-10.8876
▁basin	-10.8878
▁announcement	-10.8879
via	-10.888
▁imagin	-10.888
zen	-10.8883
▁Side	-10.8888
▁sky	-10.8889
▁Mau	-10.8893
▁spore	-10.8899
▁VII	-10.8901
▁Karl	-10.8901
86	-10.8904
▁contributions	-10.8905
▁playoffs	-10.8908
▁quarterback	-10.8909
▁Disc	-10.891
▁surger	-10.8911
▁subspecies	-10.8912
▁ABC	-10.8913
▁Blo	-10.8915
▁Iraq	-10.8916
▁shells	-10.8916
▁Lou	-10.8919
▁Juan	-10.892
▁storage	-10.8921
▁bra	-10.8922
▁cave	-10.8928
▁List	-10.8932
▁meta	-10.8935
▁bann	-10.8936
ender	-10.8936
igan	-10.8937
Q	-10.8939
▁Chamber	-10.8945
▁Kel	-10.8946
▁reverse	-10.8948
▁Baker	-10.8952
▁Mint	-10.8953
▁Barry	-10.8959
▁urge	-10.8962
▁impression	-10.8963
▁1903	-10.8963
LA	-10.8966
▁legac	-10.8967
▁pot	-10.8971
▁Soul	-10.8973
▁marking	-10.8973
▁warship	-10.8975
▁Leslie	-10.8975
ome	-10.8976
▁apply	-10.8976
▁1902	-10.8976
▁striking	-10.8979
actic	-10.8987
▁Owen	-10.8988
mouth	-10.8993
▁compliment	-10.9001
▁Baby	-10.9002
▁neighbor	-10.9004
▁importan	-10.9004
▁resist	-10.9013
▁revolution	-10.9013
▁vast	-10.9014
▁useful	-10.9014
▁suitabl	-10.9016
▁suggestion	-10.9018
mun	-10.902
▁theatrical	-10.9022
▁boss	-10.9023
▁Grove	-10.9023
▁variant	-10.9023
81	-10.9028
▁Perry	-10.9028
27	-10.9028
ben	-10.9029
itis	-10.9029
▁stole	-10.9031
▁authoriz	-10.9033
▁recurr	-10.9033
▁yield	-10.9034
▁institutions	-10.9035
▁gu	-10.9035
▁altitude	-10.9036
▁baby	-10.9038
▁Nixon	-10.9039
▁riders	-10.9039
NC	-10.9039
▁accelerat	-10.9043
▁hunt	-10.9054
▁ensu	-10.9056
take	-10.9057
▁ramp	-10.9061
▁Dick	-10.9062
▁Atlanta	-10.9064
▁Plant	-10.9066
heim	-10.9067
▁pale	-10.9067
▁liquid	-10.9068
▁Nova	-10.9072
▁liberal	-10.9073
▁Jonatha	-10.9073
▁cable	-10.9073
▁emotion	-10.9083
▁biographer	-10.9084
▁concentrat	-10.9086
etta	-10.9087
▁Fat	-10.9088
▁marks	-10.9089
▁Denmark	-10.909
bol	-10.9094
▁patterns	-10.9095
▁possess	-10.9095
▁Bernard	-10.9095
▁Record	-10.9099
▁settler	-10.9103
▁Leon	-10.9106
▁circumstances	-10.9107
▁explains	-10.9112
ava	-10.9114
▁reconnaissance	-10.9116
▁Actor	-10.9116
▁Baseball	-10.9116
▁Beth	-10.9117
▁Rihanna	-10.912
▁Sil	-10.9124
▁prince	-10.9125
▁activat	-10.9125
▁dubb	-10.9131
▁portrayal	-10.9131
▁05	-10.9134
▁fixed	-10.9135
▁tru	-10.9138
66	-10.9138
▁Friday	-10.9138
▁Ger	-10.9144
▁tube	-10.9145
aki	-10.9147
▁leak	-10.9153
▁coincid	-10.9153
▁Hudson	-10.9154
▁Amy	-10.9154
▁Cle	-10.916
▁mature	-10.9161
▁Abbey	-10.9168
▁Movie	-10.9172
▁Johnny	-10.9173
▁intercept	-10.9175
▁ritual	-10.9176
▁Rich	-10.9177
▁Cop	-10.9178
▁breath	-10.918
▁Mother	-10.9183
▁sequences	-10.9184
▁Hit	-10.9187
▁friendship	-10.919
BA	-10.919
▁displac	-10.919
▁prepar	-10.9192
▁reporter	-10.9192
▁Fighter	-10.9193
▁tissue	-10.9193
▁mountains	-10.9193
▁Liz	-10.9194
▁battles	-10.9195
arch	-10.9195
▁Campaign	-10.9197
▁holiday	-10.9197
▁restore	-10.9202
hem	-10.9203
OS	-10.9207
▁conventional	-10.9209
▁offense	-10.921
▁Kill	-10.9211
onia	-10.9212
▁Brook	-10.9213
▁Stein	-10.9214
▁Shaw	-10.9221
▁Steel	-10.9232
▁Merc	-10.9234
nell	-10.9241
▁payment	-10.9241
▁Hills	-10.9243
▁Communist	-10.925
▁incorporate	-10.9252
▁Arnold	-10.9254
▁revis	-10.9257
atic	-10.926
▁customer	-10.9261
▁refuse	-10.9262
▁06	-10.9263
▁Railroad	-10.9276
▁delegate	-10.9276
▁remarked	-10.9282
lain	-10.9285
itch	-10.9286
▁employ	-10.9288
qualified	-10.9288
▁Obama	-10.9289
▁Type	-10.929
▁cinema	-10.9296
▁170	-10.9303
▁alive	-10.9303
▁farmer	-10.9307
▁105	-10.9307
▁Keith	-10.9308
▁Jimmy	-10.9311
rog	-10.9315
tha	-10.9316
▁banks	-10.9316
▁punk	-10.9322
▁Potter	-10.9324
▁Wayne	-10.9324
▁Met	-10.9325
▁soldier	-10.9327
▁Reserve	-10.9333
▁sat	-10.9334
eng	-10.9336
▁Rand	-10.9338
▁hook	-10.934
▁suburb	-10.9341
▁sick	-10.9343
rel	-10.9343
yne	-10.9345
▁Natural	-10.9346
▁Rachel	-10.9346
▁exposure	-10.9347
▁pioneer	-10.935
▁Internet	-10.935
▁Devil	-10.9356
▁merg	-10.9357
▁investigat	-10.9358
▁chas	-10.9361
▁Israeli	-10.9361
▁Come	-10.9363
▁Pearl	-10.9368
bat	-10.9375
▁cutting	-10.9378
▁mainland	-10.9379
▁Rec	-10.9381
▁Hugh	-10.9381
▁sword	-10.9389
▁external	-10.939
cin	-10.939
dium	-10.9391
▁Bun	-10.9394
▁Tracy	-10.9396
▁Ang	-10.9398
pot	-10.9398
▁represents	-10.9399
▁taste	-10.94
▁float	-10.9403
▁strain	-10.9404
▁Inc	-10.9405
▁readers	-10.9415
▁Tam	-10.9417
▁arts	-10.9419
▁Eventual	-10.9421
▁strengthened	-10.9421
▁Rh	-10.9421
▁empire	-10.9425
▁duo	-10.9427
▁Birmingham	-10.9429
▁Impact	-10.943
▁dancing	-10.9434
▁Peace	-10.9434
▁Justin	-10.9435
▁horn	-10.9436
▁examples	-10.9437
▁routine	-10.9438
▁compound	-10.9438
▁Jet	-10.944
▁myth	-10.9444
▁Universal	-10.9447
▁ratio	-10.9449
▁electro	-10.945
▁Drive	-10.945
▁Belgian	-10.9452
▁demolished	-10.9455
▁subjects	-10.9456
▁conversation	-10.9461
▁expense	-10.9461
▁poems	-10.9463
▁reduction	-10.9465
▁Leonard	-10.9467
▁mobile	-10.9467
▁Yankees	-10.9469
▁Defence	-10.947
rib	-10.9471
▁uncle	-10.9476
▁constitution	-10.948
▁Kir	-10.9481
▁experimental	-10.9482
▁artificial	-10.9483
▁culminat	-10.9483
▁constitutional	-10.9484
master	-10.9484
▁Ever	-10.9486
▁flights	-10.9488
uous	-10.9491
oul	-10.9491
▁McCartney	-10.9492
▁Susan	-10.9496
▁license	-10.9498
▁drink	-10.9499
scope	-10.9501
▁fr	-10.9504
▁Phoenix	-10.9505
▁Morrison	-10.9506
▁casting	-10.9508
▁meter	-10.9512
▁Boe	-10.9515
▁nominations	-10.9521
▁mines	-10.9526
▁Tal	-10.9528
▁Pra	-10.9528
▁Classic	-10.9529
▁attraction	-10.9531
some	-10.9532
▁Social	-10.9532
▁orient	-10.9533
75	-10.9539
▁bearing	-10.9545
iac	-10.9547
boat	-10.9549
▁factory	-10.955
▁sq	-10.9552
▁Metro	-10.9558
▁Lan	-10.9561
▁deliberate	-10.9563
▁odd	-10.9563
▁manga	-10.9565
▁Secret	-10.9566
▁Kal	-10.9567
▁Connecticut	-10.9568
▁Bobby	-10.9568
▁sitting	-10.9568
▁Mission	-10.9568
▁oversea	-10.9569
▁crest	-10.9571
▁Boat	-10.9573
▁rounds	-10.9573
▁kiss	-10.9574
▁Madagascar	-10.9577
▁favourite	-10.9577
▁trapp	-10.9579
hil	-10.9579
lit	-10.9579
▁infection	-10.958
▁acoustic	-10.9581
▁Rap	-10.9584
65	-10.9586
▁secretary	-10.9587
▁prototype	-10.959
▁terminat	-10.9592
▁accumulat	-10.9595
▁Our	-10.9595
▁delivery	-10.9596
▁depiction	-10.9596
▁Todd	-10.9598
▁shirt	-10.9599
hall	-10.9604
▁Champion	-10.9604
llen	-10.9604
▁file	-10.9605
▁Euro	-10.9608
▁roots	-10.9608
▁induc	-10.9612
▁admit	-10.9613
▁deteriorat	-10.9626
▁electrical	-10.9629
▁evacuat	-10.9629
▁drugs	-10.963
▁inherit	-10.9634
▁serial	-10.9635
▁Ontario	-10.9635
▁chest	-10.9639
▁speaker	-10.9641
▁calculat	-10.9646
š	-10.9653
▁finger	-10.9656
▁Canterbury	-10.9663
▁Rub	-10.9663
▁aerial	-10.9665
▁cup	-10.9666
▁Monte	-10.9668
▁Lost	-10.9669
▁heir	-10.967
▁placing	-10.9672
▁reviv	-10.9674
▁withdrawal	-10.9674
▁carv	-10.9675
▁inaugura	-10.9675
▁removal	-10.9681
▁goods	-10.9682
▁Jupiter	-10.9685
▁decorat	-10.9687
▁bone	-10.969
▁Community	-10.969
▁parliament	-10.9691
▁Buck	-10.9695
▁Fleming	-10.9699
▁illustrat	-10.9703
▁diamond	-10.9704
▁solar	-10.9705
▁prefer	-10.9707
▁mechanical	-10.9708
▁bases	-10.9708
▁specimen	-10.9713
▁stores	-10.9714
▁laugh	-10.9716
▁Still	-10.9717
EFA	-10.9717
▁Convention	-10.9717
▁07	-10.9717
Z	-10.9722
▁Napoleon	-10.9729
▁kid	-10.9729
ground	-10.9729
▁prohibit	-10.9732
▁Foreign	-10.9735
▁batt	-10.9736
polis	-10.974
▁Ultimate	-10.9745
▁backing	-10.9745
▁upgrade	-10.9756
CE	-10.9758
19	-10.9765
▁til	-10.9766
▁Windows	-10.9772
▁strange	-10.9776
ili	-10.9778
▁Michel	-10.9781
posed	-10.9783
▁compil	-10.9786
▁Æthel	-10.979
▁Range	-10.9791
▁et	-10.9792
▁pump	-10.9796
▁pitcher	-10.9801
hor	-10.9802
▁inhabit	-10.9807
▁Conservative	-10.9809
borough	-10.9815
▁researcher	-10.982
▁Maya	-10.982
▁Opera	-10.982
45	-10.9821
▁articles	-10.9822
ene	-10.9824
lav	-10.9824
▁amateur	-10.9827
▁decay	-10.9827
▁Rights	-10.9835
▁aftermath	-10.9838
▁garner	-10.9841
▁integrat	-10.9847
▁Roll	-10.9848
▁jurisdiction	-10.985
▁realis	-10.9852
▁Titan	-10.9852
▁gray	-10.9854
▁Vancouver	-10.9859
▁Victorian	-10.986
57	-10.9863
aur	-10.9865
▁Legend	-10.9874
far	-10.9874
▁guid	-10.9878
▁Auto	-10.9878
▁membership	-10.9879
▁fame	-10.9882
▁publishing	-10.9883
break	-10.9885
38	-10.9889
cia	-10.9892
hir	-10.9893
player	-10.9894
▁Mrs	-10.9896
08	-10.99
▁Portugues	-10.9901
▁Swift	-10.9901
▁Rama	-10.9901
▁Trail	-10.9909
rma	-10.9909
ST	-10.991
▁suppress	-10.992
▁cluster	-10.992
▁Marvel	-10.9921
▁Administration	-10.9929
▁venture	-10.993
▁immun	-10.9934
▁Pam	-10.9934
▁battalions	-10.9935
▁TNA	-10.9937
▁Artist	-10.9944
▁racial	-10.9948
▁lover	-10.9949
▁Fun	-10.9956
▁Ton	-10.9956
uz	-10.9958
▁tenure	-10.9958
35	-10.9959
▁Triple	-10.9963
▁bombs	-10.9965
▁trailer	-10.9966
▁Clo	-10.9968
▁Village	-10.9968
16	-10.9969
zer	-10.9974
▁125	-10.9975
▁μ	-10.9976
▁operator	-10.9977
▁eruption	-10.9979
▁characteristic	-10.998
▁Engineer	-10.9981
▁promis	-10.9983
▁Dal	-10.9987
▁x	-10.9989
▁Jen	-10.9992
▁petition	-10.9994
▁explor	-10.9996
▁Bab	-10.9997
▁battlecruiser	-10.9999
▁Alice	-11.0002
▁Local	-11.0002
away	-11.0005
▁Support	-11.0009
▁Trophy	-11.0009
▁Howe	-11.0017
▁compounds	-11.0018
▁demon	-11.0026
▁Hardy	-11.0026
▁watershed	-11.0028
▁exploit	-11.0028
▁rivers	-11.0029
▁Dwight	-11.0032
▁competitive	-11.0032
▁putting	-11.0034
▁planets	-11.0035
▁1893	-11.0035
erson	-11.0039
▁accomplish	-11.0039
▁sang	-11.004
▁1860	-11.0043
99	-11.0047
▁Fish	-11.0048
▁Heath	-11.005
▁mushroom	-11.0056
▁architectural	-11.0056
▁Gary	-11.0061
▁Hampshire	-11.0065
▁elaborate	-11.0066
▁vol	-11.0067
▁Hel	-11.0067
▁tonne	-11.0069
nautical	-11.007
▁Oliver	-11.007
pu	-11.0071
▁intervention	-11.0075
▁Deep	-11.0076
▁1896	-11.0079
▁trigger	-11.0079
▁Barb	-11.0081
▁improvements	-11.0082
▁supplement	-11.0084
▁gear	-11.0084
▁birthday	-11.0087
mond	-11.0087
▁lecture	-11.0088
▁intellectual	-11.0089
▁provincial	-11.0089
▁guarantee	-11.0093
▁disturbance	-11.0095
▁fault	-11.0095
▁density	-11.0096
▁assess	-11.0097
▁Edinburgh	-11.0103
ł	-11.0107
▁Joan	-11.0108
▁Collins	-11.0108
▁hydrogen	-11.0108
▁Marge	-11.0109
▁Professor	-11.0112
▁examin	-11.0116
▁NCAA	-11.0117
▁Alaska	-11.0117
CS	-11.012
chu	-11.012
▁explosive	-11.0122
▁dispatch	-11.0122
▁Eye	-11.0124
▁pages	-11.0125
long	-11.0126
▁identical	-11.0127
▁Poe	-11.0133
▁Pakistan	-11.0134
▁anticipat	-11.0135
▁Armenian	-11.0137
▁Ty	-11.0141
▁shallow	-11.0142
č	-11.0146
▁insects	-11.015
▁wire	-11.015
▁educational	-11.015
▁Wor	-11.0153
▁Works	-11.0156
▁steps	-11.0158
▁riot	-11.0159
▁preserve	-11.016
▁Bol	-11.0161
hitting	-11.0163
▁chase	-11.0166
▁Chan	-11.0168
▁voyage	-11.0169
▁creek	-11.0169
▁muscle	-11.0169
77	-11.0172
▁sisters	-11.0174
▁utiliz	-11.0174
▁blocks	-11.0174
▁Girls	-11.0175
▁examination	-11.0178
▁Cricket	-11.0179
▁matters	-11.0179
▁waste	-11.018
▁sung	-11.018
▁seized	-11.0183
▁parody	-11.0184
▁1898	-11.0186
▁neighbour	-11.0188
pod	-11.019
utstanding	-11.0192
▁duration	-11.0193
gli	-11.0195
▁exhaust	-11.0198
agh	-11.0202
▁terrain	-11.0203
▁sentiment	-11.0203
▁sweet	-11.0203
▁feeding	-11.0203
▁Grey	-11.0204
▁Berg	-11.0205
▁bore	-11.0205
▁walking	-11.0209
▁substitute	-11.0217
▁Province	-11.0217
▁Tru	-11.022
BS	-11.0225
▁Past	-11.0227
▁automatic	-11.0227
▁AA	-11.023
▁streak	-11.0232
▁presum	-11.0232
▁Stock	-11.0234
▁cartoon	-11.0238
▁Say	-11.0239
SP	-11.024
anime	-11.0241
▁medicine	-11.0241
aga	-11.0246
▁trait	-11.0247
▁Beat	-11.0248
▁Thos	-11.0249
▁Petr	-11.0259
pec	-11.0262
▁flower	-11.0263
▁trough	-11.0263
▁covers	-11.0265
▁rifle	-11.0265
▁Ralph	-11.0265
▁Shu	-11.0265
▁Virgin	-11.0266
▁Historical	-11.0268
▁assembly	-11.0269
▁habit	-11.027
▁Argentina	-11.027
▁Trade	-11.0272
▁Thr	-11.0272
▁divorce	-11.0272
▁exclusive	-11.0274
▁promotional	-11.0275
▁bones	-11.0276
▁JT	-11.0282
▁Champions	-11.0283
28	-11.0286
▁sum	-11.0288
▁Ant	-11.029
▁Gene	-11.0291
▁350	-11.0291
▁heading	-11.0292
▁Yorkshire	-11.0292
▁Row	-11.0295
▁wage	-11.0296
▁mistake	-11.0296
▁Bern	-11.0298
▁Cri	-11.0298
born	-11.0298
▁jury	-11.03
▁advertising	-11.0304
say	-11.0306
▁Mick	-11.0307
▁Performance	-11.0309
▁repeat	-11.0312
▁comment	-11.0312
▁Arch	-11.0313
▁tear	-11.0315
▁ceased	-11.0316
▁Lloyd	-11.0318
▁conservation	-11.032
▁fossil	-11.0321
▁unclear	-11.0322
▁magnitude	-11.0328
▁fortification	-11.0329
▁Craig	-11.033
▁sin	-11.0334
▁bare	-11.0335
▁Wii	-11.0337
▁output	-11.034
kov	-11.0342
▁software	-11.035
▁Where	-11.0358
▁wake	-11.0362
▁gam	-11.0363
▁requires	-11.0363
▁Jerry	-11.0367
▁employment	-11.0367
▁Overall	-11.0369
▁Lauren	-11.0371
▁progressive	-11.0374
▁web	-11.0377
▁Globe	-11.0382
▁distant	-11.0382
▁contribution	-11.0382
▁accidental	-11.0382
▁drummer	-11.0382
▁tubes	-11.0383
▁recall	-11.0387
▁predominant	-11.0391
▁Pink	-11.0393
▁Market	-11.0393
▁wine	-11.0395
▁blind	-11.0396
▁Johnston	-11.0399
▁1899	-11.04
▁explanation	-11.0401
▁Turner	-11.0401
nia	-11.0405
▁succession	-11.0411
▁commitment	-11.0412
fallen	-11.0414
▁Steven	-11.0416
▁Nar	-11.0419
▁Kam	-11.0423
▁dislik	-11.0424
▁Subsequent	-11.0425
SI	-11.0428
▁Bennett	-11.043
▁commentary	-11.0432
▁improvement	-11.0433
▁arrangements	-11.0435
▁mirror	-11.0435
▁proclaim	-11.044
▁Celtic	-11.044
▁Sign	-11.0448
▁reluctant	-11.045
▁approaching	-11.0452
▁lie	-11.0453
▁imagery	-11.0454
▁vary	-11.0454
▁Spirit	-11.0455
▁Finland	-11.0455
⁄	-11.046
itor	-11.046
▁lawsuit	-11.0465
mbo	-11.0471
▁origins	-11.0471
▁Thunder	-11.0475
▁biograph	-11.0475
▁drinking	-11.0476
▁monaster	-11.0479
band	-11.0482
▁electricity	-11.0483
▁structural	-11.0484
▁dynamic	-11.0484
▁disrupt	-11.0485
▁destroyer	-11.0489
▁Helen	-11.049
▁disband	-11.049
▁hole	-11.0492
▁defences	-11.0493
▁devastat	-11.0494
▁smoke	-11.0495
▁Voice	-11.0498
▁Guitar	-11.0499
▁Electric	-11.0504
▁Norfolk	-11.0504
▁Imp	-11.0507
▁curv	-11.051
93	-11.051
stair	-11.0512
▁labour	-11.0519
▁sending	-11.052
▁collaps	-11.052
atch	-11.0527
▁Official	-11.0529
▁Grace	-11.0529
▁cabinet	-11.053
▁Kon	-11.0532
▁Judge	-11.0535
att	-11.0536
▁jobs	-11.0536
nate	-11.0537
bach	-11.0538
▁Queensland	-11.0539
▁burial	-11.054
▁liner	-11.0542
▁Burton	-11.0543
69	-11.0543
▁Heritage	-11.0544
hart	-11.0545
wich	-11.0545
▁contribute	-11.0546
▁branches	-11.0547
face	-11.055
▁instrument	-11.055
▁Brothers	-11.0554
▁activist	-11.0554
▁sack	-11.0558
▁demonstrate	-11.0558
lle	-11.0561
ré	-11.0564
▁qualit	-11.0567
▁angr	-11.0567
▁radiation	-11.0573
▁Hawaii	-11.0574
▁Lea	-11.0574
▁presentation	-11.0574
rup	-11.0576
▁remark	-11.0577
▁celebrate	-11.0578
▁Nicholas	-11.0578
▁turbine	-11.0578
▁Apollo	-11.0578
▁mask	-11.0585
▁atomic	-11.0588
▁Mayor	-11.0594
MC	-11.0595
▁quit	-11.0596
21	-11.0598
sbury	-11.06
▁Brazilian	-11.0602
▁failing	-11.0603
▁vs	-11.0605
▁Baron	-11.0608
▁precipitation	-11.061
▁nurse	-11.0612
▁Rangers	-11.0614
mbi	-11.0617
▁eagle	-11.0618
▁Mason	-11.0619
▁graphic	-11.062
▁publications	-11.0621
▁accommodate	-11.0626
▁essay	-11.0628
▁gra	-11.0631
▁1850	-11.0633
▁root	-11.0634
▁Vincent	-11.0634
▁Syria	-11.0635
AT	-11.0636
ela	-11.0637
▁Mountains	-11.0637
▁Catherine	-11.0638
▁athletic	-11.0638
like	-11.0639
▁Davies	-11.064
▁App	-11.0641
▁Guinea	-11.0643
▁Medical	-11.0644
▁gender	-11.0645
iness	-11.0645
▁pursuit	-11.0646
grad	-11.0648
▁Emmy	-11.0653
▁eastward	-11.0654
wer	-11.0657
▁fat	-11.0658
▁exclusively	-11.0659
owing	-11.0664
▁04	-11.0664
esh	-11.0671
▁Harbor	-11.0677
▁inscription	-11.0678
anda	-11.0682
ado	-11.0682
47	-11.0686
▁loyal	-11.0687
▁recognize	-11.0691
▁Living	-11.0693
▁eligib	-11.0694
▁penetrat	-11.0703
▁Next	-11.0704
▁Child	-11.0706
▁polar	-11.0709
▁spur	-11.071
▁directors	-11.0713
▁accord	-11.0713
▁Kate	-11.0714
arm	-11.0715
▁Transportation	-11.0717
▁Had	-11.0719
▁Rep	-11.0722
▁attending	-11.0723
▁Diamond	-11.0723
▁Sega	-11.0728
▁instruct	-11.0728
ă	-11.0728
▁loved	-11.0736
▁Sweet	-11.0739
▁Donald	-11.0739
▁Darwin	-11.0739
▁Fund	-11.074
▁virus	-11.074
▁beaut	-11.0743
▁hybrid	-11.0744
▁dissolv	-11.0744
▁Hughes	-11.0746
▁Motor	-11.0746
▁Prix	-11.0747
▁pav	-11.0747
▁tooth	-11.0747
▁Bro	-11.0748
▁ancestor	-11.0754
▁1897	-11.0757
▁kit	-11.0757
▁Micros	-11.0757
smith	-11.0758
▁Boys	-11.0762
▁Beginning	-11.0764
▁Yellow	-11.0764
▁Credits	-11.0765
ú	-11.0774
▁Oslo	-11.0775
▁Look	-11.0776
▁patch	-11.0778
▁Swa	-11.078
▁photographs	-11.078
▁frequency	-11.0786
▁lyrical	-11.0787
▁copper	-11.0788
feld	-11.0789
▁discipline	-11.0789
▁Harvard	-11.0789
▁survival	-11.079
▁volcano	-11.0791
▁Training	-11.0791
▁Kil	-11.0792
▁sheet	-11.0799
▁Cameron	-11.0799
▁tide	-11.08
▁legislative	-11.0805
▁conquer	-11.081
▁valuable	-11.081
▁volunteer	-11.081
iya	-11.0817
▁conceived	-11.082
▁Kane	-11.082
▁Farm	-11.0821
▁collective	-11.0824
▁Swiss	-11.0825
▁slope	-11.0828
▁sixteen	-11.0828
▁respective	-11.0828
▁sugar	-11.0831
▁champions	-11.0833
▁mut	-11.0837
▁Moscow	-11.084
▁Magic	-11.0843
▁volumes	-11.0845
▁tea	-11.085
▁Indonesia	-11.0853
▁allocat	-11.0853
▁rebel	-11.0854
▁initiative	-11.086
▁Pittsburgh	-11.0861
▁commentator	-11.0861
▁Gallery	-11.0866
▁Mol	-11.0867
▁kn	-11.087
▁voting	-11.0871
▁chord	-11.0871
▁reinforc	-11.0874
▁airfield	-11.0875
tron	-11.0875
▁assume	-11.0879
ray	-11.0879
▁sacrifice	-11.0881
▁mac	-11.0882
▁Protestant	-11.0886
▁spark	-11.089
▁dogs	-11.0892
▁Antonio	-11.0892
comb	-11.0892
▁summit	-11.0892
▁Luke	-11.0894
▁Abu	-11.0899
▁anger	-11.09
▁Female	-11.0901
▁steep	-11.0901
▁Angle	-11.0904
▁upset	-11.0905
▁175	-11.0908
▁Mak	-11.091
▁dispers	-11.0917
▁log	-11.0921
▁representatives	-11.0922
▁Neil	-11.0923
▁Orange	-11.0924
▁servant	-11.0924
▁Carol	-11.0926
▁Kerr	-11.0926
▁Cru	-11.0929
▁Junior	-11.0932
▁confidence	-11.0933
▁spoken	-11.0936
▁victim	-11.0937
▁dealing	-11.0939
▁Indonesian	-11.094
▁autumn	-11.0943
▁celebrit	-11.0943
▁Terry	-11.0947
▁Bath	-11.0947
▁shaft	-11.0948
ftermath	-11.0948
▁Ruth	-11.0954
▁puzzle	-11.0958
▁Edwards	-11.096
▁Mack	-11.0962
gna	-11.0963
▁interrupt	-11.0963
▁Wallace	-11.0968
▁recommendation	-11.0974
▁photography	-11.0976
▁humor	-11.0977
vor	-11.0982
▁urani	-11.0983
▁laborator	-11.0983
▁attorney	-11.0984
▁scout	-11.0984
▁Jar	-11.0989
▁stuff	-11.0989
▁Section	-11.0991
▁Edition	-11.0993
▁Der	-11.0995
▁Upper	-11.0995
fin	-11.1004
▁consum	-11.1007
▁Abb	-11.101
RA	-11.101
▁explicit	-11.1015
▁Rev	-11.1015
▁gang	-11.1016
▁invent	-11.1017
▁tactics	-11.1019
▁evacuation	-11.102
▁fate	-11.1023
ander	-11.1024
▁Formation	-11.1024
▁melody	-11.1025
▁burned	-11.1028
▁opt	-11.1029
▁inclusion	-11.1031
▁pu	-11.1031
▁tele	-11.1032
▁roadway	-11.1032
▁fatal	-11.1044
▁Defense	-11.1046
▁elevat	-11.1048
▁Studio	-11.1049
ddle	-11.1051
▁Jefferson	-11.1052
▁crack	-11.1053
uf	-11.1054
▁Bang	-11.1054
▁Sm	-11.1056
fight	-11.1056
aku	-11.1058
▁por	-11.1059
▁Bou	-11.106
▁patron	-11.1061
▁Control	-11.1062
▁jaw	-11.1063
▁careful	-11.1066
▁Description	-11.1067
▁prop	-11.1068
▁minority	-11.1068
▁flowers	-11.1069
plane	-11.107
cio	-11.1071
▁Oh	-11.1072
▁Transport	-11.1074
▁Sri	-11.1074
▁Hope	-11.1076
▁Style	-11.1078
igh	-11.1081
▁Program	-11.1082
▁flash	-11.1086
▁Sara	-11.1092
▁None	-11.1092
▁occupy	-11.1093
▁programming	-11.1099
chemistry	-11.1099
▁hide	-11.1102
▁Tree	-11.1103
view	-11.1105
▁echo	-11.1105
EC	-11.1106
▁harbour	-11.1109
idae	-11.1113
▁Sheffield	-11.1114
61	-11.1122
gie	-11.1129
▁uncertain	-11.1129
▁demonstration	-11.113
▁fundamental	-11.113
▁Larry	-11.1134
▁sad	-11.1134
xi	-11.1138
horn	-11.114
▁fisher	-11.1141
maker	-11.1144
▁burning	-11.1145
▁observ	-11.1145
▁salv	-11.1146
▁Allie	-11.1151
▁Pur	-11.1151
▁tough	-11.1151
▁Form	-11.1152
▁Para	-11.1153
▁Bru	-11.1156
▁Security	-11.1156
▁consideration	-11.1156
▁analog	-11.1157
▁1895	-11.116
▁pictures	-11.1161
▁Fra	-11.1162
▁advocate	-11.117
▁package	-11.1172
▁clash	-11.1181
pop	-11.1182
▁Books	-11.1185
▁filter	-11.1187
ogether	-11.1188
▁compromise	-11.1188
▁mail	-11.1189
▁Cyrus	-11.1193
▁revers	-11.1194
wl	-11.1197
tti	-11.1197
▁Dallas	-11.1198
64	-11.1199
▁riding	-11.12
▁devices	-11.1202
phone	-11.1207
▁warfare	-11.1209
▁Herald	-11.1209
▁Zero	-11.1213
▁ports	-11.1213
▁warrior	-11.1214
▁users	-11.1218
gal	-11.1219
▁Pot	-11.1222
▁fold	-11.1224
rim	-11.1225
▁Charts	-11.1226
▁bombardment	-11.1232
▁Malaysia	-11.1234
▁Picture	-11.1235
▁convey	-11.1236
▁Tang	-11.1237
▁rivalry	-11.1238
▁Collection	-11.124
▁administer	-11.1241
▁cruise	-11.1241
▁detect	-11.1244
▁Amendment	-11.1246
▁Rus	-11.1247
▁modification	-11.1252
▁participation	-11.1254
▁Quest	-11.1255
▁Bert	-11.1255
▁monk	-11.1256
▁Austin	-11.1257
▁absent	-11.1257
▁Room	-11.126
▁Thing	-11.1261
▁inflict	-11.1267
▁Kaiser	-11.1273
▁fortress	-11.1274
tail	-11.1275
▁fung	-11.1277
▁scandal	-11.1278
▁revolutionar	-11.1278
24	-11.128
AM	-11.128
▁girlfriend	-11.1283
▁remote	-11.1283
▁samples	-11.1292
▁Parsons	-11.1294
▁FBI	-11.1295
▁Tha	-11.13
▁epic	-11.1304
▁tempo	-11.1306
58	-11.1307
▁imprison	-11.1308
▁Mile	-11.1309
▁Clay	-11.1312
▁transportation	-11.1318
▁Chelsea	-11.1321
▁Clarke	-11.1324
ingham	-11.1325
▁vers	-11.1325
▁03	-11.1326
▁brilliant	-11.1326
▁Woman	-11.1326
▁widow	-11.1331
▁remind	-11.1332
▁115	-11.1332
▁principle	-11.1334
mil	-11.1334
▁crush	-11.1348
▁salary	-11.1353
▁Danish	-11.1359
▁Armstrong	-11.1364
▁grandfather	-11.1364
▁Wilhelm	-11.1369
▁Mix	-11.137
dict	-11.1371
▁Wonder	-11.1374
▁expectation	-11.1374
▁Ent	-11.1376
▁Scar	-11.1382
▁Gang	-11.1385
▁Cathedral	-11.1385
▁Quebec	-11.1385
▁significan	-11.139
▁Musical	-11.1391
▁playoff	-11.1392
▁noise	-11.1393
▁rocket	-11.14
ending	-11.1404
▁southeaster	-11.141
▁dinosaur	-11.1412
▁Fisher	-11.1413
▁diverse	-11.1418
▁wash	-11.1421
▁tap	-11.1423
▁confin	-11.1424
46	-11.1426
put	-11.1426
▁replica	-11.1427
nat	-11.1428
▁Cultural	-11.1428
▁Pit	-11.1439
▁vulnerable	-11.1445
▁Pet	-11.1446
▁Fourth	-11.1449
▁borrow	-11.145
▁Nik	-11.145
ois	-11.1451
▁stepp	-11.1451
▁revival	-11.1453
▁dinner	-11.1455
lap	-11.1459
▁recovery	-11.1461
▁advertisement	-11.1462
12	-11.1462
▁surge	-11.1466
▁Spider	-11.1466
▁Fel	-11.1472
▁orange	-11.1473
▁Half	-11.1474
▁Ivan	-11.1476
▁Panzer	-11.1478
RT	-11.148
▁Authority	-11.148
▁statistics	-11.1483
▁bag	-11.1483
where	-11.1484
▁Serbian	-11.1486
▁Case	-11.1486
▁Reich	-11.1488
▁onward	-11.1488
71	-11.1491
▁principles	-11.1491
▁confirm	-11.1493
▁Buffalo	-11.1493
▁conquest	-11.1493
▁enact	-11.1494
▁slaver	-11.1495
▁Rem	-11.1495
▁mandat	-11.1495
▁valid	-11.1499
▁Ship	-11.15
▁Break	-11.15
▁papers	-11.15
▁01	-11.1503
▁wrestler	-11.1505
▁mixture	-11.1505
▁Tyler	-11.1506
▁mytholog	-11.1508
▁variable	-11.1509
▁Orleans	-11.1515
▁descent	-11.1521
ā	-11.1521
▁wet	-11.1521
▁Def	-11.1526
▁Mann	-11.1527
▁Agency	-11.1527
ache	-11.1529
▁Gay	-11.1531
▁conclude	-11.1532
▁Reform	-11.1534
▁melt	-11.1535
▁tram	-11.1537
▁efficient	-11.1537
▁terminal	-11.1537
lice	-11.1538
▁opin	-11.1541
▁Associat	-11.1543
▁Utah	-11.1543
▁HD	-11.1543
▁tribe	-11.1545
▁breast	-11.1547
▁unexpected	-11.1548
▁Pictures	-11.1549
▁Stuart	-11.1554
▁requir	-11.1556
▁outcome	-11.156
nor	-11.156
▁Meta	-11.1562
ifi	-11.1563
▁steer	-11.1565
▁Mov	-11.1565
▁Monster	-11.1567
▁Minor	-11.1569
▁platforms	-11.1569
▁cathedral	-11.157
▁Code	-11.157
▁enable	-11.1571
▁beating	-11.1575
▁clothes	-11.1576
▁Constantine	-11.1576
68	-11.1579
▁Bengal	-11.1583
SC	-11.1584
▁drift	-11.1587
▁Bud	-11.1592
▁FIFA	-11.1592
vy	-11.1592
▁1861	-11.1595
▁mock	-11.1596
▁Charlotte	-11.1597
▁consolidat	-11.1597
nant	-11.1598
▁freight	-11.1603
▁Regional	-11.1607
▁Salt	-11.1608
▁CBS	-11.1609
rmies	-11.161
▁persuad	-11.1611
▁descendant	-11.1611
▁Richmond	-11.1614
▁1889	-11.1617
▁Link	-11.1618
▁Vin	-11.1619
▁installation	-11.1619
▁connections	-11.162
▁bacteria	-11.1622
OC	-11.1622
▁mood	-11.1625
▁kilometer	-11.1625
HL	-11.1626
▁Metropolitan	-11.1631
▁reunit	-11.1631
▁hatch	-11.1633
illo	-11.1636
rgent	-11.1637
lop	-11.164
▁Gan	-11.164
▁Stevens	-11.1641
▁theories	-11.1653
▁rebels	-11.1655
oun	-11.1658
▁Muhammad	-11.1658
▁substance	-11.1658
trop	-11.166
▁1894	-11.1661
▁isotope	-11.1669
▁Bulgarian	-11.167
▁hydro	-11.1679
▁physic	-11.1682
▁Hop	-11.1684
▁Student	-11.1686
▁screenplay	-11.1687
▁scholarship	-11.1688
▁Executive	-11.1691
▁pm	-11.1694
74	-11.1696
26	-11.1697
▁Scientology	-11.1697
▁choreograph	-11.1697
lium	-11.17
▁Bee	-11.1701
▁Sultan	-11.1703
▁lifetime	-11.1704
▁destination	-11.1705
▁1891	-11.171
▁elite	-11.1712
▁Newton	-11.1712
▁heritage	-11.1714
▁Want	-11.1716
▁rug	-11.1716
▁diplomatic	-11.1717
▁interact	-11.172
▁dual	-11.1727
14	-11.1729
▁variation	-11.173
▁empty	-11.173
▁competitor	-11.1731
▁Bible	-11.1732
▁killer	-11.1733
▁beats	-11.1735
▁decisive	-11.1736
tun	-11.1736
gno	-11.1738
▁boost	-11.1742
▁Rhodes	-11.1746
▁Jamaica	-11.1747
▁GameSp	-11.175
▁Pine	-11.1751
▁rejoin	-11.1753
jan	-11.1753
tine	-11.1754
hm	-11.1756
cap	-11.1756
▁YouTube	-11.1758
▁explod	-11.1758
▁Freedom	-11.1759
▁saving	-11.176
▁Wells	-11.176
▁Pas	-11.1764
world	-11.1765
▁refit	-11.1766
89	-11.1766
ensis	-11.1767
▁pregnan	-11.177
84	-11.1774
▁nice	-11.1777
regulat	-11.1778
▁Bomb	-11.178
▁coordinate	-11.1786
▁Walt	-11.1788
▁invest	-11.1792
jun	-11.1793
▁1000	-11.1793
▁Years	-11.1795
▁240	-11.1795
ibility	-11.1797
▁experiments	-11.1797
▁agriculture	-11.1798
01	-11.1802
▁dome	-11.1803
55	-11.1803
▁millimeter	-11.1803
▁pap	-11.1806
▁migrat	-11.1806
▁Pete	-11.1808
▁seventeen	-11.1809
▁confusion	-11.1809
▁Kru	-11.181
▁epi	-11.1812
▁interfer	-11.1816
▁dish	-11.182
fold	-11.1821
▁biological	-11.1821
▁1892	-11.1822
▁Burns	-11.1825
▁dwarf	-11.1826
▁telephone	-11.1826
▁processes	-11.1826
stat	-11.1828
59	-11.183
▁Cardiff	-11.1832
▁texts	-11.1836
▁widen	-11.1837
▁evident	-11.1837
▁Typhoon	-11.1837
▁Mongol	-11.1837
▁Register	-11.1837
▁devoted	-11.1837
▁barrier	-11.1838
rill	-11.1838
▁Zone	-11.184
▁golden	-11.1841
ridge	-11.1842
▁Symphony	-11.1843
▁grain	-11.1849
▁scenario	-11.1854
▁Epi	-11.1855
▁Got	-11.1857
▁measurement	-11.1858
▁bulk	-11.1864
▁Grade	-11.1865
▁harmon	-11.1867
▁complement	-11.1871
weight	-11.1871
▁Conservation	-11.1871
▁Kyle	-11.1871
▁asset	-11.1878
▁proof	-11.188
▁precise	-11.1888
▁sings	-11.1891
▁extinct	-11.1892
▁pound	-11.1896
▁Set	-11.1896
34	-11.1897
meter	-11.1903
▁Nature	-11.1903
76	-11.1904
▁timber	-11.1905
▁troop	-11.1905
▁Danny	-11.1908
▁Falls	-11.1912
▁nose	-11.1913
▁dimension	-11.1919
▁Orchestra	-11.1922
▁infrastructure	-11.1922
ame	-11.1924
▁trap	-11.1925
▁illustration	-11.1927
▁Cavalry	-11.1927
▁Until	-11.1927
▁1800	-11.1932
▁02	-11.1933
CT	-11.1937
▁Swan	-11.1939
▁lion	-11.1943
▁Il	-11.1943
▁pink	-11.1945
▁repris	-11.1946
▁negotiat	-11.1947
▁resolv	-11.1947
▁Ground	-11.1948
▁Sox	-11.1949
▁literal	-11.195
▁tackle	-11.1952
▁movies	-11.1952
▁rotation	-11.1953
98	-11.1958
ket	-11.1961
▁knight	-11.1963
▁outfit	-11.1963
game	-11.1967
▁poison	-11.1968
▁carrie	-11.1974
▁Fan	-11.1975
▁communications	-11.1975
▁applications	-11.1975
▁Gla	-11.1976
▁talks	-11.1977
▁rebuild	-11.1977
▁followers	-11.1978
▁Actress	-11.1978
▁Oscar	-11.1979
uma	-11.1981
▁retail	-11.1982
satisfied	-11.1984
▁Shiva	-11.1985
▁Male	-11.1988
mbar	-11.1993
₹	-11.1996
critic	-11.1997
night	-11.1998
▁Watch	-11.1998
stable	-11.1999
astic	-11.2001
▁Jerusalem	-11.2002
▁fertil	-11.2002
▁ordinar	-11.2008
▁bowler	-11.2009
▁resort	-11.2013
▁Airlines	-11.2014
▁disabl	-11.2015
▁Leo	-11.2019
▁peninsula	-11.2019
▁Coach	-11.202
boy	-11.2022
▁sailing	-11.2023
▁impressive	-11.2023
▁Len	-11.2028
▁Was	-11.2028
PC	-11.2029
▁Fight	-11.203
▁afford	-11.2031
▁refugee	-11.2033
▁CE	-11.2036
▁Montgomery	-11.2036
▁Wisconsin	-11.2036
▁neo	-11.2037
▁Father	-11.2038
▁hung	-11.2039
▁census	-11.2042
▁drown	-11.2042
▁censor	-11.2042
▁aft	-11.2043
ović	-11.2044
▁pupil	-11.2051
▁senator	-11.2055
▁commenting	-11.2056
▁Highland	-11.2057
▁observer	-11.2064
▁Ap	-11.2065
▁reliev	-11.2066
▁cash	-11.2067
▁Sonic	-11.2069
uld	-11.207
partially	-11.2072
kel	-11.2076
44	-11.2078
ffer	-11.2081
▁Services	-11.2081
▁Pierre	-11.2085
▁manufacturer	-11.2089
▁Barnes	-11.2093
▁realistic	-11.2095
▁remov	-11.2097
▁Flag	-11.2098
▁Scots	-11.21
▁fortune	-11.2101
▁autobiograph	-11.2106
▁arena	-11.2109
▁inning	-11.2109
mount	-11.2111
▁overlook	-11.2117
▁Independence	-11.2118
▁clan	-11.2119
▁lesson	-11.212
▁Chapel	-11.2123
▁manipulat	-11.2123
▁alert	-11.2124
▁Slo	-11.2124
▁Start	-11.2127
▁cylinder	-11.2129
▁mineral	-11.213
▁Spin	-11.2134
IA	-11.2135
▁bench	-11.2136
▁Yama	-11.2137
▁Turkey	-11.2138
▁Poll	-11.2139
▁Attorney	-11.214
▁blast	-11.2141
AR	-11.2141
▁1888	-11.2145
▁enhanc	-11.215
▁Mall	-11.215
▁bats	-11.2151
flow	-11.2151
▁MacArthur	-11.2152
▁counterpart	-11.2152
▁Sherman	-11.2152
▁Century	-11.2158
▁spawn	-11.2158
▁relation	-11.2158
▁metric	-11.2159
▁Leader	-11.216
▁generate	-11.216
▁hostile	-11.2161
▁drain	-11.2162
▁oversee	-11.2162
stad	-11.2165
▁Baltic	-11.2167
▁mud	-11.2169
97	-11.2172
▁speculation	-11.2173
▁Ara	-11.2175
▁Terra	-11.2179
▁Cemetery	-11.2187
▁captur	-11.2189
▁Sid	-11.2191
▁1885	-11.2191
▁Branch	-11.2192
▁Saturn	-11.2193
▁Draft	-11.2198
▁hang	-11.2199
▁Evil	-11.22
▁strand	-11.2205
▁Brooks	-11.221
▁Czech	-11.221
▁dependent	-11.2211
▁amendment	-11.2211
▁equally	-11.2211
▁vital	-11.2211
▁DS	-11.2215
▁Resident	-11.2216
▁proceeding	-11.2217
▁Schuma	-11.2219
▁infant	-11.2231
▁Warrior	-11.2234
▁Iceland	-11.2237
ducted	-11.2243
enne	-11.2246
▁swing	-11.2246
▁sil	-11.2248
naming	-11.225
lau	-11.2251
▁Leaf	-11.2252
▁dying	-11.2253
▁Roth	-11.2257
▁explaining	-11.2259
mura	-11.2262
▁closure	-11.2263
▁rumor	-11.2263
▁galax	-11.2263
lot	-11.2268
▁twist	-11.2269
▁hurt	-11.2269
▁traditions	-11.2269
asa	-11.2273
▁Brun	-11.2276
therapy	-11.2278
▁refin	-11.2281
guard	-11.2285
▁Sean	-11.2287
▁Mari	-11.229
▁Make	-11.2293
▁concurrent	-11.2293
▁Lac	-11.2298
▁Reagan	-11.2298
▁romance	-11.2298
ault	-11.2301
ii	-11.2303
▁104	-11.2303
▁circular	-11.2304
▁Whi	-11.2304
▁Flor	-11.2307
▁Tribune	-11.231
▁Management	-11.231
▁Article	-11.231
WA	-11.2314
▁Thames	-11.2316
▁scrap	-11.2317
▁Romney	-11.2322
▁rider	-11.2323
▁111	-11.2326
▁Glee	-11.2326
▁suspension	-11.2328
▁separation	-11.2333
▁Writer	-11.2334
▁Athens	-11.2334
▁Barbara	-11.2334
▁parliamentar	-11.2338
▁Organization	-11.234
raz	-11.234
▁summon	-11.2343
▁intent	-11.2344
▁disagree	-11.2344
mur	-11.2348
▁1865	-11.235
▁neuro	-11.235
▁comprise	-11.2354
▁distinction	-11.2354
▁bitter	-11.2355
▁bomber	-11.2358
▁Rear	-11.2363
▁doctrine	-11.2363
▁Cab	-11.237
wept	-11.2385
▁homosexual	-11.2387
▁manufacturing	-11.2387
▁NATO	-11.2393
▁reforms	-11.2394
▁subsid	-11.2396
▁settle	-11.2397
▁Comedy	-11.2397
bul	-11.2397
▁abroad	-11.2399
▁blend	-11.2399
▁Too	-11.2402
▁handling	-11.2407
▁109	-11.2409
▁airing	-11.241
▁velocity	-11.2411
ū	-11.2411
▁myster	-11.2414
▁continent	-11.2416
▁enroll	-11.2417
▁harsh	-11.2417
▁varie	-11.2419
mme	-11.242
▁columns	-11.2422
▁volcanic	-11.2423
▁laps	-11.2426
▁Cher	-11.2428
▁Fen	-11.2429
▁Barn	-11.243
▁stroke	-11.243
▁Tin	-11.2433
bia	-11.2437
▁Ski	-11.244
▁Sla	-11.2442
▁shortage	-11.2443
▁universities	-11.2446
▁embrac	-11.2447
▁Cyclone	-11.2447
▁viewer	-11.245
▁persist	-11.2455
uka	-11.2456
▁sinking	-11.2458
▁Animal	-11.2459
▁Rogers	-11.2459
▁Gas	-11.2461
▁Chester	-11.2463
▁unveil	-11.2465
▁corps	-11.2467
▁Robin	-11.247
▁organisms	-11.2472
▁peer	-11.2473
▁Rosa	-11.2475
▁client	-11.2477
▁dust	-11.248
▁teach	-11.248
▁incorporat	-11.2481
▁Portugal	-11.2483
▁Krist	-11.2484
▁Plain	-11.2484
▁carriage	-11.2484
▁dri	-11.2486
▁Action	-11.2489
▁cattle	-11.249
▁blockade	-11.2491
▁physician	-11.2492
▁hills	-11.2496
▁functional	-11.2497
▁taxe	-11.2499
▁belonging	-11.25
▁leaf	-11.2502
CL	-11.2505
▁segments	-11.2505
▁usage	-11.2508
▁Ernest	-11.2511
▁Newcastle	-11.2513
▁Planet	-11.2524
▁Labor	-11.2528
▁Miles	-11.2528
▁Mind	-11.2529
Tune	-11.2531
▁Constantinople	-11.2531
▁CO	-11.2533
▁Walk	-11.2542
▁Din	-11.2543
▁Shadow	-11.2549
▁bottle	-11.2549
▁participants	-11.2554
▁canon	-11.2554
▁assessment	-11.2558
▁Thor	-11.2561
▁Drake	-11.2562
ij	-11.2563
én	-11.2563
TS	-11.2565
▁hint	-11.2568
pha	-11.257
RS	-11.2572
▁Personnel	-11.2573
▁Heavyweight	-11.2574
▁Representatives	-11.2575
▁450	-11.2576
▁disturb	-11.2578
oi	-11.2578
▁José	-11.258
phon	-11.2591
▁massacre	-11.2592
▁Joint	-11.2592
FI	-11.2592
▁Continental	-11.2593
▁enzyme	-11.2598
▁Sport	-11.2598
oh	-11.2601
LC	-11.2606
▁101	-11.2609
▁demographic	-11.261
▁studying	-11.261
▁Yan	-11.2611
▁endors	-11.2615
▁cheap	-11.2616
▁Laboratory	-11.2616
cock	-11.2619
▁Raj	-11.262
▁boyfriend	-11.2622
▁millimetre	-11.2622
▁Liberty	-11.2622
▁1864	-11.2626
▁painter	-11.2628
▁Cornwall	-11.2628
▁Ancient	-11.2634
▁goddess	-11.2634
▁ceiling	-11.2634
▁lip	-11.2635
▁Future	-11.2635
bru	-11.264
▁debri	-11.2644
▁Tournament	-11.2646
▁choir	-11.2647
moto	-11.2651
▁batteries	-11.2651
▁220	-11.2652
TC	-11.2656
roll	-11.2656
▁pipe	-11.2657
▁ambassador	-11.2659
▁flame	-11.266
▁Standard	-11.2661
RC	-11.2664
▁Marshal	-11.2664
▁municipal	-11.2664
▁genuine	-11.2665
▁bears	-11.2665
▁Ellis	-11.2677
CI	-11.2678
▁horizontal	-11.2683
▁cards	-11.269
▁Affairs	-11.2692
43	-11.2693
▁volunteers	-11.2695
▁corporate	-11.2695
▁Card	-11.27
▁Cena	-11.2701
▁extract	-11.2703
▁ballot	-11.2705
▁inquir	-11.2706
▁juvenile	-11.2708
▁remake	-11.2708
▁transmission	-11.2708
box	-11.271
▁navigation	-11.2711
▁indigenous	-11.2721
nium	-11.2722
hel	-11.2724
▁Leicester	-11.2726
▁Strait	-11.273
▁distract	-11.2731
▁Gabriel	-11.2732
▁measur	-11.2733
▁definite	-11.2736
▁gods	-11.2739
▁random	-11.2741
▁Career	-11.2746
▁easier	-11.2749
▁consumption	-11.2751
▁deputy	-11.2751
▁Isaac	-11.2751
▁pier	-11.2751
▁restrictions	-11.2753
▁reactions	-11.2756
motive	-11.2759
▁Shah	-11.2764
▁lighter	-11.2765
▁Alberta	-11.2765
▁Meyer	-11.2766
osis	-11.2768
▁Boulevard	-11.2769
▁operates	-11.2774
▁Az	-11.2774
▁Malcolm	-11.2776
aya	-11.2776
▁logo	-11.2777
▁resignation	-11.2779
▁metre	-11.2782
▁Non	-11.2785
▁scrapp	-11.2787
▁Capital	-11.2788
tim	-11.279
▁Normand	-11.279
▁fulfill	-11.2791
▁licens	-11.2792
▁egg	-11.2792
▁Youth	-11.2792
▁transit	-11.2794
▁Energy	-11.2794
▁Kor	-11.2795
▁cameo	-11.28
▁ties	-11.28
▁premise	-11.28
▁Chamberlain	-11.2801
▁Dublin	-11.2801
▁Turn	-11.2802
▁Pedro	-11.2802
▁Nat	-11.2805
anna	-11.2805
▁referee	-11.2808
▁excess	-11.2811
▁insert	-11.2812
▁apologi	-11.2813
▁flesh	-11.2813
41	-11.2817
▁rescu	-11.2818
▁dreadnought	-11.2819
▁shadow	-11.2819
▁vocalist	-11.2822
▁Ob	-11.2825
▁Archbishop	-11.2825
▁punishment	-11.2827
▁Lower	-11.2829
▁Devon	-11.2834
▁Round	-11.2836
▁advocat	-11.2841
▁Veni	-11.2841
▁Bear	-11.2845
▁Commissioner	-11.2847
▁radi	-11.2849
▁rotat	-11.2851
ulu	-11.2854
▁ERA	-11.2856
▁Yugoslavia	-11.2857
▁gentle	-11.2863
▁1862	-11.2865
bbl	-11.2868
▁DJ	-11.2869
▁Electronic	-11.2869
cula	-11.2871
▁options	-11.2881
▁collision	-11.2881
▁stripp	-11.2885
▁occurr	-11.2885
SN	-11.289
▁supervis	-11.2896
▁Lyn	-11.2896
▁Julian	-11.2898
▁nephew	-11.29
▁dies	-11.2901
▁corresponding	-11.2903
▁blam	-11.2906
▁territorial	-11.2907
front	-11.291
key	-11.2911
▁decid	-11.2912
▁cal	-11.2913
▁relat	-11.2913
▁poster	-11.2914
▁Shak	-11.2914
▁Nanc	-11.2915
▁Yard	-11.2915
22	-11.2916
▁violat	-11.2919
▁organic	-11.2923
▁Romanian	-11.2924
▁Origin	-11.2924
▁Eddie	-11.2926
▁Machine	-11.2927
▁Friends	-11.2931
▁industrie	-11.2932
▁Bradley	-11.2932
uro	-11.2934
▁Fla	-11.2937
▁Guild	-11.2938
▁rapper	-11.2939
▁corn	-11.2939
▁Dennis	-11.2944
▁Meteorologica	-11.2944
▁attribute	-11.2946
▁Hipp	-11.2947
▁statements	-11.2947
▁benefits	-11.2948
▁kilogram	-11.295
▁shipment	-11.2952
force	-11.2958
odon	-11.2959
▁loud	-11.2959
cke	-11.296
▁Number	-11.2963
▁vicinit	-11.2963
▁Maha	-11.2968
▁challenges	-11.2969
▁Serbia	-11.2969
▁corridor	-11.2969
▁Rush	-11.2972
▁mast	-11.2974
▁hence	-11.2981
▁complicated	-11.2982
▁Historian	-11.2987
▁Political	-11.2988
▁triumph	-11.2988
▁doors	-11.2989
▁infect	-11.299
▁Gau	-11.2991
▁Bran	-11.2994
▁thunderstorm	-11.2995
▁Crystal	-11.2995
▁particles	-11.2997
▁judges	-11.3
▁stall	-11.3
▁mixing	-11.3001
▁Dakota	-11.3001
▁sweep	-11.3001
▁Morning	-11.3002
▁charm	-11.3002
▁variations	-11.3008
▁Hendri	-11.301
▁stern	-11.3012
▁circulat	-11.3015
▁beliefs	-11.3015
▁pounder	-11.3018
▁burst	-11.302
▁Est	-11.3022
▁Cry	-11.3024
▁Jake	-11.3024
hra	-11.3025
▁Hearts	-11.3027
▁Burke	-11.3027
▁Sex	-11.3032
▁Pac	-11.3035
▁Ran	-11.3035
▁Tommy	-11.3039
▁roster	-11.3039
▁confident	-11.304
▁Springfield	-11.3042
Hg	-11.3045
▁reader	-11.3046
▁barrel	-11.3054
▁accessibl	-11.3055
000	-11.3057
▁humanity	-11.3058
DOT	-11.3063
▁prayer	-11.3064
▁Alliance	-11.3064
▁obscur	-11.3065
▁hail	-11.3069
▁Đ	-11.3072
▁fluid	-11.3077
▁Gibraltar	-11.3084
iri	-11.3084
▁honest	-11.3084
▁mysterious	-11.3084
▁congregation	-11.3085
54	-11.3087
▁reconstruction	-11.3089
▁Wagner	-11.309
▁Arg	-11.309
▁breach	-11.3091
▁ferry	-11.3095
▁manifest	-11.3096
▁domain	-11.3096
42	-11.3097
hurst	-11.3098
▁mansion	-11.31
▁sentenc	-11.3102
▁Studies	-11.3103
▁consumer	-11.3105
▁convicted	-11.3106
▁Cincinnati	-11.3109
▁publish	-11.3112
▁voters	-11.3112
▁Montana	-11.3118
▁UB	-11.3118
▁thorough	-11.3122
▁silent	-11.3125
▁steadi	-11.3127
▁Blake	-11.3128
▁remarkabl	-11.3128
▁screening	-11.3129
▁observe	-11.3131
▁Spect	-11.3131
▁1840	-11.3133
▁exterior	-11.3135
▁Malta	-11.3136
▁Bears	-11.3139
▁Gran	-11.3141
▁limb	-11.3141
▁define	-11.3143
▁sheep	-11.3147
▁Author	-11.3151
▁combine	-11.3153
▁Concert	-11.3154
brook	-11.3157
▁instant	-11.3157
23	-11.3159
▁sympath	-11.316
▁wonder	-11.3167
▁stain	-11.3168
▁Bha	-11.3169
stock	-11.3173
▁Taiwan	-11.3174
▁Pick	-11.3176
▁Maine	-11.3181
▁Coll	-11.3183
▁sharks	-11.3186
▁Friedrich	-11.3186
▁permit	-11.319
odor	-11.319
▁prestig	-11.3193
▁Hull	-11.3193
▁Read	-11.3193
rb	-11.3194
▁lord	-11.3198
▁Fear	-11.3198
▁Rag	-11.3199
▁counsel	-11.3199
▁abolish	-11.3199
▁gunner	-11.3201
▁lung	-11.3201
awa	-11.3202
▁tools	-11.3203
▁slot	-11.3208
▁mammals	-11.3209
▁mutual	-11.3212
▁spider	-11.3212
how	-11.3213
▁Hood	-11.3214
▁gathering	-11.3215
▁Nation	-11.3217
berry	-11.3218
▁Strat	-11.3223
▁Character	-11.3225
▁Olivia	-11.3225
▁robot	-11.3225
▁specializ	-11.3225
▁Inside	-11.3229
▁Chu	-11.3229
▁Ages	-11.3229
▁Qa	-11.3231
▁outdoor	-11.3232
▁stunt	-11.3232
▁sphere	-11.3238
▁nationalist	-11.3239
▁Yugoslav	-11.3251
▁Syn	-11.3257
augh	-11.3259
▁witch	-11.3259
piece	-11.3261
▁Hon	-11.3261
▁1887	-11.3263
▁Antarctic	-11.3264
▁Shield	-11.3264
▁Vegas	-11.3264
▁threatening	-11.3265
▁feathers	-11.3273
▁installment	-11.3277
▁Arena	-11.3277
▁Curtis	-11.3278
▁patent	-11.3278
▁prosper	-11.3284
▁Afghanistan	-11.329
▁clergy	-11.329
▁filmmaker	-11.3292
worthy	-11.3293
▁Steam	-11.3295
▁Nam	-11.3297
rah	-11.3303
▁1863	-11.3303
▁Madison	-11.3304
▁VIII	-11.3304
▁outstanding	-11.3307
▁Twitter	-11.331
▁Circle	-11.331
▁Lau	-11.3313
32	-11.3316
▁user	-11.3319
▁compar	-11.3321
▁Edmund	-11.3323
▁Nathan	-11.3327
▁Large	-11.3327
▁1886	-11.3328
▁Technology	-11.3329
SU	-11.3342
▁propagand	-11.3342
ER	-11.3343
▁defect	-11.3343
▁ethic	-11.3345
▁memori	-11.3347
▁skeleton	-11.3349
▁Gregory	-11.335
▁migration	-11.3352
▁Orton	-11.3353
zel	-11.3356
▁bath	-11.3366
ema	-11.3367
▁gauge	-11.3369
▁maps	-11.3369
▁Mine	-11.337
▁Hai	-11.3371
▁flaw	-11.3371
▁Anton	-11.3376
active	-11.3378
▁mild	-11.3378
▁Former	-11.3379
▁Poké	-11.3382
▁hypo	-11.3383
▁Ami	-11.3384
▁sketch	-11.3385
▁Millenni	-11.3389
▁Lamb	-11.3392
▁dropping	-11.3397
▁blu	-11.3401
à	-11.3401
kovic	-11.3403
▁Factor	-11.3404
▁trio	-11.3405
▁teenager	-11.3405
▁Brooklyn	-11.3408
▁judicial	-11.341
▁102	-11.341
▁readi	-11.3412
▁Kur	-11.3412
▁Dale	-11.3413
▁exploration	-11.3414
▁Baptist	-11.3415
▁Mercury	-11.3415
▁conspiracy	-11.3415
▁Cul	-11.3415
GA	-11.3415
▁varying	-11.3418
▁Tyr	-11.342
cott	-11.3423
▁assassination	-11.3427
▁faculty	-11.3428
enburg	-11.3433
▁McKinley	-11.3434
fort	-11.3436
▁Princeton	-11.3438
wig	-11.3438
▁Austro	-11.3441
▁Mis	-11.3447
▁approache	-11.3447
▁harbor	-11.3448
▁Comics	-11.3452
▁emission	-11.3455
▁Gui	-11.3456
▁plates	-11.3466
▁Hubbard	-11.3468
▁submerg	-11.3468
▁conced	-11.3468
▁anthem	-11.3469
▁Herbert	-11.3472
▁Tell	-11.3473
▁pac	-11.3474
▁intermediate	-11.3474
▁Tigers	-11.3475
▁grid	-11.3478
▁witnesses	-11.3492
▁skat	-11.3492
▁Milan	-11.3497
print	-11.3498
▁Model	-11.3499
▁enormous	-11.3501
▁psychological	-11.3501
▁MLB	-11.3501
▁routing	-11.3501
bot	-11.3501
▁zero	-11.3501
▁Sue	-11.3506
▁Buddhist	-11.3507
▁ancestr	-11.3508
▁milk	-11.3508
▁Urban	-11.3508
▁bombard	-11.351
▁magnetic	-11.3511
▁corporation	-11.3514
season	-11.3515
▁Holland	-11.3516
▁stability	-11.3521
▁NASA	-11.3527
mill	-11.3532
apa	-11.3533
▁commend	-11.3534
▁Fran	-11.3534
▁Iran	-11.3539
▁declaration	-11.3544
▁1884	-11.3545
▁Solar	-11.3547
▁lone	-11.355
▁coastline	-11.3554
â	-11.3554
▁Glasgow	-11.3554
▁averag	-11.3558
▁Josh	-11.3561
▁acquisition	-11.3568
▁eliminate	-11.3568
▁colours	-11.3573
▁irregular	-11.3574
▁liver	-11.3578
▁Canucks	-11.3581
▁Colt	-11.3588
▁LP	-11.3588
hand	-11.359
▁Month	-11.3591
▁Talk	-11.3594
▁harvest	-11.3594
▁Cou	-11.3595
▁excessive	-11.3597
▁locomotives	-11.36
iro	-11.36
▁Computer	-11.3601
▁saint	-11.3601
▁insurance	-11.3606
▁martial	-11.3608
▁confused	-11.3609
▁allegation	-11.3611
▁Theater	-11.3612
▁Smack	-11.3615
▁decoration	-11.3616
▁dia	-11.3616
▁Jacque	-11.3621
▁ensur	-11.3623
▁stor	-11.3624
▁uprising	-11.3628
▁holes	-11.363
saw	-11.3632
zar	-11.3632
▁ambush	-11.3635
▁Fifth	-11.3635
▁Phillies	-11.3635
▁Ghost	-11.3642
▁violation	-11.3642
▁Theodore	-11.3643
▁worse	-11.3643
▁Belle	-11.3643
▁Franco	-11.3645
lov	-11.3648
▁institut	-11.3649
▁Evan	-11.365
▁rice	-11.3653
gio	-11.3653
▁adjust	-11.3653
▁flown	-11.3653
▁Must	-11.3656
▁mad	-11.3659
978	-11.366
FL	-11.3662
▁torpedoes	-11.3663
▁resolve	-11.3666
▁Train	-11.3668
▁Ottawa	-11.3669
▁diversity	-11.3669
▁Viking	-11.3672
▁compris	-11.3672
naissance	-11.3675
▁Bah	-11.3678
▁Percy	-11.368
uan	-11.3681
æ	-11.3682
▁Lei	-11.3685
▁Oil	-11.3691
jur	-11.3692
▁tender	-11.3693
▁Westminster	-11.3696
▁cotton	-11.3696
▁quest	-11.37
▁Mercede	-11.3702
▁circum	-11.3702
▁ease	-11.3709
▁1877	-11.3714
▁Prom	-11.3716
▁diminish	-11.3716
▁Tintin	-11.3716
▁Total	-11.3717
him	-11.3724
▁Nad	-11.3724
cht	-11.3725
▁Mou	-11.3726
▁Twin	-11.3726
▁Alpha	-11.3728
▁gal	-11.3729
▁Name	-11.3729
▁calm	-11.373
▁CEO	-11.3731
▁Denver	-11.3732
▁Zi	-11.3733
▁collector	-11.3735
litz	-11.3735
bank	-11.3736
▁jersey	-11.3736
mpton	-11.3737
reby	-11.3747
▁myself	-11.3751
▁Sat	-11.3752
viation	-11.3753
▁Basketball	-11.3757
▁1876	-11.3761
▁Current	-11.3764
▁Sum	-11.3767
▁conviction	-11.3768
▁Bour	-11.377
▁PS	-11.3776
SO	-11.3776
▁Manuel	-11.3778
buck	-11.378
▁Nevada	-11.3784
▁hypothesis	-11.3784
▁Cool	-11.3787
▁Chuck	-11.3787
▁Sword	-11.3788
▁blame	-11.3788
▁Sig	-11.379
▁deployment	-11.379
ashi	-11.379
▁battlefield	-11.379
▁Albany	-11.3791
▁Gothic	-11.3791
▁jail	-11.3792
ht	-11.3798
▁aesthetic	-11.3798
▁aggregate	-11.3798
▁autonom	-11.3798
▁Otto	-11.3809
▁intelligent	-11.3812
cum	-11.3813
▁donation	-11.3815
▁rebounds	-11.3816
▁Letter	-11.3816
▁exceptional	-11.3819
▁punch	-11.3819
▁resembl	-11.3824
▁Gloucester	-11.3825
▁Ronald	-11.3826
Brien	-11.3828
▁Strong	-11.3828
assi	-11.3829
▁Stage	-11.383
▁Corn	-11.383
▁defendant	-11.3837
å	-11.3839
▁agencies	-11.3839
▁ghost	-11.3846
▁motif	-11.3846
▁update	-11.3846
▁divide	-11.3847
▁Ellen	-11.3853
▁revenge	-11.3853
▁Maxim	-11.3856
▁Magn	-11.3857
▁sensitive	-11.386
kha	-11.386
▁Principal	-11.386
▁viewing	-11.3861
hou	-11.3866
▁radius	-11.3867
▁assignment	-11.3868
▁Emma	-11.3872
▁Carlos	-11.3873
▁detected	-11.3874
▁fad	-11.3875
▁Malay	-11.3876
RI	-11.3878
▁cemetery	-11.3888
▁Colin	-11.3888
▁emphasiz	-11.3892
▁expir	-11.3895
cro	-11.3896
▁emerge	-11.3896
▁Angelo	-11.3899
▁cow	-11.3901
▁Barcelona	-11.3901
▁Economic	-11.3901
▁recipient	-11.3901
▁Territory	-11.3901
▁Composition	-11.3902
73	-11.3904
▁imitat	-11.3908
Down	-11.3912
▁boot	-11.3915
▁Churchill	-11.3915
cola	-11.3919
▁enthusiastic	-11.3919
▁encompass	-11.3922
▁tin	-11.3927
▁Cox	-11.3928
▁relate	-11.393
▁1830	-11.3934
▁Canyon	-11.3936
▁beside	-11.3936
▁punt	-11.3937
▁thanks	-11.3939
▁snake	-11.3943
▁Store	-11.3943
▁1875	-11.3948
▁width	-11.395
▁Foster	-11.3953
▁Tir	-11.3954
▁indirect	-11.3955
▁declare	-11.3963
▁specialist	-11.3963
▁squa	-11.3976
▁abundant	-11.3978
▁consequent	-11.3978
▁prompting	-11.3982
▁resign	-11.3983
▁Math	-11.3984
▁rot	-11.3984
stage	-11.3986
▁Bosnia	-11.3995
▁Advance	-11.3995
lai	-11.3997
▁lava	-11.4012
▁Watt	-11.4013
▁cubic	-11.4013
▁Raymond	-11.4013
▁Delta	-11.4014
▁Duncan	-11.4014
▁Single	-11.4015
▁Parkway	-11.4017
▁testimon	-11.402
PR	-11.4024
nik	-11.4024
▁Pack	-11.4025
▁linear	-11.4025
▁Appeal	-11.4027
▁rational	-11.4027
urance	-11.4028
▁1883	-11.4029
▁Derby	-11.403
ichi	-11.403
72	-11.4031
▁Clan	-11.4031
▁compell	-11.4034
▁RBI	-11.4036
▁atop	-11.4036
▁weakness	-11.4041
▁Leigh	-11.4041
▁Weather	-11.4041
▁southwestern	-11.4041
▁scan	-11.4045
▁Calgar	-11.4065
▁commemorat	-11.4066
▁1881	-11.4067
▁Grave	-11.4068
▁detach	-11.4074
hoe	-11.4075
▁Hur	-11.4076
▁memoir	-11.4076
▁successive	-11.4078
▁fossils	-11.4079
aux	-11.4079
rock	-11.4082
▁properly	-11.4082
▁Northwest	-11.4083
▁Professional	-11.4083
▁relevan	-11.4084
▁Crime	-11.4086
▁bullet	-11.4087
▁Geoffr	-11.4087
▁Revolutionar	-11.4089
▁contradict	-11.409
▁proxim	-11.4097
▁regret	-11.4097
▁Blair	-11.4098
▁vegetation	-11.4104
▁Marsh	-11.411
▁manag	-11.4111
etti	-11.4113
▁tier	-11.4113
▁archaeological	-11.4113
▁Made	-11.4115
▁invitation	-11.4116
▁antagonist	-11.4118
▁Lancashire	-11.4126
wel	-11.4126
▁persuade	-11.413
▁acquire	-11.413
▁Powell	-11.4131
▁Richardson	-11.4131
▁Henderson	-11.4133
odi	-11.4133
▁orchestral	-11.4134
▁presidenc	-11.4134
▁consciousness	-11.4134
▁crucial	-11.4136
▁Stalin	-11.4136
▁delegation	-11.414
▁stamp	-11.414
▁AL	-11.4145
▁Kara	-11.4147
▁Desert	-11.4147
▁1869	-11.4152
▁RNA	-11.4153
▁continental	-11.4155
▁stake	-11.4157
▁Word	-11.4158
▁Palm	-11.4159
▁Cardinals	-11.4163
wind	-11.4166
▁230	-11.4168
shaw	-11.4169
▁coaches	-11.4174
▁smok	-11.4174
▁Body	-11.4177
▁landmark	-11.418
▁jam	-11.418
gé	-11.418
iti	-11.4189
▁northeastern	-11.4191
▁1866	-11.4195
▁sprint	-11.4196
▁prevail	-11.4197
RO	-11.4198
▁Shar	-11.42
▁Ferdinand	-11.4204
▁Wol	-11.4208
▁190	-11.421
▁Veronica	-11.4211
▁nervous	-11.4211
▁Floyd	-11.4211
▁hunter	-11.4213
▁detachment	-11.4213
▁confess	-11.4216
▁cliff	-11.4217
ception	-11.4218
▁betray	-11.4219
▁woodland	-11.4221
▁sailors	-11.4226
▁ascend	-11.4227
refore	-11.4227
▁Sad	-11.4228
HA	-11.4229
▁Starr	-11.423
TV	-11.4234
▁larva	-11.4238
▁pine	-11.4241
▁comfortabl	-11.4243
▁boom	-11.4252
▁Wellington	-11.4255
▁tendenc	-11.4256
▁postpon	-11.426
▁phenomenon	-11.4261
▁consensu	-11.4261
space	-11.4263
▁delight	-11.4263
▁corruption	-11.4265
tech	-11.4271
but	-11.4275
▁Crawford	-11.4275
▁authentic	-11.4275
▁mortar	-11.4275
▁Java	-11.428
▁modest	-11.428
▁borough	-11.4283
▁Palestin	-11.4288
▁Pitt	-11.4291
▁127	-11.4292
▁priorit	-11.4296
▁Episode	-11.4297
▁enlarg	-11.4304
▁consent	-11.4305
▁sortie	-11.4311
▁Lex	-11.4314
▁golf	-11.4315
▁hamlet	-11.4319
▁Aaron	-11.4319
▁Culture	-11.4319
▁XI	-11.4325
▁throat	-11.4326
▁750	-11.4329
▁Chad	-11.433
▁surprising	-11.4333
▁Tucker	-11.4333
▁reinforce	-11.4341
▁Truman	-11.4341
▁eighteen	-11.4343
▁Pole	-11.4345
▁poverty	-11.4348
▁performers	-11.4348
▁Member	-11.435
▁Viet	-11.435
▁instructions	-11.4351
▁Using	-11.4355
▁kitchen	-11.4355
▁bout	-11.4355
▁lifestyle	-11.4356
▁arcade	-11.4357
▁Hum	-11.4357
▁Step	-11.436
▁Fischer	-11.4362
▁Telegraph	-11.4362
▁populat	-11.4363
▁rehearsal	-11.4368
▁etc	-11.4368
asi	-11.4369
▁Headquarters	-11.4369
cision	-11.437
▁Sud	-11.4374
▁fix	-11.4375
▁innovation	-11.4377
▁ambition	-11.4377
▁Why	-11.4377
▁Solomon	-11.4377
▁1873	-11.438
▁dimensional	-11.4381
▁updat	-11.4382
uli	-11.4384
dition	-11.4387
▁frontier	-11.4389
▁Fab	-11.4389
▁fake	-11.439
▁1882	-11.4391
▁flex	-11.4395
▁Panama	-11.4396
▁controller	-11.4399
▁philosopher	-11.4402
▁1871	-11.4403
▁yd	-11.4403
▁Site	-11.4404
▁ensemble	-11.4406
▁molecular	-11.4407
▁inspect	-11.4412
▁Beij	-11.4415
ota	-11.4416
▁possessed	-11.4416
▁Effect	-11.442
▁seeming	-11.4421
▁Cloud	-11.4422
▁quantit	-11.4422
▁pleasure	-11.4422
▁provok	-11.4422
▁Members	-11.4425
▁execut	-11.4425
▁Punk	-11.4426
▁Flanders	-11.4428
▁Heavy	-11.4428
FA	-11.4429
▁hyper	-11.4432
▁1867	-11.4434
▁Paralympic	-11.4435
▁accent	-11.4435
▁preach	-11.4438
▁Food	-11.4441
▁silk	-11.4442
▁marsh	-11.4442
▁Adrian	-11.4442
▁overcome	-11.4443
▁Lead	-11.4452
▁tactical	-11.4455
rigg	-11.4456
▁reminiscen	-11.4457
▁Kepler	-11.4457
▁reopen	-11.4457
▁acceptance	-11.4457
▁Mode	-11.4458
▁listening	-11.4461
▁Chile	-11.4461
▁printing	-11.4462
▁percussion	-11.4464
▁fierce	-11.4464
▁Watson	-11.4466
▁Rei	-11.4467
▁denot	-11.4474
▁peasant	-11.4479
▁slat	-11.4479
▁input	-11.4485
▁divine	-11.4487
▁relay	-11.4488
▁135	-11.4493
▁erupt	-11.4496
apoli	-11.4496
▁realm	-11.4496
▁Prison	-11.4499
▁1878	-11.4499
▁165	-11.45
▁tributar	-11.4501
▁Dudley	-11.4501
▁Heaven	-11.4501
▁É	-11.4501
▁shopp	-11.4503
▁mechanics	-11.4506
▁Deputy	-11.4508
▁Travel	-11.4512
▁Metal	-11.4515
▁unanimous	-11.4516
▁Nag	-11.452
▁Mail	-11.452
▁Clement	-11.4523
▁dialect	-11.4523
▁syndrome	-11.4523
94	-11.4527
▁overwhelming	-11.4529
▁McCarthy	-11.4538
▁mari	-11.4543
▁Sep	-11.4543
▁Beau	-11.4545
▁disco	-11.4552
▁Trinity	-11.4553
▁Caesar	-11.4553
▁Cad	-11.4553
▁surpassed	-11.4555
shot	-11.4556
▁Damage	-11.4558
▁Gibson	-11.456
▁Pont	-11.456
▁Movement	-11.4561
▁Vic	-11.4561
▁icon	-11.4562
▁Norse	-11.4564
▁excavation	-11.4565
▁pocket	-11.4567
▁fitting	-11.4569
une	-11.4571
▁Cinema	-11.4571
issa	-11.4572
hole	-11.4573
oria	-11.4574
▁elephant	-11.4575
▁privilege	-11.4575
▁Commercial	-11.4575
▁revealing	-11.4577
▁Hawaiian	-11.4581
VA	-11.4587
▁Luftwaffe	-11.459
▁Region	-11.459
▁True	-11.459
▁nerve	-11.4591
▁Add	-11.4592
▁genera	-11.4593
▁Hir	-11.4597
uda	-11.4598
▁Dev	-11.4598
▁headline	-11.4602
▁narrat	-11.4604
▁Pul	-11.4605
▁dirt	-11.4606
▁Guadal	-11.4612
▁Zu	-11.4614
▁statute	-11.4619
▁Pad	-11.4624
▁Gru	-11.4625
▁Expedition	-11.4627
link	-11.4632
▁Mot	-11.4632
▁compli	-11.4632
▁Element	-11.4633
▁button	-11.4635
▁Mai	-11.4638
lett	-11.4638
▁Burger	-11.4641
▁Chase	-11.4642
ulate	-11.4643
▁Mobile	-11.4649
▁feminist	-11.4649
▁Choice	-11.4649
▁tract	-11.465
rail	-11.4652
▁declar	-11.4653
▁Temp	-11.4654
▁Bermuda	-11.4664
▁Domin	-11.4665
▁legitimate	-11.4665
▁ward	-11.4665
▁Adult	-11.4672
verse	-11.4673
▁raw	-11.4675
▁Kol	-11.4677
▁fabric	-11.4679
▁lesbian	-11.4679
scribed	-11.4681
▁oak	-11.4681
▁Notable	-11.4681
held	-11.4686
▁qualification	-11.4687
▁Trent	-11.4687
hammer	-11.4688
▁homeless	-11.4692
▁Shelley	-11.4694
▁plantation	-11.4697
▁transmitt	-11.4699
▁zoo	-11.47
▁Monroe	-11.4702
pent	-11.4702
wy	-11.4702
▁Tai	-11.4705
▁Wu	-11.4708
▁pig	-11.4713
agi	-11.4715
▁Doll	-11.4718
▁loyalty	-11.4719
▁shoe	-11.4721
▁fatalit	-11.4721
▁Manager	-11.4725
▁barb	-11.4725
▁gig	-11.4727
▁improvis	-11.4729
▁Brod	-11.4729
▁conductor	-11.4731
▁Monument	-11.4732
▁caution	-11.4732
▁Spencer	-11.4732
▁immigrants	-11.4732
▁perception	-11.4734
▁Cut	-11.4736
bie	-11.474
wal	-11.474
▁depress	-11.4741
▁notion	-11.4741
▁adequate	-11.4747
▁intact	-11.4747
▁obsess	-11.4747
▁adher	-11.4749
▁Combat	-11.4751
ED	-11.4752
▁locomotive	-11.4756
▁1872	-11.4758
▁Aguilera	-11.4762
▁Selena	-11.4763
▁1868	-11.4766
▁Logan	-11.4767
▁Gai	-11.4768
▁Various	-11.4771
▁Neu	-11.4773
CN	-11.4775
▁caliber	-11.4777
▁RPG	-11.4778
▁Chat	-11.4784
▁duck	-11.4784
▁coalition	-11.4784
▁Chandler	-11.4784
▁Right	-11.4785
▁manual	-11.4785
▁elde	-11.4786
ES	-11.4789
▁telescope	-11.4792
▁desperate	-11.4793
▁Newman	-11.4793
lift	-11.4796
▁spare	-11.4801
▁MS	-11.4802
▁weld	-11.4802
▁batsman	-11.4806
▁astronomer	-11.4807
▁Cabinet	-11.4807
▁detective	-11.481
▁pose	-11.481
▁twentieth	-11.4815
▁comprised	-11.4815
lob	-11.4816
▁trademark	-11.4816
ometric	-11.4818
▁instrumentation	-11.4821
occer	-11.4822
▁greet	-11.4822
▁Put	-11.4823
▁songwriting	-11.4825
▁buff	-11.4828
▁synthesis	-11.483
▁Flames	-11.483
lag	-11.4831
▁Marcus	-11.4832
▁Price	-11.4834
▁Flo	-11.4836
▁Cala	-11.4837
ë	-11.4838
▁Marty	-11.4838
▁propeller	-11.4842
▁peaceful	-11.4842
▁Butler	-11.4849
▁complaints	-11.4851
▁Marx	-11.4851
▁kidnapp	-11.4852
▁offshor	-11.4852
▁Generation	-11.4853
ulf	-11.4857
▁dragon	-11.4858
▁archiv	-11.4859
▁Griffin	-11.486
▁engaging	-11.486
▁mint	-11.4863
SK	-11.4864
▁captive	-11.4868
kill	-11.4868
▁renovation	-11.4869
▁Lone	-11.4874
▁cabin	-11.4875
▁preliminar	-11.4876
▁MVP	-11.4876
▁Barrett	-11.4879
▁motivat	-11.488
▁insufficient	-11.4883
▁Genesis	-11.4884
▁rally	-11.4887
▁objection	-11.4889
ancy	-11.4889
jack	-11.489
▁analyz	-11.4891
▁confrontation	-11.4892
▁divert	-11.4893
▁spectators	-11.4893
▁Laf	-11.4894
▁Kre	-11.4894
▁terror	-11.4895
▁Slav	-11.4898
▁lab	-11.49
▁155	-11.4901
▁Chen	-11.4905
keeper	-11.4909
▁Destin	-11.4915
▁Money	-11.4915
▁enhance	-11.4916
BC	-11.4916
▁notic	-11.4917
▁motorway	-11.4917
▁Sau	-11.492
▁internationally	-11.4922
▁judgment	-11.4923
▁preference	-11.4923
▁WWF	-11.4929
▁organize	-11.4929
▁Engineering	-11.493
▁Maxwell	-11.4931
▁revision	-11.4932
▁Adelaide	-11.4937
▁Newport	-11.4938
▁pregnanc	-11.4944
▁Raven	-11.4953
62	-11.4954
▁Riley	-11.4959
▁sic	-11.4959
▁neutron	-11.496
▁interference	-11.4961
▁stance	-11.4962
▁endur	-11.4964
▁pinn	-11.4965
▁Parachute	-11.4968
▁texture	-11.4969
▁Worcester	-11.4975
▁Surrey	-11.4975
▁attachment	-11.4977
▁cry	-11.4979
NT	-11.4981
▁Screen	-11.4983
▁ants	-11.4984
jar	-11.4985
▁attractive	-11.4986
▁Reading	-11.4987
▁solv	-11.4988
▁synonym	-11.499
▁renumber	-11.4991
▁Essex	-11.4991
▁Skinner	-11.4999
▁brutal	-11.4999
▁mathematics	-11.5006
▁lemurs	-11.501
ledge	-11.501
▁Baldwin	-11.5014
▁Chancellor	-11.5014
▁extraordinar	-11.5014
▁Abraham	-11.5014
▁unaware	-11.5014
▁Plymouth	-11.5014
▁alarm	-11.5014
▁commissioner	-11.5015
gni	-11.5017
▁Madrid	-11.5022
▁restrain	-11.5022
▁Banksia	-11.5022
aker	-11.5023
▁reactor	-11.5024
▁layout	-11.5025
▁gallery	-11.503
▁Volt	-11.503
▁warrant	-11.503
▁Fellow	-11.503
▁depot	-11.5031
▁roller	-11.5031
▁Regard	-11.5032
▁Tiger	-11.5034
▁Legion	-11.5037
▁locate	-11.5038
▁Preston	-11.504
▁Vince	-11.5042
▁meal	-11.5044
LL	-11.5044
▁Hancock	-11.5046
▁joy	-11.5051
▁Brother	-11.5053
▁Brigadier	-11.5053
▁Ker	-11.5054
▁blade	-11.5054
▁VH	-11.5064
flo	-11.5065
▁Pha	-11.5066
▁cheer	-11.5066
▁Lancaster	-11.5068
▁laud	-11.507
▁thickness	-11.5071
▁Dom	-11.5071
▁Edgar	-11.5071
▁citizen	-11.5072
▁subtle	-11.5072
▁Crow	-11.5076
▁Tunnel	-11.5076
▁interception	-11.5078
▁frog	-11.508
▁Div	-11.5085
▁recit	-11.5086
▁baron	-11.5089
▁shin	-11.509
▁Christin	-11.5091
▁civilization	-11.5095
▁solve	-11.5095
▁instruction	-11.5097
▁rope	-11.5098
▁enclos	-11.5106
▁neglect	-11.5107
▁configuration	-11.5108
▁Stoke	-11.5113
▁runway	-11.5114
▁conceal	-11.5115
▁machinery	-11.5115
Connor	-11.5127
ð	-11.5131
▁rookie	-11.5131
▁subordinate	-11.5131
▁Florence	-11.5132
▁derive	-11.5138
▁satisfy	-11.5139
▁symphon	-11.5139
▁Aviation	-11.5143
▁racis	-11.5145
▁redesign	-11.5145
▁clay	-11.5148
▁Thorn	-11.5153
▁custody	-11.5154
▁Leg	-11.5155
▁passion	-11.5155
▁Foot	-11.5159
▁McCo	-11.5161
▁Senior	-11.5162
▁Note	-11.5164
▁Page	-11.5165
▁merger	-11.5168
▁Jeremy	-11.517
▁nominee	-11.517
▁Sharp	-11.5171
▁parade	-11.5171
▁Usher	-11.5171
PS	-11.5175
▁Tales	-11.5176
▁currency	-11.5178
▁detonat	-11.5178
▁Idol	-11.5179
▁Harper	-11.5184
▁Grim	-11.5185
▁auction	-11.5186
▁Twenty	-11.5186
▁Admiralty	-11.5187
▁Glass	-11.5188
▁Lil	-11.519
▁grandson	-11.5192
▁Ark	-11.5193
▁Cuban	-11.5193
▁pronounced	-11.5194
card	-11.5196
▁Aero	-11.5198
▁mob	-11.5199
▁Kha	-11.5201
▁Arkansas	-11.5202
▁Jennifer	-11.5202
▁incomplete	-11.5202
▁Vienna	-11.5202
▁progression	-11.5203
stellar	-11.5203
▁Phillips	-11.5205
▁Circuit	-11.521
▁Ltd	-11.5212
▁Publishing	-11.5217
▁Flood	-11.5218
▁Nobel	-11.5219
▁Andrea	-11.5221
iki	-11.5222
▁Romania	-11.5227
▁accommodation	-11.5227
esque	-11.5233
▁Mala	-11.5234
▁Stories	-11.5234
▁Cali	-11.5236
▁View	-11.5237
▁Gall	-11.524
▁sibling	-11.5241
▁discharge	-11.5241
▁Apart	-11.5243
▁McCain	-11.5244
▁106	-11.5247
llah	-11.5249
▁editorial	-11.5254
▁Contemporar	-11.5256
▁McDonald	-11.5257
▁Vel	-11.5258
oque	-11.5258
hara	-11.5259
▁pad	-11.5261
▁cream	-11.5265
▁Gross	-11.5265
▁reef	-11.5267
▁obstacle	-11.5273
▁deserve	-11.5273
▁disguis	-11.5273
▁correspond	-11.5274
▁rag	-11.5278
▁1879	-11.5279
▁northwestern	-11.5281
▁molecules	-11.5282
▁keen	-11.5282
▁Monday	-11.5284
▁engrav	-11.5284
▁negotiate	-11.5287
▁Bowie	-11.5288
▁merit	-11.5288
▁Minogue	-11.5289
▁platoon	-11.5289
▁devis	-11.5291
▁Caroline	-11.5292
▁entertain	-11.5293
▁Rocket	-11.5295
▁SH	-11.5297
▁atmospheric	-11.5298
▁southward	-11.5301
▁Capitol	-11.5305
▁Zoo	-11.5308
▁Vita	-11.5309
▁270	-11.5311
▁Rule	-11.5312
▁Lithuanian	-11.5312
▁113	-11.5313
▁welcome	-11.5315
rak	-11.5316
▁proud	-11.5319
▁Orthodox	-11.5321
▁dawn	-11.5321
▁Arn	-11.5325
UP	-11.5329
▁funk	-11.5331
lug	-11.5333
ía	-11.5335
atus	-11.5337
▁Allmusic	-11.5337
▁Newfoundland	-11.5337
▁sediment	-11.5337
▁Sierra	-11.5337
▁array	-11.5337
▁drill	-11.534
▁Hag	-11.5349
mund	-11.5349
▁nineteenth	-11.5351
▁Edmonton	-11.5353
ographic	-11.5353
▁Manning	-11.5356
▁utilit	-11.5365
▁deny	-11.5366
▁Beautiful	-11.5369
▁Mirror	-11.5369
▁admission	-11.5369
▁Wool	-11.5372
▁Lynch	-11.5373
▁Industrial	-11.5377
▁thrust	-11.5377
▁conform	-11.5379
▁Palmer	-11.538
bow	-11.538
▁NL	-11.5381
▁Motion	-11.5382
▁lyric	-11.5385
▁Drama	-11.5387
▁Janet	-11.5393
▁gravity	-11.5393
▁soap	-11.5394
▁northwestward	-11.5395
▁Rail	-11.5399
▁batter	-11.54
▁Found	-11.5402
▁AC	-11.5404
▁Arabian	-11.5406
▁Task	-11.5407
▁scorer	-11.5408
▁theoretical	-11.5409
▁besieg	-11.5409
▁discontinued	-11.541
▁examine	-11.5411
▁simulat	-11.5413
▁Nothing	-11.5413
▁prosecution	-11.5414
▁ambitious	-11.5417
▁Continu	-11.5417
▁Perth	-11.5417
▁subtropic	-11.5419
▁photographer	-11.5419
▁receiver	-11.542
▁Hale	-11.5422
▁Strange	-11.5422
▁pond	-11.5423
▁Hammer	-11.5423
▁steady	-11.5426
▁intern	-11.5432
▁reache	-11.5433
urism	-11.5433
▁Ble	-11.5433
▁recount	-11.5433
▁cooperation	-11.5436
▁spann	-11.5438
▁Milk	-11.544
▁smart	-11.5442
▁memorabl	-11.545
▁punish	-11.5455
▁Juda	-11.546
▁necessari	-11.5465
▁Double	-11.5465
▁Fac	-11.5467
▁Nico	-11.5469
▁Mata	-11.5469
▁Bak	-11.5473
▁conjunction	-11.5474
▁Have	-11.5474
▁Helm	-11.5475
▁announc	-11.5476
▁Spartan	-11.5477
▁commit	-11.5478
▁Mull	-11.5481
▁captivity	-11.5482
▁latitude	-11.5482
▁JG	-11.5484
▁symmetr	-11.549
▁Raja	-11.5493
throp	-11.5494
▁slip	-11.5495
▁Santo	-11.5495
▁Consequent	-11.5498
▁Intelligence	-11.5498
teractive	-11.5501
▁synth	-11.5506
onso	-11.5506
▁plagu	-11.5506
▁employer	-11.5509
▁ibn	-11.5516
ín	-11.5516
▁Esp	-11.5518
▁muzzle	-11.5522
▁clerk	-11.5522
▁distort	-11.5523
▁Berkel	-11.5524
▁Doug	-11.5524
▁reconstruct	-11.5524
▁sew	-11.5526
rik	-11.5527
▁evaluat	-11.553
▁Macedonia	-11.5531
▁Plaza	-11.5532
▁Armenia	-11.5537
▁Edwin	-11.554
▁arise	-11.554
▁busy	-11.5541
▁extinction	-11.5541
▁Hind	-11.5541
▁Protection	-11.555
▁Henri	-11.5551
▁magical	-11.5552
ayette	-11.5552
wine	-11.5553
▁reissu	-11.5555
▁quote	-11.5557
▁treasure	-11.556
▁Till	-11.5561
▁Communication	-11.5563
▁eject	-11.5563
▁editing	-11.5563
pul	-11.5564
▁wonderful	-11.5565
▁Calvin	-11.5565
▁certification	-11.5572
▁Wake	-11.5578
▁chess	-11.5581
▁Hank	-11.5582
▁Cruise	-11.5584
▁Survey	-11.5588
▁ornament	-11.5588
▁fu	-11.5591
▁gambl	-11.5594
▁membrane	-11.5596
▁concentrate	-11.5599
▁terrorist	-11.56
ñ	-11.5603
▁Chairman	-11.5604
▁trophy	-11.5604
▁proto	-11.5606
▁Andre	-11.5608
▁108	-11.5612
▁AllMusic	-11.5612
▁disappointment	-11.5616
▁sporting	-11.5619
▁commemorate	-11.5622
▁Combin	-11.5622
▁Busch	-11.5623
▁duet	-11.5624
▁Panther	-11.5624
▁112	-11.5626
▁Cong	-11.5628
▁conven	-11.5629
▁Emily	-11.563
▁mall	-11.5635
▁Cara	-11.5635
ã	-11.5637
▁copyright	-11.5638
▁152	-11.5645
▁anonymous	-11.5648
▁chronicle	-11.5649
▁mod	-11.5651
▁Direct	-11.5654
▁retire	-11.5654
▁Ern	-11.5655
▁Rhine	-11.5657
rative	-11.5658
▁Fil	-11.566
poli	-11.566
gro	-11.5661
▁violin	-11.5662
▁Ji	-11.5669
▁Paramount	-11.567
▁Bloom	-11.5673
▁transformation	-11.5673
▁Alamo	-11.5674
▁oblig	-11.5683
▁Garfield	-11.5684
▁Luis	-11.5684
▁arche	-11.5688
▁delet	-11.569
▁Maurice	-11.5695
▁Messi	-11.5699
worm	-11.5699
▁dug	-11.5701
▁wishe	-11.5702
▁ironclad	-11.5703
▁rumour	-11.5703
▁Online	-11.572
ollegiate	-11.572
▁clause	-11.572
▁equation	-11.5725
▁Crew	-11.5725
law	-11.5726
elfare	-11.5729
▁Junction	-11.5729
▁Arctic	-11.5729
▁Select	-11.573
MS	-11.5731
91	-11.5733
nese	-11.5734
▁thriller	-11.5736
▁Rah	-11.574
▁concession	-11.5745
▁decree	-11.5745
▁backup	-11.5749
▁silence	-11.5751
▁metropolitan	-11.5753
▁Peak	-11.5754
▁Hanna	-11.5755
▁Formula	-11.5755
▁jumping	-11.5756
▁shrine	-11.5761
▁Rom	-11.5762
▁Haiti	-11.5766
▁Crane	-11.5766
▁1874	-11.5766
▁intensify	-11.577
▁erosion	-11.577
▁Tasmania	-11.577
▁1848	-11.5776
▁Windsor	-11.5779
▁specifi	-11.5783
▁align	-11.5785
▁nickel	-11.5786
▁Alien	-11.5787
▁Nicola	-11.5789
▁undergraduate	-11.5795
▁Laura	-11.5799
DT	-11.5799
▁secular	-11.5803
▁Data	-11.5807
EF	-11.5808
fest	-11.5808
▁colonel	-11.5812
▁tennis	-11.5812
▁Dai	-11.5815
▁Louise	-11.5816
SM	-11.5818
▁decommission	-11.582
▁Cour	-11.5822
▁Irving	-11.5828
▁Hopkins	-11.5828
▁compare	-11.5831
▁mourn	-11.5837
▁travers	-11.5838
▁riff	-11.5839
IC	-11.584
NS	-11.5841
lute	-11.5843
▁reservoir	-11.5845
▁plutoni	-11.5845
▁lobby	-11.5845
▁worried	-11.5845
▁Holmes	-11.5845
▁plastic	-11.5846
▁Michelle	-11.5847
▁McA	-11.5852
▁unhapp	-11.5854
53	-11.5854
▁Pierce	-11.5857
▁interval	-11.5858
▁shout	-11.586
▁symbolic	-11.5861
▁Partisan	-11.5862
▁Variet	-11.5862
▁Honour	-11.5863
▁vein	-11.5865
▁conn	-11.5866
▁Corner	-11.5867
▁Axi	-11.587
▁diving	-11.5871
▁boo	-11.5875
ugh	-11.5876
▁affirm	-11.5879
▁resume	-11.5886
▁Argentine	-11.5887
▁disagreement	-11.589
▁Martha	-11.5891
▁cord	-11.5892
▁rape	-11.5893
whil	-11.5895
▁Turnpike	-11.5896
▁vampire	-11.5896
▁Global	-11.5896
▁gland	-11.5896
▁210	-11.5898
▁comparabl	-11.59
lumni	-11.59
▁280	-11.59
▁investor	-11.5903
cles	-11.5904
▁Hour	-11.5905
▁Yet	-11.5911
▁contestant	-11.5913
▁Guatemala	-11.5913
▁tongue	-11.5914
▁Sister	-11.5915
▁Arabic	-11.5915
chester	-11.5916
▁unlock	-11.592
▁reserved	-11.5922
▁Erik	-11.5924
▁FM	-11.5928
▁groove	-11.593
▁Tara	-11.5931
IAA	-11.5931
▁Block	-11.5932
▁Rhode	-11.5932
nock	-11.5933
▁Rhodesia	-11.5933
▁teenage	-11.5935
▁compact	-11.5938
▁Stanford	-11.594
nova	-11.5946
▁geographical	-11.5947
▁Claire	-11.5948
lair	-11.5948
▁Spiel	-11.5949
▁identification	-11.5949
▁luck	-11.5951
anu	-11.5952
51	-11.5955
ê	-11.5955
▁puppet	-11.5955
union	-11.5956
corn	-11.5957
▁item	-11.5958
▁grace	-11.5959
▁Strike	-11.5959
▁Snake	-11.5964
▁choral	-11.5964
▁fixture	-11.5964
▁uncover	-11.5968
rina	-11.5971
▁diagnosed	-11.5971
▁Nichols	-11.5972
▁Gerald	-11.5972
▁Presley	-11.5973
▁oxide	-11.5976
▁seize	-11.5978
▁fox	-11.5979
▁drag	-11.5979
appa	-11.5981
vre	-11.5982
▁145	-11.5984
cover	-11.5984
▁feat	-11.5986
▁Manor	-11.5988
▁instructor	-11.5989
▁SpongeBo	-11.5989
▁electoral	-11.5989
▁reorganiz	-11.5989
▁Moor	-11.5991
▁torture	-11.5994
▁Willis	-11.5996
▁Stefani	-11.5997
▁counterattack	-11.5998
▁Rifle	-11.5998
▁Hip	-11.5999
▁popul	-11.6002
▁hectare	-11.6006
▁pyramid	-11.6006
▁garage	-11.6007
▁naked	-11.6007
▁haul	-11.6013
▁fusion	-11.6021
▁Basin	-11.6022
▁Bulgaria	-11.6023
▁Observer	-11.6023
IT	-11.6024
▁fascinat	-11.6025
▁Paper	-11.6025
▁funnel	-11.6026
▁Stop	-11.6028
nix	-11.6028
▁EU	-11.6028
▁Jennings	-11.6032
▁pirate	-11.6032
▁Recreation	-11.6041
▁glacier	-11.6041
AU	-11.6042
▁lineup	-11.6043
▁Holly	-11.6043
▁Soundtrack	-11.6049
▁Patriot	-11.6049
▁Spy	-11.6051
▁reflection	-11.6052
▁Levi	-11.6053
▁1851	-11.6054
▁Julie	-11.6057
▁pledg	-11.6057
▁Chapman	-11.6058
▁comprehensive	-11.6058
wide	-11.606
AD	-11.6061
▁affiliate	-11.6062
▁Marco	-11.6063
▁luxur	-11.6066
▁terribl	-11.6066
▁bedroom	-11.6067
▁Warwick	-11.607
DS	-11.6072
▁bread	-11.6075
▁AI	-11.6076
▁Vocal	-11.6076
▁Face	-11.6077
▁Delhi	-11.6077
▁Glenn	-11.6078
flu	-11.608
▁lodge	-11.6084
▁Beside	-11.6089
unda	-11.609
▁evacuate	-11.6096
▁Booth	-11.6098
▁lunch	-11.6101
née	-11.6102
▁monkey	-11.6103
▁waterline	-11.6105
▁Broadcasting	-11.6106
▁diverg	-11.6107
▁Rosen	-11.6107
▁quant	-11.6111
ET	-11.6112
▁wit	-11.6113
▁plead	-11.6114
▁cop	-11.6116
▁unofficial	-11.6118
▁embarrass	-11.6118
▁loading	-11.6125
▁mathematical	-11.6127
▁Scholar	-11.6127
▁Universe	-11.6127
▁Bueno	-11.6127
▁Eng	-11.613
▁geolog	-11.613
▁Bil	-11.6135
▁centimetre	-11.6135
▁Quarter	-11.6135
▁Jeffrey	-11.6135
▁hire	-11.6137
▁Castro	-11.6139
▁Singer	-11.6143
▁Southampton	-11.6144
▁await	-11.6144
▁blog	-11.6145
▁Shan	-11.6146
▁announce	-11.6149
▁131	-11.6149
▁Outside	-11.6151
▁Gone	-11.6152
▁disk	-11.6156
▁compensation	-11.6158
▁Alternative	-11.6161
▁cadet	-11.6162
▁Por	-11.6163
▁Dominican	-11.6164
▁Roch	-11.6165
▁Kiss	-11.6169
▁turtle	-11.617
▁sacred	-11.617
▁insect	-11.6172
▁Pilot	-11.6172
▁Mul	-11.6178
▁Fletcher	-11.6179
▁Lightning	-11.618
▁McL	-11.6182
▁Chang	-11.6182
▁masse	-11.6184
▁amazing	-11.6188
▁Berry	-11.6188
▁Sav	-11.6189
▁Hayes	-11.619
group	-11.6191
▁Venus	-11.6194
▁Whig	-11.6194
▁Prussian	-11.6195
▁Mk	-11.6196
▁André	-11.6198
▁reproduc	-11.6204
▁courage	-11.6205
▁Borough	-11.6208
ternet	-11.6209
▁Ode	-11.6211
▁styl	-11.6211
▁inventor	-11.6219
▁Annie	-11.6219
SR	-11.6221
▁Did	-11.6222
beat	-11.6222
▁wagon	-11.6222
▁Shore	-11.6223
▁drainage	-11.6225
▁outline	-11.6225
▁Patton	-11.6231
▁escalat	-11.6231
▁Kenny	-11.6235
▁casual	-11.624
▁lemur	-11.6245
▁Comic	-11.6246
▁choos	-11.6247
▁Ferrari	-11.6249
▁Pirates	-11.6249
▁Bio	-11.6255
ovich	-11.6257
canal	-11.6257
▁denounc	-11.6257
▁dorsal	-11.6257
▁eleventh	-11.6259
▁midnight	-11.626
leigh	-11.6261
▁Jesse	-11.6263
▁Kit	-11.6264
credible	-11.6267
arrell	-11.6269
CP	-11.6269
▁Rath	-11.6272
▁Bolton	-11.6272
▁mosque	-11.6275
vision	-11.6277
▁370	-11.6279
▁Taka	-11.6283
chel	-11.6283
▁Eisenhower	-11.6284
▁coffee	-11.6284
▁upward	-11.6287
▁backward	-11.6289
▁toxic	-11.6291
▁affection	-11.6292
▁Gibb	-11.6293
▁Retriev	-11.6293
bili	-11.6293
▁Mina	-11.6294
▁mistaken	-11.6299
▁Costa	-11.63
▁Artillery	-11.6301
▁expell	-11.6301
▁collid	-11.6301
▁bassist	-11.6305
▁dub	-11.6305
vant	-11.6305
▁refuge	-11.6306
▁unpopular	-11.631
▁sophisticat	-11.631
clus	-11.6312
▁entertaining	-11.6313
uga	-11.6313
▁trustee	-11.6314
▁focuse	-11.6319
▁diary	-11.632
▁contender	-11.632
▁Brave	-11.6321
▁reprint	-11.6324
▁corpse	-11.6324
▁manor	-11.6327
▁Distinguish	-11.6328
▁Rugby	-11.6328
▁Syrian	-11.6336
▁contributor	-11.6338
▁Sometime	-11.634
▁MI	-11.634
▁103	-11.6344
▁bush	-11.6344
together	-11.6345
▁convincing	-11.6345
▁exciting	-11.6345
▁swamp	-11.6345
▁navigat	-11.6349
▁contend	-11.6353
beit	-11.6355
▁foul	-11.6358
▁Truth	-11.6359
▁Rhodesian	-11.636
writer	-11.6362
▁Treasury	-11.6363
▁flashback	-11.6364
▁Lodge	-11.6365
▁Yoko	-11.6366
▁leather	-11.6372
▁Porter	-11.6372
▁Johann	-11.6376
▁synthesizer	-11.6379
▁conscious	-11.6379
▁Rare	-11.638
▁placement	-11.638
▁accurac	-11.6381
▁capabilit	-11.6382
icken	-11.6382
OR	-11.6387
▁Cow	-11.6393
▁mimic	-11.6398
▁bounc	-11.6399
▁Warsaw	-11.6405
▁compress	-11.6408
▁comet	-11.6411
▁promising	-11.6413
▁hanging	-11.6414
▁Lance	-11.6414
▁basement	-11.6414
nthology	-11.6416
▁Ferguson	-11.6416
▁Neptune	-11.6416
▁AIDS	-11.6417
▁teen	-11.6417
▁maker	-11.6417
▁Dodger	-11.6422
▁Mana	-11.6424
▁comput	-11.6424
▁Sul	-11.6428
▁forgot	-11.6428
walk	-11.643
▁limestone	-11.6434
▁Sussex	-11.6434
AL	-11.6436
▁Bangladesh	-11.6443
▁hazard	-11.6443
▁ditch	-11.6447
▁Gaza	-11.6449
▁homage	-11.6452
▁trauma	-11.6452
▁barrack	-11.6453
▁Critic	-11.6454
opo	-11.6461
▁Hispanic	-11.6461
▁Krishna	-11.6461
EA	-11.6464
▁Source	-11.647
▁shooter	-11.6471
▁Columbus	-11.6472
▁cultivat	-11.6474
court	-11.6474
▁tribal	-11.6474
▁Reynolds	-11.6479
▁stomach	-11.6479
▁socialist	-11.6486
▁Taxonom	-11.6488
▁administrator	-11.6488
▁marble	-11.6488
▁goalkeeper	-11.6489
▁fever	-11.6493
▁Carte	-11.6502
▁Rice	-11.6502
▁sanction	-11.6502
▁invention	-11.6505
▁Ober	-11.6505
▁cantata	-11.6506
grove	-11.6508
▁Morton	-11.6508
ucci	-11.6509
▁herald	-11.6513
▁vault	-11.6516
▁presid	-11.6518
▁Avon	-11.6521
▁Scotia	-11.6524
▁honorar	-11.6525
media	-11.6528
600	-11.653
plat	-11.6531
▁Fol	-11.6533
▁Fernand	-11.6533
▁intentional	-11.654
▁pub	-11.6541
▁relieve	-11.6542
▁suburban	-11.6542
▁nobility	-11.6543
▁Franz	-11.6546
▁Lucy	-11.6546
▁seizure	-11.6551
▁Lithuania	-11.6551
▁Munich	-11.6552
▁incorrect	-11.656
▁Citizen	-11.656
▁limitations	-11.6562
▁overlap	-11.6563
amba	-11.6568
▁constituenc	-11.6569
▁shipyard	-11.6569
▁meteor	-11.6569
▁enforcement	-11.6571
▁Beyond	-11.6576
▁blown	-11.6577
▁innovative	-11.6578
▁acknowledge	-11.658
▁detain	-11.658
▁imprisonment	-11.6581
▁mentor	-11.6583
▁Wat	-11.6584
▁twelfth	-11.6587
▁storey	-11.6587
▁fractur	-11.6587
isco	-11.6593
▁wool	-11.6593
▁Easter	-11.6594
▁referendum	-11.6596
▁shale	-11.6598
▁Siege	-11.6599
▁happi	-11.6603
▁Lanka	-11.6605
▁Boyd	-11.6605
▁Municipal	-11.6605
ivers	-11.6606
▁hate	-11.6606
▁suspicion	-11.6614
▁communicate	-11.6617
▁hostage	-11.6617
▁Pel	-11.6619
▁brave	-11.662
▁Direction	-11.662
▁Bau	-11.6622
▁lean	-11.6622
▁Spot	-11.6623
zh	-11.6623
▁Nebraska	-11.6624
▁Hebrew	-11.6624
▁crater	-11.6624
▁Popular	-11.6625
▁torn	-11.6628
▁pill	-11.6636
▁Southeast	-11.6643
▁Khali	-11.6648
€	-11.6651
▁metaphor	-11.6651
▁Dawn	-11.6651
CF	-11.6651
▁parasite	-11.6652
▁compensat	-11.6655
▁260	-11.6656
▁rectang	-11.666
▁Hammond	-11.6661
▁maturity	-11.6661
▁Minne	-11.6666
▁artifact	-11.6669
▁commerce	-11.6669
▁renown	-11.6669
▁determin	-11.6671
▁municipality	-11.6672
▁bold	-11.6673
azi	-11.6674
▁Transit	-11.6676
▁Rhys	-11.6682
▁proven	-11.6683
▁Hear	-11.6684
hom	-11.6685
▁Sunderland	-11.6687
▁Chapter	-11.6687
▁orbital	-11.6687
▁Attack	-11.6687
▁Close	-11.6688
▁Derek	-11.6689
▁Blaine	-11.6692
▁coaster	-11.6695
▁Inde	-11.6695
▁Athenian	-11.6697
▁democrac	-11.6697
▁Volume	-11.6697
▁dictator	-11.6697
▁Hold	-11.6698
▁Eugene	-11.67
▁Lois	-11.6707
▁informal	-11.6707
▁1859	-11.6712
▁variet	-11.6714
▁Salis	-11.6715
▁Beast	-11.6715
▁Plann	-11.6719
▁chicken	-11.672
▁Dart	-11.6721
hana	-11.6722
▁Nord	-11.6722
▁amino	-11.6724
▁invite	-11.6726
▁Linda	-11.673
▁Maple	-11.6743
▁genius	-11.6743
▁Orient	-11.6743
▁Robertson	-11.6743
▁Phi	-11.6743
tica	-11.6745
loo	-11.6746
▁Tele	-11.6747
▁Jin	-11.6748
▁insult	-11.6748
▁Primar	-11.6751
▁virtue	-11.6752
▁parodi	-11.6752
▁balloon	-11.6755
▁constitute	-11.6759
▁rendition	-11.6761
▁diagnosi	-11.6761
▁vector	-11.6761
▁Remix	-11.6762
▁Yoshi	-11.6765
▁Midland	-11.6766
▁angel	-11.6769
▁subsidiary	-11.677
▁efficiency	-11.6779
▁binding	-11.6779
▁fortifi	-11.6782
▁mega	-11.6784
▁Rou	-11.6786
▁atoms	-11.6787
case	-11.6788
▁umpire	-11.6789
▁Joyce	-11.6789
▁Fraser	-11.679
▁preview	-11.6791
▁shade	-11.6792
xtant	-11.6793
▁Canberra	-11.6798
▁triangle	-11.6798
▁Cecil	-11.6798
▁decease	-11.6798
▁Hugo	-11.6799
▁Palestinian	-11.6801
▁protective	-11.6804
croft	-11.6806
▁annoy	-11.6809
▁preservation	-11.6809
▁Lesser	-11.681
▁emphasize	-11.681
▁Rapid	-11.6811
NG	-11.6811
▁sink	-11.6813
▁Smok	-11.6815
▁deficit	-11.6816
▁Winchester	-11.6817
▁correspondence	-11.6817
▁comfort	-11.6821
▁Hamburg	-11.6824
lé	-11.6824
▁pigeon	-11.6826
base	-11.6827
▁cement	-11.6829
▁1845	-11.6832
▁animator	-11.6835
▁Kun	-11.6836
▁tyre	-11.6837
▁societies	-11.684
▁alumin	-11.6843
▁alleg	-11.6846
▁acute	-11.6847
ctive	-11.6847
▁Danub	-11.6849
PO	-11.685
▁Philippine	-11.6853
▁Quinn	-11.6854
▁mouse	-11.6854
ncy	-11.6854
▁117	-11.6855
▁summary	-11.6855
▁Ré	-11.6857
▁evolutionar	-11.6859
▁powder	-11.6862
▁Brighton	-11.6863
▁Speed	-11.6865
▁Jenna	-11.6868
▁Willie	-11.6869
▁dig	-11.687
dorf	-11.687
▁Kitt	-11.687
DF	-11.6872
▁axis	-11.6873
▁quad	-11.6873
▁Complete	-11.6874
▁adoption	-11.6877
gui	-11.6885
▁Lip	-11.689
▁safely	-11.6899
▁contrary	-11.69
▁fraud	-11.69
▁collaborator	-11.6903
▁Timberlake	-11.691
▁amend	-11.6911
▁sexuality	-11.6913
▁breakdown	-11.6913
▁indication	-11.6914
burgh	-11.6915
▁Joel	-11.6917
▁HIV	-11.6919
▁Holocaust	-11.6919
▁interface	-11.692
▁swim	-11.6923
hiro	-11.6928
‘	-11.6928
▁Assistant	-11.6928
▁vegetable	-11.6928
▁Soldier	-11.6928
▁relax	-11.6928
▁Wir	-11.6931
▁Heat	-11.6936
▁trunk	-11.6937
▁Lenin	-11.6937
▁emigrat	-11.6938
▁butterfl	-11.6938
▁degrad	-11.6938
92	-11.6942
▁undis	-11.6946
▁Alexandria	-11.6946
▁Omaha	-11.6947
▁voluntar	-11.6947
▁Racing	-11.6948
▁spine	-11.6948
▁Cock	-11.6954
lik	-11.6956
▁Cambodia	-11.6956
▁heaven	-11.6957
▁Giant	-11.6957
▁excavat	-11.696
▁Petersburg	-11.696
▁Witch	-11.6964
ô	-11.6966
▁excited	-11.6966
▁Gwen	-11.6971
▁Karen	-11.6972
▁availability	-11.6975
▁Portsmouth	-11.6975
scape	-11.6981
▁Norton	-11.6984
▁scream	-11.6985
▁Challenge	-11.6985
▁Bailey	-11.6985
▁harass	-11.6985
▁McCl	-11.6985
▁1200	-11.6991
▁brass	-11.6994
▁Southwest	-11.6994
yama	-11.7001
ibi	-11.7001
▁undertake	-11.7002
▁Information	-11.7004
▁rode	-11.7008
▁Wolverine	-11.7013
▁nominal	-11.7014
▁Chick	-11.7015
▁Toward	-11.7018
▁Kemp	-11.7021
▁contaminat	-11.7022
stronomical	-11.7022
▁Rip	-11.7028
sexual	-11.7031
▁calendar	-11.7032
▁Present	-11.7033
▁Singh	-11.7033
▁Wigg	-11.7034
▁fantastic	-11.7036
▁Aircraft	-11.7038
izz	-11.7041
▁Mach	-11.7045
▁Locat	-11.7047
▁hymn	-11.7051
▁Tank	-11.7052
▁Vick	-11.7053
▁Elliott	-11.7053
pati	-11.7055
▁striker	-11.7055
iform	-11.7056
▁adviser	-11.7059
▁Fann	-11.7059
▁endangered	-11.7061
▁veto	-11.7061
▁Forbes	-11.7062
assett	-11.7064
▁185	-11.7066
▁Compar	-11.7067
▁Feel	-11.7069
▁Cave	-11.707
▁Sicily	-11.707
▁Duchess	-11.7071
▁citizenship	-11.7071
osphere	-11.7072
▁Dayton	-11.7073
▁relegat	-11.7074
▁welcom	-11.7077
▁Webber	-11.7078
▁Given	-11.7079
▁determination	-11.7084
▁concluding	-11.7089
▁Tab	-11.709
▁Change	-11.7092
▁obligation	-11.7094
▁dealer	-11.7094
▁Maj	-11.7094
▁plug	-11.7096
▁poisoning	-11.7097
▁Exc	-11.7098
▁ESPN	-11.7098
▁plaque	-11.7098
▁Wend	-11.7099
▁McKe	-11.7099
▁miner	-11.7099
▁reliabl	-11.7103
▁Tsu	-11.7103
▁comedian	-11.7104
▁penn	-11.7104
▁Cran	-11.7106
▁Hoffman	-11.7108
▁Austen	-11.7108
PD	-11.7109
▁Fiction	-11.711
▁trilog	-11.7112
▁televis	-11.7112
PP	-11.7115
action	-11.7116
▁Scandinavia	-11.7118
▁gospel	-11.7118
WR	-11.712
▁SMS	-11.7124
▁1820	-11.7126
▁generator	-11.7126
hop	-11.7128
▁Durham	-11.713
▁Luck	-11.7134
▁countryside	-11.7135
▁sympathetic	-11.7137
▁Pepper	-11.7139
acious	-11.7142
▁Pier	-11.7145
▁Wick	-11.7146
▁Gardner	-11.7146
▁converg	-11.7147
▁Woll	-11.7155
▁Mumbai	-11.7156
▁Fir	-11.7159
▁Trial	-11.716
▁dose	-11.7165
uxiliary	-11.7165
▁terrestrial	-11.7165
▁eccentric	-11.7165
izer	-11.7167
▁merge	-11.7167
ragg	-11.7169
▁undermin	-11.717
▁114	-11.7171
▁alteration	-11.7172
▁primitive	-11.7175
▁maritime	-11.7176
lateral	-11.7177
▁workshop	-11.7177
▁Congo	-11.718
▁Than	-11.718
▁121	-11.718
stuck	-11.7181
▁retir	-11.7183
borg	-11.7187
▁Maur	-11.7188
▁Meg	-11.7189
▁dominan	-11.7192
▁ceremonial	-11.7192
▁wrapp	-11.7194
▁Lynn	-11.7196
▁Cycl	-11.7203
▁Crash	-11.7204
▁reservation	-11.7204
▁Jazz	-11.7205
▁favourabl	-11.7211
▁Bahamas	-11.7214
▁coral	-11.7214
▁slipp	-11.7216
▁implementation	-11.7216
▁Peru	-11.7219
▁superstructure	-11.7223
▁Prussia	-11.7225
▁dump	-11.7229
hab	-11.7232
▁Neo	-11.7235
▁Monica	-11.7235
▁Commodore	-11.7244
▁Savage	-11.7246
▁Lyon	-11.7246
▁oz	-11.7246
▁Wang	-11.7247
▁Meet	-11.7247
▁conserv	-11.7248
▁Ada	-11.7251
▁semifinal	-11.7252
▁Pearson	-11.7252
▁Path	-11.7254
▁northeastward	-11.7255
▁narrator	-11.7261
▁Distribution	-11.7262
lund	-11.7262
▁impair	-11.7264
position	-11.7264
▁slide	-11.7265
▁Tampa	-11.7266
▁resent	-11.7266
▁1854	-11.7268
▁Lopez	-11.7272
▁exaggerat	-11.7272
▁Cruz	-11.7273
▁Pil	-11.7275
▁consultant	-11.7276
▁advertise	-11.7279
▁Saw	-11.728
▁jewel	-11.7282
▁Rovers	-11.7283
▁1857	-11.7289
▁frustrated	-11.7291
▁Ramon	-11.7291
bourne	-11.7298
▁Angela	-11.73
▁Concord	-11.7301
▁beneficia	-11.7301
▁distress	-11.7303
▁Shawn	-11.7305
▁IX	-11.7306
▁CM	-11.7307
▁Guest	-11.7307
▁Jose	-11.7308
▁clever	-11.7308
▁Iraqi	-11.7311
▁submission	-11.7311
▁NME	-11.7313
▁motivation	-11.7315
▁Bul	-11.7316
▁Gamepla	-11.7319
▁prominence	-11.732
▁augment	-11.732
▁Newark	-11.732
▁Private	-11.7322
▁ecosystem	-11.733
▁precursor	-11.733
▁vent	-11.733
▁shortened	-11.7334
▁realign	-11.734
▁Wong	-11.7342
▁Diana	-11.7348
▁320	-11.7348
▁McMahon	-11.735
▁democratic	-11.735
▁overthrow	-11.735
▁thermal	-11.735
▁polluti	-11.7354
▁Producer	-11.7359
▁contingent	-11.7359
▁flourish	-11.736
▁businessman	-11.736
cake	-11.7368
▁immigration	-11.7371
iah	-11.7375
▁Kaz	-11.7376
▁gym	-11.738
self	-11.738
bell	-11.7383
▁Joshua	-11.7389
▁Methodist	-11.7401
▁vest	-11.7401
▁Holden	-11.7403
elda	-11.7405
▁Tall	-11.7405
course	-11.7407
▁enforc	-11.7407
▁Environmental	-11.7408
▁imagination	-11.7408
▁Diệm	-11.7408
▁chant	-11.7408
▁farmland	-11.7412
▁Rise	-11.7413
▁buses	-11.7414
spiration	-11.7415
valu	-11.7417
▁burden	-11.7418
▁badge	-11.7423
PI	-11.7424
▁Pix	-11.7426
▁XX	-11.7428
eaten	-11.743
▁Sei	-11.743
▁McN	-11.7431
▁prediction	-11.7432
▁Chance	-11.7439
▁outlets	-11.744
▁inspection	-11.7441
▁psycho	-11.7443
▁displacement	-11.7449
▁derivative	-11.745
▁Mit	-11.7452
▁systematic	-11.7455
▁Duck	-11.7455
▁worsen	-11.7459
▁Libya	-11.7461
▁Georgian	-11.7465
▁superhero	-11.7468
▁recreational	-11.7468
▁Claude	-11.7468
▁restart	-11.7472
▁graduation	-11.7474
▁Elder	-11.7477
α	-11.7478
▁Era	-11.748
▁owl	-11.7481
▁Ivy	-11.7483
▁maxi	-11.7486
oper	-11.7486
ière	-11.7486
▁Phantom	-11.7487
▁compartment	-11.7487
▁overhaul	-11.7487
cephal	-11.7489
▁Persona	-11.749
▁Dana	-11.7492
▁pend	-11.7495
▁Publication	-11.7495
▁Batt	-11.7495
▁banner	-11.7495
▁Stafford	-11.7497
plan	-11.75
▁morale	-11.7507
▁Gospel	-11.7507
▁Spitfire	-11.7507
DI	-11.7513
▁Boo	-11.7515
vocation	-11.7516
▁Produc	-11.7517
▁surf	-11.7517
▁Knowles	-11.7518
▁Teen	-11.7525
▁median	-11.7527
▁Sergeant	-11.7527
▁altar	-11.7529
▁Til	-11.7535
▁Kingston	-11.7537
▁Immediate	-11.7537
▁enthusiasm	-11.7537
▁Ashley	-11.7538
▁aspir	-11.7539
▁Hannah	-11.7542
▁characteris	-11.7544
▁Denis	-11.7544
▁profession	-11.7547
oco	-11.7551
ritten	-11.7555
▁brush	-11.7557
▁illustrate	-11.756
▁brake	-11.7563
▁Wide	-11.7566
▁ideolog	-11.7566
▁glider	-11.7567
▁Adriatic	-11.7567
▁cancellation	-11.7567
▁breakthrough	-11.7567
▁registration	-11.757
CO	-11.7571
woman	-11.7573
▁landslide	-11.7577
▁Arc	-11.7578
▁Barber	-11.7578
▁1858	-11.7584
▁propell	-11.7584
▁suite	-11.7585
▁hub	-11.7586
▁abolition	-11.7587
▁Wheel	-11.7594
▁Jew	-11.7596
▁Antille	-11.7598
▁dull	-11.7598
▁Hung	-11.7598
▁Use	-11.7598
Donnell	-11.7599
wald	-11.7599
▁Yang	-11.7601
▁Colombia	-11.7605
screen	-11.7606
▁isolation	-11.7606
▁orientation	-11.7606
▁Dame	-11.7607
▁spectrum	-11.7607
▁stereotype	-11.7607
▁dedication	-11.7609
▁Dover	-11.761
▁Sugar	-11.7612
▁Table	-11.7612
▁retro	-11.7613
▁showcase	-11.7613
▁bias	-11.7614
▁swell	-11.7615
▁abrupt	-11.7617
▁Interior	-11.7617
▁Kot	-11.7618
▁Literar	-11.7618
▁subdu	-11.7619
▁Individual	-11.7627
▁patriot	-11.7627
▁Haven	-11.7629
▁Extra	-11.763
▁ballet	-11.7631
▁Broad	-11.7631
▁corrupt	-11.7632
▁contemporari	-11.7637
▁Bahrain	-11.7637
▁Medicine	-11.7638
▁innocent	-11.7641
▁Berk	-11.7643
▁Fringe	-11.7648
▁Wheeler	-11.7651
apple	-11.7651
▁pour	-11.7651
drawn	-11.7655
▁retrieve	-11.7657
▁Betty	-11.7658
▁vow	-11.766
▁bred	-11.7662
▁Allan	-11.7663
▁Mika	-11.7663
▁alloy	-11.7665
▁swift	-11.7668
▁Amazon	-11.7668
▁sensation	-11.7668
PM	-11.7669
▁Gat	-11.7669
▁kidney	-11.7669
▁sandstone	-11.7669
▁Pike	-11.7672
▁Julia	-11.7673
▁Hollow	-11.7673
shima	-11.7674
▁1812	-11.7674
▁Majest	-11.7675
▁earl	-11.7676
▁spiral	-11.7678
▁Balkan	-11.7679
▁SAS	-11.7683
▁Reid	-11.7684
▁Basil	-11.7684
▁constellation	-11.7688
▁unwilling	-11.7688
▁smuggl	-11.7688
▁entries	-11.7688
▁intimate	-11.7688
▁dissent	-11.7688
▁ministr	-11.769
▁Left	-11.7699
ywhere	-11.7699
▁Presidential	-11.7706
▁technologies	-11.7708
▁550	-11.7709
▁barr	-11.7718
▁Tibet	-11.7719
▁persona	-11.7719
▁revolve	-11.7725
▁Rutherford	-11.7728
▁plumage	-11.7728
▁XIII	-11.7729
▁Agent	-11.773
▁haunt	-11.7731
▁antibod	-11.7731
▁inhibit	-11.7733
▁Spa	-11.7733
▁Speaker	-11.7735
▁barn	-11.7735
▁climax	-11.7738
▁grandmother	-11.7738
▁nitrogen	-11.7738
▁Collect	-11.7744
▁Event	-11.7746
▁depriv	-11.7749
▁medley	-11.7751
olithic	-11.7753
▁quantity	-11.7755
▁1849	-11.7757
▁refusal	-11.7758
▁Sebastian	-11.7759
▁Visual	-11.7759
▁demolition	-11.7759
▁devotion	-11.7759
▁illuminat	-11.7759
▁plaza	-11.7759
▁jacket	-11.7759
rash	-11.776
▁118	-11.776
▁digit	-11.776
▁Wilm	-11.776
▁Rican	-11.7762
guel	-11.7767
▁combin	-11.7767
▁Donna	-11.7768
▁Diet	-11.7768
▁offend	-11.7769
▁Afterwards	-11.777
▁Underground	-11.777
▁reasonable	-11.7771
▁prose	-11.7771
▁rubber	-11.7771
▁forbidd	-11.7772
▁Brock	-11.7772
▁insight	-11.7775
▁Halifax	-11.7779
▁Oppenheim	-11.7779
▁magnet	-11.7779
▁Hutton	-11.7779
▁Crazy	-11.778
▁Faith	-11.7781
▁Ref	-11.7782
▁flie	-11.7783
▁chip	-11.7786
▁Giro	-11.7786
▁Georg	-11.7789
▁assumption	-11.7789
▁swallow	-11.7789
▁Horror	-11.7789
▁generic	-11.7791
▁assign	-11.7791
▁Metroid	-11.7794
idian	-11.7799
▁inadequate	-11.78
▁Friend	-11.7801
tow	-11.7804
▁107	-11.7809
▁Dynasty	-11.781
mut	-11.7811
▁occurrence	-11.7811
▁casemate	-11.7812
otype	-11.7814
▁Sharon	-11.7814
▁Moh	-11.7818
▁offence	-11.7819
▁Thailand	-11.782
▁inferior	-11.782
▁freestyle	-11.7821
▁Wan	-11.7821
▁philosophical	-11.7823
▁Drew	-11.7824
▁Cage	-11.7827
▁Cope	-11.7831
▁sitcom	-11.7833
▁Folk	-11.7835
▁dim	-11.7838
▁dwelling	-11.7841
▁hamper	-11.7841
▁patroll	-11.7842
▁Jain	-11.7845
divid	-11.7845
▁Freeway	-11.7846
▁explorer	-11.785
▁Level	-11.7851
▁WrestleMania	-11.7851
▁stabiliz	-11.7851
▁Vaugh	-11.7854
nick	-11.7856
▁Broke	-11.7856
▁desir	-11.7861
▁Trafford	-11.7861
▁Wizard	-11.7861
▁embass	-11.7861
▁recaptur	-11.7861
▁enforce	-11.7863
▁Saudi	-11.7865
▁Liu	-11.7869
▁Discovery	-11.7872
▁revelation	-11.7872
▁sovereignt	-11.7872
▁Archer	-11.7875
Craft	-11.7879
▁submit	-11.788
beck	-11.788
▁ARIA	-11.7882
▁Featur	-11.7882
▁Erie	-11.7883
▁timing	-11.7885
nica	-11.7888
▁discard	-11.789
▁criteria	-11.7892
▁prolong	-11.7894
▁stimulat	-11.7895
▁leap	-11.7896
▁bug	-11.7899
▁Cott	-11.7905
▁bite	-11.7906
▁Bradford	-11.7907
▁digest	-11.7909
▁Wade	-11.7911
▁supervisor	-11.7912
▁330	-11.7913
version	-11.7919
▁gale	-11.792
▁sac	-11.7922
▁Norwich	-11.7924
▁Title	-11.7926
▁clinical	-11.7932
▁trumpet	-11.7934
▁deplet	-11.7934
▁marginal	-11.7942
▁amid	-11.7942
▁finalist	-11.7942
▁Jessica	-11.7944
▁helmet	-11.7944
▁warehouse	-11.7944
▁hometown	-11.7944
▁faithful	-11.7948
▁Jamie	-11.7951
▁projection	-11.7953
▁Penguin	-11.7954
▁Stewie	-11.7954
▁sap	-11.7956
▁Gould	-11.7957
▁thank	-11.7958
▁stripe	-11.796
▁Tina	-11.7963
▁Myster	-11.7964
▁Negro	-11.7966
▁Fitz	-11.7968
child	-11.7971
▁peripher	-11.7975
▁robber	-11.7976
▁Brittan	-11.7976
gia	-11.7977
▁Echo	-11.7983
▁Diane	-11.7986
▁panic	-11.7988
▁orphan	-11.7996
▁cage	-11.7996
▁substitut	-11.7997
▁Lab	-11.7997
▁recess	-11.7998
▁tired	-11.8
▁Rochester	-11.8008
▁discrimination	-11.8009
orial	-11.8011
ascent	-11.8012
▁116	-11.8012
▁infra	-11.8013
▁facilitate	-11.8013
OL	-11.8014
▁eager	-11.8017
▁interrogat	-11.8017
▁Away	-11.8019
▁sparse	-11.8023
rchipelago	-11.8027
▁continual	-11.8033
uction	-11.8034
▁Gustav	-11.8038
▁pretend	-11.8038
▁Tel	-11.8039
MT	-11.8043
FR	-11.8046
▁128	-11.8048
▁Kro	-11.8049
▁hitter	-11.8054
▁Joker	-11.8055
▁Canadiens	-11.8059
▁calci	-11.8059
RE	-11.8067
▁Hick	-11.8068
▁consort	-11.8069
▁Terri	-11.807
▁202	-11.807
▁cease	-11.8073
▁lens	-11.8074
▁Kai	-11.8077
▁Weber	-11.8079
▁dolphin	-11.808
▁automobile	-11.808
▁tutor	-11.808
abil	-11.8081
▁Hokie	-11.8083
▁Carpenter	-11.809
▁Brunswick	-11.809
▁650	-11.8092
▁archaeologist	-11.8096
▁Cir	-11.8096
▁iconic	-11.8099
▁jungle	-11.8101
▁Sleep	-11.8101
▁Happy	-11.8101
▁logistic	-11.8102
▁fence	-11.8104
▁abstract	-11.8112
▁uncertaint	-11.8112
ozo	-11.8116
▁Full	-11.8119
▁Farmer	-11.8119
▁Emine	-11.8119
▁chronic	-11.812
▁Thorp	-11.812
▁inevitabl	-11.8122
cellular	-11.8123
▁Cornell	-11.8126
▁physicist	-11.8128
▁CIA	-11.8132
▁Structure	-11.8132
▁gesture	-11.8133
▁nationwide	-11.8133
▁mortality	-11.8135
▁1852	-11.8136
▁Behind	-11.8137
▁Reviewer	-11.8139
▁annex	-11.814
▁lib	-11.8141
▁Preparation	-11.8143
▁confiscat	-11.8143
▁Wyatt	-11.8143
▁Height	-11.8145
▁Psycho	-11.8146
Neill	-11.8148
▁Cohen	-11.8148
otta	-11.8149
▁Fine	-11.815
ž	-11.8154
▁purple	-11.8154
▁Anders	-11.8154
▁geo	-11.8162
▁sovereign	-11.8163
▁bog	-11.8164
▁unrest	-11.8164
▁spontaneous	-11.8164
▁medication	-11.8164
▁tiger	-11.8165
▁radioactive	-11.8166
arrington	-11.8168
▁disclos	-11.8169
▁Wait	-11.817
▁Hindi	-11.8171
▁destin	-11.8172
▁humid	-11.8175
▁stunn	-11.8175
ummer	-11.8177
sistence	-11.8177
▁Brett	-11.8178
▁mess	-11.8179
▁Color	-11.8181
▁Clear	-11.8181
▁Better	-11.8184
▁Anglican	-11.8186
▁Thursday	-11.8186
▁deadline	-11.8186
▁Nikola	-11.8186
▁lament	-11.8193
vik	-11.8194
▁chick	-11.8194
▁colonist	-11.8196
▁Perfect	-11.8196
▁Expo	-11.8197
▁indoor	-11.8197
▁Beta	-11.8208
▁remnant	-11.8213
Reilly	-11.8213
▁1847	-11.8214
TO	-11.8217
▁perimeter	-11.8217
▁polish	-11.8218
ruff	-11.8219
▁particle	-11.8224
▁mutation	-11.8226
▁Pleas	-11.8227
▁apprentice	-11.8228
▁goaltender	-11.8228
▁Annual	-11.8228
heart	-11.8229
▁reproduction	-11.8229
▁palm	-11.823
▁revert	-11.8231
▁accomplishment	-11.8232
▁Volunteer	-11.8239
▁marker	-11.824
▁prim	-11.8241
▁ACC	-11.8242
▁fog	-11.8246
dental	-11.8246
organ	-11.8247
idge	-11.8248
▁Harbour	-11.825
▁monsoon	-11.825
▁foster	-11.825
▁lamp	-11.8251
▁capability	-11.8252
▁Flash	-11.8256
▁spar	-11.8256
▁denomination	-11.826
▁Technical	-11.826
▁Devi	-11.8262
SL	-11.8262
▁integr	-11.8267
▁Memor	-11.8271
▁Milton	-11.8271
▁sensor	-11.8271
▁skeptic	-11.8273
brand	-11.8273
▁Louisville	-11.8279
▁melodi	-11.8281
▁Nolan	-11.8281
▁sparrow	-11.8284
▁revolv	-11.8285
▁Recent	-11.8287
ID	-11.8289
▁rip	-11.8292
▁Concern	-11.8292
▁reconcile	-11.8292
▁Lexington	-11.8293
terim	-11.8295
gren	-11.8295
ocene	-11.8296
▁Patter	-11.8296
▁poetic	-11.8299
▁Match	-11.8299
▁gravel	-11.8301
ç	-11.8303
▁deficien	-11.8303
▁drunk	-11.8308
▁1855	-11.831
▁Dot	-11.8311
▁princess	-11.8312
▁Lebanon	-11.8314
▁hollow	-11.8314
▁gorge	-11.8314
▁lady	-11.8316
▁freez	-11.8317
▁1846	-11.8321
▁abundance	-11.8325
▁Beech	-11.8326
▁cricketer	-11.8328
▁Edi	-11.8329
▁Gunn	-11.833
GM	-11.8332
▁periodical	-11.8333
▁Damascus	-11.8335
▁analyst	-11.8336
▁Malaya	-11.8336
▁Von	-11.8337
▁Clare	-11.8343
▁Robb	-11.8344
▁coronation	-11.8346
▁Falcon	-11.8346
▁cottage	-11.8346
▁gase	-11.8347
▁Hyde	-11.8351
▁alternat	-11.8352
▁Humphrey	-11.8357
▁viral	-11.8357
▁elegan	-11.8357
oggett	-11.8358
KO	-11.8361
▁Naka	-11.8361
▁Lum	-11.8362
Cube	-11.8365
Š	-11.8368
▁offspring	-11.8368
▁skirmish	-11.8368
▁syndicat	-11.8368
▁humour	-11.8368
▁stump	-11.8368
▁Rupert	-11.8368
▁Lombard	-11.8368
▁vertebra	-11.8369
▁Verde	-11.8371
▁bail	-11.8373
▁Abd	-11.8374
word	-11.8378
▁enterprise	-11.8379
▁Hastings	-11.8379
▁Bavaria	-11.8379
▁resource	-11.838
▁pat	-11.8381
▁rid	-11.8381
ecology	-11.8381
▁concurrenc	-11.8388
▁Hundred	-11.839
▁assured	-11.8391
▁IU	-11.8391
▁Speak	-11.8397
▁barge	-11.8397
▁unconscious	-11.84
▁devil	-11.8401
▁miniature	-11.8411
▁Stockholm	-11.8411
▁Eva	-11.8418
wave	-11.8421
▁ingredient	-11.8422
▁phenomena	-11.8422
▁victorious	-11.8422
▁dioxide	-11.8423
▁Hampton	-11.8424
▁Hou	-11.8424
▁resemblance	-11.8425
▁Kiel	-11.8429
▁Socialist	-11.8432
▁Chetnik	-11.8433
▁1832	-11.8438
▁diesel	-11.8439
▁broadside	-11.8442
IP	-11.8444
▁definitive	-11.8444
▁Mercia	-11.8446
▁tam	-11.8451
▁Azerbaijan	-11.8455
▁Wave	-11.8456
pil	-11.8459
▁contractor	-11.8459
▁Hob	-11.8459
▁Jur	-11.8462
rez	-11.8463
▁Halloween	-11.8466
ynopsis	-11.8466
▁Safety	-11.8477
▁regenerat	-11.8477
▁ankle	-11.8478
▁Ox	-11.8481
opping	-11.8482
▁Cover	-11.8484
▁practic	-11.8485
▁Covenant	-11.8488
▁Sanskrit	-11.8488
▁bicycle	-11.8488
▁reddish	-11.8488
▁Specie	-11.8488
▁feedback	-11.8489
▁Albanian	-11.8491
▁intervene	-11.8494
▁Keep	-11.8496
▁Vera	-11.8498
▁Language	-11.8499
▁pagan	-11.8499
▁oath	-11.85
▁Gerr	-11.8501
▁fiber	-11.8503
▁persistent	-11.8503
▁Pill	-11.8503
▁Shakir	-11.8505
▁crossover	-11.8506
▁doll	-11.8506
▁Thirty	-11.851
▁accusations	-11.8511
▁dismissal	-11.8514
▁hyp	-11.8515
▁Archive	-11.8515
script	-11.8521
▁Jag	-11.8527
▁Fuji	-11.853
▁Fuller	-11.8531
▁Buckingham	-11.8532
▁Vir	-11.8533
opter	-11.8534
▁livestock	-11.8535
▁reply	-11.8535
▁Mona	-11.8538
CW	-11.8539
LI	-11.854
▁labell	-11.854
▁intensive	-11.8543
▁consume	-11.8546
▁humorous	-11.8547
▁Sz	-11.8553
▁cooler	-11.856
▁Brisbane	-11.8565
▁abbey	-11.8565
▁hiatus	-11.8565
dining	-11.8569
▁temper	-11.857
▁Cedar	-11.857
▁Cardinal	-11.8572
▁Dru	-11.8576
GB	-11.8576
▁empower	-11.8577
acti	-11.858
▁surpass	-11.8583
▁eighteenth	-11.8583
▁Approximate	-11.8587
▁Scientific	-11.8587
▁reinstat	-11.8587
▁cheek	-11.8587
▁sync	-11.8588
▁Animation	-11.8591
▁camouflage	-11.8598
▁Election	-11.8598
▁smash	-11.8598
▁omitt	-11.8598
▁rever	-11.8599
▁Mori	-11.8602
▁posthumously	-11.8605
▁remaster	-11.8607
▁backdrop	-11.8609
▁138	-11.8612
lich	-11.8612
▁pride	-11.8613
▁EMI	-11.8614
▁lend	-11.8614
▁Gear	-11.8616
lith	-11.8616
liberation	-11.8619
▁elimination	-11.8619
▁heroine	-11.862
▁sleeve	-11.862
kawa	-11.862
fused	-11.8629
▁Academic	-11.8631
▁resurrect	-11.8631
▁Adolf	-11.8631
▁degenerat	-11.8631
▁Wildlife	-11.8631
▁Give	-11.8634
▁penalt	-11.8635
centric	-11.8638
▁manoeuvr	-11.8642
▁dramatical	-11.8645
▁Beatty	-11.8647
▁dispos	-11.8647
▁Shackleton	-11.8653
▁profound	-11.8654
▁Oka	-11.8657
midst	-11.8664
▁1853	-11.8672
▁Northumbria	-11.8676
▁guerrilla	-11.8676
▁recipe	-11.8676
▁Raider	-11.8676
▁Naga	-11.8679
▁spike	-11.8681
▁renovat	-11.8686
▁cruel	-11.8687
▁replay	-11.869
▁Clem	-11.8692
▁Winston	-11.8692
MI	-11.8693
▁Stern	-11.8695
▁elevator	-11.8697
▁cub	-11.8701
▁Juliet	-11.8704
▁Yale	-11.8705
▁Experiment	-11.8709
▁stanza	-11.8709
▁metallic	-11.8709
▁141	-11.871
mission	-11.871
▁grip	-11.8714
▁binar	-11.8715
▁calculation	-11.8717
▁boxes	-11.8718
▁catalogue	-11.8724
▁loot	-11.8726
orium	-11.8729
hang	-11.8729
▁scratch	-11.8732
▁statistical	-11.8732
▁Orlando	-11.8732
▁tenant	-11.8732
▁molar	-11.8732
▁stalk	-11.8732
▁melodic	-11.8732
▁thrill	-11.8734
▁Charter	-11.8739
▁makeup	-11.8742
▁König	-11.8743
▁pistol	-11.8743
▁surgeon	-11.8744
▁Bend	-11.8745
licia	-11.8748
▁jealous	-11.8754
▁thread	-11.8754
▁Kapoor	-11.8754
▁froze	-11.8755
SW	-11.8755
▁Numero	-11.8755
▁curricul	-11.8756
▁abortion	-11.8759
▁clone	-11.876
▁cure	-11.876
▁Leave	-11.8763
▁wildlife	-11.8766
vell	-11.8768
▁Kind	-11.8768
▁Investigation	-11.878
zzo	-11.8783
▁lineage	-11.8786
▁module	-11.8788
▁Bergen	-11.8793
▁Tomb	-11.8795
stronomy	-11.8799
▁Seymour	-11.8799
▁hierarch	-11.8799
▁Dexter	-11.8799
▁adverse	-11.88
▁judg	-11.8803
▁Dub	-11.8809
girl	-11.881
▁Slam	-11.8811
▁Vla	-11.8813
▁complaint	-11.8815
▁Baja	-11.8821
ør	-11.8822
▁unprecedented	-11.8822
▁solitar	-11.8822
▁119	-11.8823
▁Publish	-11.8823
▁Ride	-11.8827
▁microscop	-11.8827
▁Cherry	-11.8827
▁1841	-11.8828
▁Clu	-11.8829
▁testifie	-11.883
▁Leopold	-11.8833
▁fundrais	-11.8833
▁zinc	-11.8833
▁Armour	-11.8837
▁Believe	-11.8838
▁Crisi	-11.8839
▁Oakland	-11.8839
▁grenade	-11.8845
▁Dixon	-11.8845
▁shake	-11.8846
▁Smart	-11.8846
▁framework	-11.8847
▁Wesley	-11.8847
omys	-11.8852
▁Coalition	-11.8856
▁comparative	-11.8857
▁Knox	-11.8857
▁listeners	-11.8859
▁Grow	-11.8859
raja	-11.8863
▁Loch	-11.8863
▁comeback	-11.8865
gau	-11.8867
▁brood	-11.8867
▁liberat	-11.887
▁bike	-11.887
aten	-11.887
▁Massa	-11.8877
▁certificate	-11.8879
▁Albion	-11.8879
▁courtyard	-11.8879
asco	-11.888
▁Gab	-11.8881
▁republic	-11.8886
▁Previous	-11.889
▁Hemingway	-11.889
▁exempt	-11.889
▁disapprov	-11.889
▁Shane	-11.8892
▁Campus	-11.8893
▁cinematic	-11.8894
▁Belgrade	-11.8902
▁reclaim	-11.8902
▁ranch	-11.8903
▁hypha	-11.8903
▁bark	-11.8908
▁dragg	-11.8909
▁Arrow	-11.891
▁Welles	-11.891
▁Magnus	-11.8912
escu	-11.8912
▁Sinatra	-11.8913
▁Saga	-11.8914
▁optical	-11.8915
▁Carroll	-11.8916
phen	-11.8918
▁1844	-11.892
▁befriend	-11.8925
▁smell	-11.8925
▁controll	-11.8926
owski	-11.8926
NR	-11.8927
▁Galli	-11.8928
▁Troop	-11.8929
▁Dunde	-11.8929
▁Belarus	-11.8936
continental	-11.8936
▁clad	-11.894
▁Tsar	-11.8944
▁Hun	-11.8946
▁urging	-11.8947
HP	-11.8948
▁assassinat	-11.8948
▁novelist	-11.8951
▁Schw	-11.8952
▁patronage	-11.8952
▁Venezuela	-11.8959
▁frustration	-11.8959
▁satire	-11.896
▁nitr	-11.8963
▁Blade	-11.8969
▁dignit	-11.8971
▁confession	-11.8973
▁gallon	-11.8976
▁overnight	-11.8978
▁constitut	-11.8979
assa	-11.8979
▁trainer	-11.8981
▁Erin	-11.8986
▁Duch	-11.8988
▁integration	-11.8988
▁Wilder	-11.8991
▁Yar	-11.8992
▁Kannada	-11.8993
▁supernatural	-11.8993
▁crusade	-11.8994
▁pianist	-11.8994
▁Territori	-11.8994
▁weird	-11.8994
▁Spur	-11.8994
▁Kahn	-11.8998
▁tire	-11.8998
▁Pap	-11.9005
▁Dawson	-11.9005
▁maiden	-11.9005
▁stiff	-11.9006
▁Estate	-11.9008
▁cheat	-11.9012
▁hinder	-11.9015
▁Pradesh	-11.9017
▁chao	-11.9021
▁integral	-11.9021
▁Getty	-11.9022
▁126	-11.9023
▁resid	-11.9025
▁Ferry	-11.9027
ć	-11.9028
▁contemplat	-11.9028
▁overturn	-11.9028
▁Own	-11.903
wyn	-11.903
▁probe	-11.9038
▁Eleanor	-11.904
▁turnpike	-11.904
▁pulp	-11.904
▁reside	-11.9044
aceae	-11.9051
▁bust	-11.9051
▁Wednesday	-11.9051
▁Wisden	-11.9052
▁gaso	-11.9053
▁biology	-11.9054
▁realism	-11.9054
▁MGM	-11.9058
▁Guam	-11.9058
▁Barton	-11.9062
▁1790	-11.9062
▁facial	-11.9063
▁McLaren	-11.9064
NO	-11.9067
▁Gott	-11.9067
SB	-11.9068
▁Ev	-11.9072
▁supervision	-11.9073
▁Bole	-11.9074
▁Valentine	-11.9074
▁Bronze	-11.9074
▁crazy	-11.9075
▁Comment	-11.9075
▁abduct	-11.9077
▁consul	-11.908
▁archbishop	-11.9083
peake	-11.9083
▁maternal	-11.9086
▁congressional	-11.9086
▁overwhelm	-11.9089
HC	-11.9093
▁receptor	-11.9098
▁fond	-11.9099
▁hack	-11.91
▁Survivor	-11.91
▁laser	-11.9103
▁justifi	-11.9104
asaki	-11.9106
▁shrub	-11.9109
▁Self	-11.912
▁Amazing	-11.9121
▁knife	-11.9121
▁asteroid	-11.9121
▁tidal	-11.9121
▁naturalist	-11.9121
storm	-11.9123
▁pile	-11.9127
▁Hack	-11.9127
▁investigator	-11.9129
▁1776	-11.9129
▁swor	-11.9131
▁Gale	-11.9133
illon	-11.9133
▁Harmon	-11.9134
▁persecution	-11.9136
▁Telugu	-11.9144
▁Benedict	-11.9145
▁emulat	-11.9145
▁Dome	-11.9146
▁idol	-11.9147
ario	-11.9147
▁Guerrero	-11.9156
▁Federer	-11.9156
▁Rabbi	-11.9157
▁moor	-11.9158
titude	-11.9159
▁correspondent	-11.916
▁Blackburn	-11.916
▁Arabia	-11.9164
▁retrospective	-11.9169
▁Brewer	-11.917
▁wander	-11.917
▁pillar	-11.9172
▁Webb	-11.9177
▁Cliff	-11.918
▁Traditional	-11.918
▁awkward	-11.918
▁heroic	-11.918
lunar	-11.9182
▁rubb	-11.9184
pology	-11.9186
▁Wimbledon	-11.9191
▁Clyde	-11.9192
▁Bede	-11.9192
▁Pav	-11.9203
▁Sheriff	-11.9203
▁elongat	-11.9203
▁sculptor	-11.9207
▁euro	-11.9208
▁reunion	-11.9208
▁Supp	-11.9212
▁1837	-11.9212
▁Johan	-11.9214
▁Representative	-11.9223
▁Maggi	-11.9225
▁Touch	-11.9225
▁continuation	-11.9225
▁flock	-11.9225
▁gravitational	-11.9227
▁drought	-11.9227
▁ladder	-11.9227
▁BL	-11.9227
▁bulb	-11.9228
obility	-11.9232
▁sulfur	-11.9239
▁vacant	-11.9239
▁fungi	-11.9246
▁Stur	-11.9248
▁prosecutor	-11.9248
▁Zagreb	-11.925
▁masterpiece	-11.9251
▁Broadcast	-11.9255
▁Mono	-11.9257
▁unbeat	-11.9259
▁Mini	-11.9261
▁Vishnu	-11.9262
▁disput	-11.9266
▁hangar	-11.9269
▁Sanders	-11.9271
▁dismantl	-11.9274
▁Specific	-11.9275
▁Webster	-11.9275
▁prone	-11.9276
▁Shark	-11.9279
entity	-11.9279
range	-11.928
▁gag	-11.9283
▁Gazette	-11.9286
▁ATP	-11.9286
▁partisan	-11.9286
▁Conrad	-11.9286
▁Merri	-11.929
▁Cau	-11.9295
▁discourage	-11.9298
▁incumbent	-11.9298
▁shutout	-11.93
▁Sparta	-11.9304
▁recreation	-11.9304
▁till	-11.9307
▁handful	-11.9308
▁Casa	-11.931
▁fraction	-11.931
▁Abdul	-11.9312
▁textile	-11.9313
▁recreat	-11.9315
▁Darre	-11.9316
▁Brig	-11.932
▁Matilda	-11.9322
▁vigorous	-11.9322
▁mound	-11.9322
▁detection	-11.9323
▁Chain	-11.9323
▁Biography	-11.9323
▁Flower	-11.9325
▁deport	-11.9328
▁flavor	-11.9333
▁collar	-11.9334
illard	-11.9334
▁bunker	-11.9334
▁Sci	-11.9336
▁Seth	-11.9341
▁catalog	-11.9342
stick	-11.9343
▁rub	-11.9343
▁repuls	-11.9344
▁consecrat	-11.9345
▁Orkney	-11.9345
▁screw	-11.9345
▁propulsi	-11.9351
akh	-11.9357
▁Tolkien	-11.9357
▁Trinidad	-11.9357
▁ineffective	-11.9357
▁Monk	-11.9358
▁envision	-11.936
▁menu	-11.9363
▁Dorothy	-11.9369
▁energetic	-11.9369
▁nutrient	-11.9369
▁scarce	-11.9371
iq	-11.9375
▁boil	-11.9376
▁Legal	-11.9376
▁Voyager	-11.9377
▁fuselage	-11.9381
▁immense	-11.9381
▁verdict	-11.9381
▁Crosby	-11.9382
▁diplomat	-11.9383
▁reproductive	-11.9385
▁cope	-11.939
▁1839	-11.9391
▁hik	-11.9392
▁ecological	-11.9393
▁endemic	-11.9393
riot	-11.9396
▁Boot	-11.9399
▁Sinclair	-11.9405
▁technological	-11.9405
▁tragedy	-11.9405
▁Heinrich	-11.9405
MO	-11.9408
▁Shap	-11.9411
▁remixes	-11.9412
▁Syracus	-11.9417
▁envelop	-11.9417
▁spectacular	-11.9417
▁Gaelic	-11.9417
▁landowner	-11.9417
▁embryo	-11.942
▁mantle	-11.942
▁mystic	-11.9424
▁Miner	-11.9425
▁Fork	-11.9425
▁Expressway	-11.9433
▁bankruptc	-11.9435
▁vacation	-11.9435
▁Chesa	-11.9439
▁Legislative	-11.9441
▁infinite	-11.9441
▁strikeout	-11.9442
▁Airways	-11.9442
ohl	-11.9445
▁curse	-11.9447
▁Philipp	-11.9452
▁Hutchinson	-11.9453
▁Architecture	-11.9454
▁articulat	-11.9454
▁Solo	-11.9456
▁Jill	-11.9457
▁Khrushchev	-11.9466
▁iPhone	-11.9466
▁Pluto	-11.9466
▁Classical	-11.9466
▁Bala	-11.9467
▁Worker	-11.9476
▁Flow	-11.9476
▁Providenc	-11.9478
▁viruses	-11.9478
▁evaluation	-11.9478
▁Felix	-11.9479
▁168	-11.9479
II	-11.9479
suke	-11.9482
▁Sesam	-11.9483
▁trench	-11.9485
▁faint	-11.949
▁pipeline	-11.9492
▁Priv	-11.9494
playable	-11.9497
▁notorious	-11.9502
▁rebound	-11.9504
CG	-11.9505
▁Vision	-11.9506
▁clade	-11.9512
▁motorcycle	-11.9514
▁emblem	-11.9515
gne	-11.9515
▁Cav	-11.9517
▁trenche	-11.9519
▁Find	-11.9519
▁460	-11.952
step	-11.9523
luxe	-11.9523
▁unnecessary	-11.9526
▁practis	-11.9526
▁valve	-11.9527
▁Dorset	-11.9527
▁Lambert	-11.9529
▁grape	-11.9529
▁195	-11.9532
▁Miz	-11.9533
witz	-11.9533
productive	-11.9535
▁merchandise	-11.9535
DR	-11.9536
▁taxi	-11.9538
▁Herzegovina	-11.9538
▁Wembley	-11.9538
▁pedestrian	-11.9538
▁Avenger	-11.9538
▁awaken	-11.9538
▁spray	-11.954
▁cavit	-11.9541
▁bribe	-11.9543
▁suck	-11.9546
▁compass	-11.955
▁tobacco	-11.955
▁Krusty	-11.9551
▁millenni	-11.9551
▁HV	-11.9552
itchfork	-11.9563
CD	-11.9563
▁stack	-11.9564
▁Midway	-11.9566
▁fuck	-11.9575
CR	-11.958
▁Galve	-11.9581
▁pathway	-11.9583
▁Squad	-11.9586
▁monopol	-11.9587
▁Wyoming	-11.9587
▁critique	-11.9587
▁uncommon	-11.9587
▁abnormal	-11.9587
▁Fast	-11.9592
▁airplane	-11.9592
▁1835	-11.9596
▁Colber	-11.9598
▁Leipzig	-11.9599
▁encircl	-11.9599
▁subplot	-11.9599
▁curtain	-11.9599
▁pardon	-11.9602
▁Border	-11.9604
▁Organ	-11.9606
itude	-11.9607
▁Pond	-11.961
▁congress	-11.9612
▁repeal	-11.9612
▁Parish	-11.9614
tiny	-11.9614
▁equit	-11.9614
▁Miya	-11.9616
▁137	-11.9619
▁Nun	-11.9622
▁Vernon	-11.9624
▁Strip	-11.9627
▁balanc	-11.9629
▁conception	-11.9629
▁Sixth	-11.963
▁Honey	-11.9635
▁Agreement	-11.9636
▁François	-11.9636
▁prostitute	-11.9636
▁relent	-11.9636
▁devote	-11.9647
uburn	-11.9653
▁NWA	-11.9655
azar	-11.966
▁Declaration	-11.9661
▁vinyl	-11.9661
▁Wanderers	-11.9673
▁militant	-11.9673
▁behave	-11.9674
finish	-11.9675
▁Himm	-11.9676
▁Mortal	-11.9676
▁relegation	-11.968
ál	-11.9681
▁verb	-11.9682
▁exam	-11.9683
▁Journey	-11.9685
▁Shanghai	-11.9685
▁treason	-11.9685
▁amphibio	-11.9685
▁bundl	-11.9687
▁gut	-11.9689
▁affiliat	-11.9694
▁Warning	-11.9695
▁Randolph	-11.9698
▁Zimbabwe	-11.9698
▁Shannon	-11.9698
▁Empres	-11.9698
▁Slayer	-11.9698
▁glad	-11.9703
wulf	-11.9704
▁Web	-11.9705
▁Pig	-11.9709
▁royalt	-11.9709
▁stipulat	-11.971
▁Spike	-11.9711
powder	-11.9711
83	-11.9713
▁1799	-11.9721
▁Cell	-11.9722
▁Achievement	-11.9723
▁Offensive	-11.9723
▁Clarkson	-11.9723
▁Brent	-11.9725
▁Croat	-11.9733
▁480	-11.9734
▁Cobb	-11.9734
▁Aberdeen	-11.9735
▁pamphlet	-11.9735
▁Chemical	-11.9735
▁cardinal	-11.9735
MP	-11.9735
crosse	-11.9742
▁1838	-11.9744
grass	-11.9745
▁repetitive	-11.9747
▁wolf	-11.9748
▁sketche	-11.9754
fill	-11.9754
▁Bates	-11.9756
▁Witt	-11.9757
▁summ	-11.9759
▁Twilight	-11.976
▁Smash	-11.9761
▁Flu	-11.9762
▁bulkhead	-11.9762
▁spill	-11.9769
▁Crusader	-11.977
▁cul	-11.9771
▁visibility	-11.9772
▁Complex	-11.9773
▁thriv	-11.9775
▁Scene	-11.9775
guchi	-11.9778
▁Goodman	-11.978
▁parachute	-11.9785
▁tremendous	-11.9785
▁plasma	-11.9785
▁rejection	-11.9787
▁furni	-11.9788
▁Hook	-11.9789
▁Jump	-11.9791
▁dictat	-11.9798
▁Hyp	-11.9799
▁Milne	-11.98
▁ignit	-11.981
▁Bayern	-11.981
▁crypt	-11.981
▁supernova	-11.981
▁Phase	-11.9812
▁stud	-11.9812
▁Matsu	-11.9813
▁traffick	-11.982
▁1829	-11.982
▁surname	-11.9822
▁Slant	-11.9824
▁forgive	-11.9826
▁Barrow	-11.9826
▁Bois	-11.9831
▁sperm	-11.9831
▁precedent	-11.9831
▁Tide	-11.9832
▁reappear	-11.9835
▁Egg	-11.9837
▁Boone	-11.9838
▁Trip	-11.9838
▁Lana	-11.9839
▁authoris	-11.9845
▁Alder	-11.9845
▁Vladimir	-11.9847
▁rematch	-11.9847
athi	-11.9849
▁Parliamentar	-11.9849
▁Silent	-11.9854
▁Ett	-11.9855
▁Rox	-11.9856
erina	-11.9857
▁Pain	-11.9858
▁Exchange	-11.986
▁Shepherd	-11.986
▁oppress	-11.986
▁intimidat	-11.986
▁cheese	-11.986
▁Trevor	-11.9861
▁clinic	-11.9861
▁vowel	-11.9864
uchov	-11.9867
▁305	-11.987
▁Moreno	-11.987
▁Audi	-11.987
▁Julius	-11.9873
▁LGBT	-11.9873
▁Testament	-11.9873
▁fiscal	-11.9873
▁decent	-11.9873
▁124	-11.9873
withstand	-11.9877
▁bubble	-11.9878
▁temp	-11.9878
▁Something	-11.9882
▁alpha	-11.9884
▁Treasure	-11.9885
▁cockpit	-11.9885
▁stint	-11.9885
▁MCC	-11.9885
▁depos	-11.9886
▁trunkline	-11.9887
▁XII	-11.9887
ević	-11.9888
▁Ville	-11.9888
▁Sag	-11.9889
▁summariz	-11.9896
▁Institution	-11.9898
▁globe	-11.9898
▁typ	-11.9899
▁olive	-11.9899
▁Anglia	-11.9901
▁lure	-11.9902
▁Nicole	-11.9902
GC	-11.9902
▁pray	-11.9906
▁Davidson	-11.9909
▁Detective	-11.991
▁Ukraine	-11.991
▁scroll	-11.991
▁unchang	-11.991
▁Geography	-11.9911
▁Stamp	-11.9913
jah	-11.9914
▁relic	-11.9919
▁Diva	-11.9922
▁liberty	-11.9923
opus	-11.9924
▁Bag	-11.9924
▁Tax	-11.9924
▁Glory	-11.9925
▁Carson	-11.993
▁Chau	-11.9932
▁eponymous	-11.9936
▁aquatic	-11.9936
▁Charle	-11.9936
▁Emergenc	-11.9936
▁pension	-11.9937
▁Cai	-11.9939
▁Salford	-11.9945
MG	-11.9946
▁eclipse	-11.9948
▁obstruct	-11.9948
▁1842	-11.9954
▁norm	-11.9955
retace	-11.9958
▁Undertaker	-11.9961
▁fountain	-11.9961
▁Olympia	-11.9961
▁mercenar	-11.9961
▁disposal	-11.9962
▁Duff	-11.9963
▁inflation	-11.9965
▁prosecut	-11.9968
GI	-11.9972
▁litter	-11.9972
▁Rough	-11.9973
▁Jesuit	-11.9974
▁anarchist	-11.9974
▁conscript	-11.9975
▁Woo	-11.9976
▁Nigel	-11.9977
▁saga	-11.9983
▁Nottingham	-11.9986
▁exotic	-11.9986
▁Battery	-11.9987
▁Ladies	-11.9988
▁outflow	-11.999
▁Copenhagen	-11.9999
▁disastrous	-11.9999
▁Glacier	-11.9999
▁rigid	-11.9999
ME	-11.9999
▁moistur	-12
▁pigment	-12.0002
▁ODI	-12.0004
igne	-12.0008
▁Northumberland	-12.0012
▁destructive	-12.0012
▁pavilion	-12.0012
▁Nigeria	-12.0012
▁amidship	-12.0013
▁Gee	-12.002
osaurid	-12.0022
▁Presbyterian	-12.0025
▁martin	-12.0025
▁disqualifi	-12.0026
▁synthesiz	-12.0028
▁Hib	-12.0035
▁evad	-12.0035
▁Architect	-12.0037
eschwader	-12.0037
▁boast	-12.0037
▁sheriff	-12.0038
▁Cannon	-12.0038
▁sandwich	-12.0038
▁Bombay	-12.0039
▁whip	-12.0045
▁compatib	-12.005
▁1⁄2	-12.005
rff	-12.005
TF	-12.0051
▁1843	-12.0057
▁Kenya	-12.0061
▁granite	-12.0063
▁Prinz	-12.0063
▁agenda	-12.0063
▁Regular	-12.0064
▁outward	-12.0066
▁attach	-12.0068
▁Conan	-12.007
▁attest	-12.0072
▁Chip	-12.0075
▁Metallica	-12.0076
▁Religion	-12.0076
▁academy	-12.0076
▁embodi	-12.0076
▁robust	-12.0076
▁storytell	-12.0076
▁database	-12.0077
▁Yucat	-12.0078
▁potas	-12.0078
Ö	-12.0089
▁Success	-12.0089
▁convex	-12.0089
TI	-12.0093
▁Killer	-12.0096
▁Transylvania	-12.0102
▁unrelat	-12.0102
▁distributor	-12.0102
▁Log	-12.0103
oxide	-12.0104
▁Dock	-12.0106
▁probable	-12.0107
▁Chess	-12.0109
▁Chal	-12.0109
▁guardian	-12.0111
▁1815	-12.0112
▁township	-12.0112
▁Valu	-12.0112
▁Advisor	-12.0115
▁Idaho	-12.0115
▁static	-12.0115
jima	-12.0124
▁Cairo	-12.0125
▁cylindric	-12.0127
▁Elvis	-12.0129
▁mercur	-12.0129
300	-12.0129
▁coinage	-12.013
▁Jab	-12.013
▁Walsh	-12.0132
▁410	-12.0132
▁Bosnian	-12.0134
▁otter	-12.0136
▁flora	-12.0139
▁Galaxy	-12.014
▁Eleven	-12.0141
▁Converse	-12.0142
▁ultra	-12.0143
▁lightning	-12.0145
▁symboliz	-12.0146
udge	-12.0146
▁verbal	-12.0149
▁fasc	-12.0152
▁Ambassador	-12.0153
lept	-12.0155
▁USAF	-12.0156
▁Middleton	-12.0157
▁Noble	-12.0162
▁cuisine	-12.0166
▁claw	-12.0172
▁index	-12.0178
▁Winnipeg	-12.0179
▁Isabella	-12.018
▁economical	-12.0181
▁AIF	-12.0184
▁Maz	-12.0185
▁lighthouse	-12.0186
RD	-12.0186
▁Bottom	-12.0192
▁antenna	-12.0192
kowski	-12.0193
▁Search	-12.0196
fried	-12.0197
WV	-12.0197
▁airplay	-12.0202
▁Economy	-12.0205
▁Observatory	-12.0205
▁imminent	-12.0205
▁supreme	-12.0205
▁aristocrat	-12.0205
▁inherent	-12.0205
▁bak	-12.0206
▁microphone	-12.0206
▁Worth	-12.0208
▁graz	-12.0214
▁Experience	-12.0218
▁substrate	-12.0218
▁fumbl	-12.0219
▁Said	-12.022
▁Ibn	-12.022
▁Alexandr	-12.0221
▁flatten	-12.0224
visible	-12.0229
▁legendar	-12.023
▁Commerc	-12.0231
▁Relations	-12.0231
▁columnist	-12.0232
▁rerout	-12.0232
▁procession	-12.0232
▁wetland	-12.0236
▁NES	-12.0237
▁stronghold	-12.0238
▁glam	-12.0239
▁hostilities	-12.0244
▁outskirt	-12.0244
phag	-12.0244
▁Policy	-12.0244
wicz	-12.0247
▁Iranian	-12.025
▁missionaries	-12.0251
▁strat	-12.0256
▁Tuesday	-12.0257
▁nude	-12.0258
hei	-12.0259
▁baptism	-12.0261
▁Fresh	-12.0264
▁Neville	-12.0264
▁Nile	-12.0269
▁Savi	-12.0269
▁144	-12.027
▁Physical	-12.027
fjord	-12.0271
▁Casino	-12.0271
▁Sora	-12.0272
▁luc	-12.0275
▁diocese	-12.0284
▁Memphi	-12.0284
ethanol	-12.0284
▁passionate	-12.0286
▁Hiro	-12.0289
▁Progress	-12.0294
▁Platinum	-12.0297
▁Venetian	-12.0297
▁correlat	-12.0297
▁inexperience	-12.0297
▁mascot	-12.0297
▁Einstein	-12.0297
▁Johannes	-12.0299
▁Stanton	-12.0308
hPa	-12.0309
▁practitioner	-12.031
▁reorganis	-12.031
▁furious	-12.0312
▁Chor	-12.0314
▁Kali	-12.0314
▁oval	-12.0315
▁desk	-12.0316
▁1794	-12.0317
▁exert	-12.0318
▁Europa	-12.0318
rdnance	-12.0319
▁Enter	-12.0321
▁enjoyable	-12.0322
▁accession	-12.0322
▁sophomore	-12.0323
▁Malaysian	-12.0328
▁gem	-12.0332
vsky	-12.0333
▁Llan	-12.0333
▁Chin	-12.0334
▁Paint	-12.0335
▁Shankar	-12.0335
▁Promotion	-12.0336
▁Revival	-12.0336
▁primate	-12.0338
▁allegiance	-12.0349
▁refurbish	-12.0349
▁crust	-12.035
▁Madras	-12.035
▁Smyth	-12.0351
▁Randall	-12.0351
▁outrag	-12.0359
▁Financial	-12.0363
mphetamine	-12.0363
▁Influence	-12.0363
▁dissolution	-12.0363
▁cruis	-12.0368
▁Seventh	-12.037
glades	-12.0372
▁starv	-12.0373
▁Martín	-12.0376
▁magistrate	-12.0376
▁sir	-12.0376
▁Tudor	-12.0378
▁Mariah	-12.0384
▁ego	-12.0384
▁1798	-12.0385
▁Alexandra	-12.0388
▁Lyrical	-12.0389
▁downward	-12.039
▁geological	-12.0391
▁Vermont	-12.0392
▁Godwin	-12.0399
▁Paraguay	-12.0402
▁Cowboy	-12.0403
ña	-12.0403
▁guess	-12.0405
▁Heroes	-12.0406
classic	-12.0406
▁Earp	-12.0408
▁Agriculture	-12.0416
▁Cartoon	-12.0416
▁Rotten	-12.0416
▁850	-12.0418
▁stallion	-12.0419
▁stemm	-12.0423
▁acquir	-12.0428
▁Bismarck	-12.0429
▁Habsburg	-12.0429
▁astronaut	-12.0429
▁prolific	-12.0429
▁slender	-12.0429
▁anxiet	-12.0429
▁Armor	-12.0429
▁Borg	-12.0429
▁Illustrated	-12.0429
▁boycott	-12.043
onym	-12.0431
▁Course	-12.0437
▁Luz	-12.0442
▁prevalent	-12.0442
▁slogan	-12.0442
▁problematic	-12.0444
▁copi	-12.0444
▁canyon	-12.0445
▁classroom	-12.0448
▁Lakers	-12.045
▁chronicler	-12.0453
▁slam	-12.0455
▁pseudonym	-12.0456
▁psychedelic	-12.0456
▁Batista	-12.0456
▁Pakistani	-12.046
▁litera	-12.0461
▁coffin	-12.0469
▁Greenland	-12.0473
▁Barker	-12.0477
▁235	-12.0479
▁plateau	-12.0481
▁Restoration	-12.0482
▁Mitch	-12.0485
▁Tub	-12.0491
▁necessitat	-12.0492
▁minimiz	-12.0496
▁Dunn	-12.0499
▁painful	-12.0501
▁Kumar	-12.0505
±	-12.0509
▁incarnation	-12.0509
▁Holiday	-12.0509
▁grammar	-12.0509
▁Clarence	-12.0509
▁boring	-12.051
▁Cause	-12.051
▁postseason	-12.0512
▁erod	-12.0516
▁Phillip	-12.0517
▁cartridge	-12.0523
▁truncat	-12.0523
▁Harald	-12.0523
▁interven	-12.0523
▁Nickel	-12.0525
▁Doom	-12.0525
CU	-12.053
▁Help	-12.053
bernat	-12.053
▁Boom	-12.0534
▁lizard	-12.0536
▁outnumber	-12.0536
▁clue	-12.054
▁rabbit	-12.0541
▁disappearance	-12.0541
▁unifi	-12.0545
▁Albania	-12.0545
▁Moffat	-12.0549
▁Rainbow	-12.055
▁Erle	-12.0553
▁Walton	-12.0555
▁tolerat	-12.0557
▁adolescen	-12.0563
▁barrage	-12.0565
written	-12.0572
NI	-12.0573
▁1819	-12.0573
▁Amsterdam	-12.0576
▁Vulcan	-12.0576
▁spoil	-12.0576
▁Brain	-12.0579
▁ecclesiastical	-12.0579
▁uncomfortabl	-12.059
▁civic	-12.059
▁complications	-12.059
▁staging	-12.059
▁Hom	-12.0594
▁1814	-12.0598
▁prescrib	-12.0598
▁Cunningham	-12.0603
▁tragic	-12.0603
▁Facebook	-12.0604
▁clearance	-12.0604
▁Ronnie	-12.0605
▁justify	-12.0607
▁divorc	-12.061
▁iPad	-12.0617
▁oxidation	-12.0617
▁crude	-12.0617
▁mammal	-12.0624
▁Groen	-12.0625
▁Alec	-12.0626
▁pup	-12.0627
▁vitamin	-12.0631
atta	-12.0631
▁Elector	-12.0631
▁outpost	-12.0631
▁rework	-12.0631
▁Luther	-12.0633
▁146	-12.0635
▁overlapp	-12.0637
▁sect	-12.0641
▁Patricia	-12.0644
▁bab	-12.0645
▁Shirley	-12.0646
▁Bono	-12.0656
▁Oldham	-12.0657
▁drastic	-12.0658
▁frighten	-12.0658
▁solicit	-12.0658
chem	-12.0659
▁screenwriter	-12.0659
▁Thomson	-12.066
▁Goldman	-12.0661
▁diploma	-12.0661
▁Enem	-12.0664
▁marr	-12.0666
▁Rita	-12.0668
▁Taunton	-12.0671
▁Congressional	-12.0671
▁Cartman	-12.0672
▁fool	-12.0672
▁wheat	-12.0672
▁Quick	-12.0673
reafter	-12.0678
▁Geneva	-12.0681
WI	-12.0683
▁Rib	-12.0685
▁inflammat	-12.0685
convenient	-12.0685
▁propagat	-12.0686
writing	-12.0686
▁205	-12.0688
▁Breath	-12.069
▁alkali	-12.0693
▁aggression	-12.0699
▁procur	-12.0699
▁Peggy	-12.0699
▁158	-12.0701
ND	-12.0701
▁sixteenth	-12.0704
enham	-12.0708
genesis	-12.0708
▁fringe	-12.0708
▁obsolete	-12.0712
▁illusion	-12.0712
▁Landmark	-12.0714
ternity	-12.0715
ggs	-12.0726
~	-12.0726
▁Olivier	-12.0726
▁Trouble	-12.0726
▁anticipation	-12.0728
▁addict	-12.0735
▁Raz	-12.0735
▁Weng	-12.0736
▁Fitzgerald	-12.074
▁Nuclear	-12.074
▁Rebecca	-12.074
▁Rodgers	-12.074
▁Frost	-12.074
▁Colony	-12.074
lsewhere	-12.074
▁unsur	-12.0741
▁1810	-12.0743
▁NHC	-12.0743
▁composite	-12.0747
▁Bruno	-12.0753
▁Resolution	-12.0753
▁conscience	-12.0753
▁fluctuat	-12.0753
▁midfielder	-12.0754
▁linguistic	-12.0756
▁Dominion	-12.0756
▁Describ	-12.0759
▁Rebellion	-12.0767
▁Salvador	-12.0767
▁Naples	-12.0767
▁endorsement	-12.0768
▁amass	-12.0769
▁temperat	-12.0781
▁Dickinson	-12.0781
glass	-12.0784
▁Everett	-12.0784
▁harmonic	-12.0785
▁Sophia	-12.079
cystidi	-12.0795
▁Literature	-12.0795
▁algorithm	-12.0795
▁humiliat	-12.0795
▁feast	-12.0795
▁redevelopment	-12.0796
▁Evolution	-12.0796
▁retailer	-12.0797
ggy	-12.0803
▁polit	-12.0803
matsu	-12.0804
DP	-12.0806
▁Marlborough	-12.0809
▁adjoin	-12.0809
▁malaria	-12.0809
▁shatter	-12.0809
▁rallie	-12.0809
▁Minute	-12.081
▁Keynes	-12.0811
▁necessit	-12.0813
birth	-12.0816
▁addiction	-12.0816
▁dye	-12.0821
▁Climate	-12.0822
▁Medieval	-12.0822
▁numerical	-12.0822
▁Wise	-12.0823
▁Jenny	-12.0825
▁Dirt	-12.0829
▁Shir	-12.083
▁spear	-12.0835
▁Relief	-12.0836
▁Wilkinson	-12.0836
▁Census	-12.0836
▁Pioneer	-12.0836
▁refuel	-12.0836
▁barbette	-12.0837
▁canvas	-12.0839
▁Papa	-12.0839
▁Tomato	-12.084
▁Jaw	-12.0846
▁1775	-12.0848
▁feasib	-12.085
▁constraints	-12.0851
▁bodi	-12.0852
▁cooperative	-12.0852
▁Abov	-12.0853
▁Murder	-12.0854
▁honey	-12.0855
▁truce	-12.0863
▁pie	-12.0863
▁staircase	-12.0864
▁refrain	-12.0864
▁fauna	-12.0864
▁implied	-12.0864
▁keel	-12.0866
▁Veteran	-12.0878
▁Period	-12.0878
▁Canning	-12.088
▁Hornet	-12.0887
▁Sarawak	-12.0892
▁suffrage	-12.0892
▁vaccine	-12.0892
▁Clifton	-12.0892
▁proponent	-12.0892
▁Eccles	-12.0892
▁append	-12.0892
▁Santia	-12.0892
▁Picard	-12.0893
▁Comb	-12.0893
▁Gentlem	-12.0893
▁guideline	-12.0897
▁1792	-12.0898
▁Shoot	-12.0898
▁downgrad	-12.0901
▁MW	-12.0902
▁Brussels	-12.0906
▁Cumberland	-12.0906
▁acquitt	-12.0906
▁pivot	-12.0906
▁Timoth	-12.0906
▁chloride	-12.0907
▁Fortress	-12.0907
▁Hamm	-12.0908
▁Certain	-12.092
▁Milwaukee	-12.092
▁mitochondri	-12.092
▁repertoire	-12.092
▁licence	-12.092
▁McClellan	-12.092
▁casino	-12.092
▁furnish	-12.0921
▁Payne	-12.0922
rself	-12.0922
blew	-12.0922
▁Cind	-12.093
▁Shot	-12.0931
▁PopMatters	-12.0934
▁disadvantage	-12.0934
▁sermon	-12.0934
▁Borneo	-12.0934
▁225	-12.0939
▁Driver	-12.0945
▁axe	-12.0945
▁Micro	-12.0946
▁Isabel	-12.0947
anja	-12.0947
▁approve	-12.0952
▁Moses	-12.0958
▁Legislature	-12.0962
▁epidemic	-12.0962
▁Fowler	-12.0962
▁Satan	-12.0962
▁Creation	-12.0962
reach	-12.0965
▁crab	-12.0968
clined	-12.0971
oftware	-12.0971
▁mortal	-12.0973
▁ITV	-12.0974
▁disruption	-12.0974
▁susceptib	-12.0976
▁parrot	-12.0976
▁Freeman	-12.0976
▁infiltrat	-12.0978
▁noticeabl	-12.0987
▁Avatar	-12.099
alagasy	-12.0992
▁redesignat	-12.0992
▁comedic	-12.0994
▁Parent	-12.0996
▁retract	-12.0998
▁scuttl	-12.1004
▁Masa	-12.1006
▁nurs	-12.1007
▁Novel	-12.1011
▁Audio	-12.1014
ecki	-12.1015
▁1500	-12.1015
▁Flotilla	-12.1018
▁embedded	-12.1018
▁Instrument	-12.1018
▁sneak	-12.1018
▁Hair	-12.1018
▁Becket	-12.1024
plex	-12.1027
▁dash	-12.1029
heat	-12.1029
▁Biden	-12.103
▁Chopra	-12.1032
▁Beaver	-12.1032
▁vague	-12.1032
▁Chandra	-12.1034
▁nineteen	-12.1034
▁franc	-12.1036
▁inheritance	-12.1037
▁Wash	-12.1037
▁Rider	-12.1039
▁Royalist	-12.1039
▁inhibitor	-12.104
owitz	-12.1042
▁Flat	-12.1042
▁Roma	-12.1046
▁psychology	-12.1046
▁Chaplin	-12.1046
▁Cromwell	-12.1046
▁epithet	-12.1046
▁Terror	-12.1046
▁piercing	-12.1046
▁asylum	-12.1048
[...]
