<pad>	0
<unk>	0
</s>	0
▁the	-3.07554
▁,	-3.19968
s	-3.46691
▁.	-3.51606
▁of	-3.7961
ed	-3.81042
▁and	-3.88766
▁to	-4.09824
▁	-4.11949
▁in	-4.13563
▁a	-4.2078
▁=	-4.42034
▁"	-4.51168
▁was	-4.72707
ing	-4.74104
@	-4.74818
▁@	-4.78084
▁'	-4.85768
-	-4.91374
▁The	-4.94712
ly	-5.10972
▁on	-5.16105
▁for	-5.17556
▁with	-5.17556
▁that	-5.18925
▁as	-5.27943
y	-5.29853
▁by	-5.31179
▁)	-5.34145
▁(	-5.34206
▁is	-5.46603
e	-5.62675
▁his	-5.63115
.	-5.64204
▁from	-5.64299
▁at	-5.6805
d	-5.79336
▁were	-5.83828
▁be	-5.87394
▁it	-5.89088
▁he	-5.92841
▁an	-5.96723
▁In	-6.00672
▁had	-6.03081
▁which	-6.09181
▁not	-6.38219
▁but	-6.39294
▁are	-6.39531
▁;	-6.45857
▁first	-6.46359
▁their	-6.48342
▁–	-6.48719
t	-6.49954
▁A	-6.50644
▁:	-6.51126
▁also	-6.51963
▁her	-6.52136
▁or	-6.57992
▁who	-6.58268
er	-6.59549
▁one	-6.60799
▁its	-6.60911
▁have	-6.61316
▁two	-6.65546
▁He	-6.65819
n	-6.67431
▁been	-6.68734
▁has	-6.68766
▁@,@	-6.70664
▁I	-6.7236
▁this	-6.72982
▁after	-6.83585
▁1	-6.84328
▁time	-6.84409
▁would	-6.86312
th	-6.86495
▁It	-6.88823
▁into	-6.89577
a	-6.90659
▁other	-6.91312
▁over	-6.99446
▁more	-7.00796
▁they	-7.03467
▁2	-7.06878
r	-7.07415
▁she	-7.07611
▁when	-7.07671
▁all	-7.10372
▁him	-7.10731
▁up	-7.1092
during	-7.14958
▁out	-7.15371
▁most	-7.1662
es	-7.16815
▁game	-7.17123
▁On	-7.19035
▁film	-7.19852
▁3	-7.20673
▁than	-7.2086
▁about	-7.20894
▁only	-7.21684
▁between	-7.23049
▁later	-7.23926
▁three	-7.24282
▁new	-7.24565
▁whil	-7.25888
▁through	-7.26812
o	-7.29297
▁5	-7.33329
al	-7.34456
▁made	-7.35427
ever	-7.35601
▁season	-7.36488
▁where	-7.36889
▁New	-7.37576
▁000	-7.38404
▁some	-7.38445
▁such	-7.39072
▁year	-7.39392
ies	-7.39725
in	-7.39843
▁4	-7.40198
▁before	-7.40574
▁This	-7.44402
▁/	-7.44515
▁second	-7.44771
▁years	-7.46849
▁large	-7.46945
▁part	-7.47572
▁used	-7.47647
▁under	-7.47836
st	-7.48899
▁them	-7.49001
▁number	-7.50243
▁album	-7.51577
▁against	-7.51851
▁being	-7.51881
▁song	-7.52203
came	-7.53286
us	-7.55697
▁can	-7.56394
▁including	-7.56771
▁—	-7.56963
▁United	-7.5796
▁well	-7.58275
▁no	-7.58551
▁both	-7.58613
▁there	-7.58643
▁After	-7.58923
▁series	-7.59673
▁high	-7.5989
on	-7.6031
▁then	-7.61245
▁team	-7.61928
▁6	-7.62924
▁B	-7.63107
▁did	-7.63466
▁10	-7.64331
▁episode	-7.64365
est	-7.64706
▁four	-7.6485
▁al	-7.65957
▁like	-7.66116
out	-7.66294
▁so	-7.6665
▁American	-7.67186
▁said	-7.68267
▁work	-7.68287
▁many	-7.68906
though	-7.69065
▁could	-7.69524
▁several	-7.7013
▁found	-7.70546
▁known	-7.72025
i	-7.7235
▁C	-7.74308
▁return	-7.74638
▁7	-7.74661
▁began	-7.74842
▁near	-7.757
▁place	-7.77429
▁day	-7.77689
▁U	-7.78186
▁early	-7.78201
m	-7.78858
▁As	-7.78954
▁8	-7.79105
▁until	-7.79313
▁end	-7.79316
▁called	-7.79832
▁use	-7.80122
▁She	-7.80482
▁D	-7.81385
▁million	-7.82215
▁how	-7.82283
▁remain	-7.82467
▁show	-7.82854
▁At	-7.83009
▁along	-7.84027
▁back	-7.84806
▁British	-7.84856
▁long	-7.85972
▁de	-7.86434
$	-7.86675
▁9	-7.86787
▁these	-7.87372
▁people	-7.88191
▁original	-7.88223
▁receiv	-7.8826
▁September	-7.89856
▁15	-7.90154
▁How	-7.90674
▁20	-7.90829
▁same	-7.90966
▁0	-7.91199
▁final	-7.91267
▁music	-7.91348
▁12	-7.91349
▁World	-7.91431
▁August	-7.91577
▁War	-7.91847
▁because	-7.91922
▁States	-7.92061
▁may	-7.92242
▁around	-7.94049
▁May	-7.94128
▁km	-7.94464
▁order	-7.9544
▁state	-7.95461
man	-7.95547
▁John	-7.96017
▁Al	-7.96328
▁off	-7.96625
▁following	-7.97068
▁M	-7.97407
▁releas	-7.97483
l	-7.98416
▁S	-7.98681
▁October	-7.98734
▁m	-7.9892
able	-7.99075
▁any	-7.99365
▁area	-7.99599
▁start	-8.00243
▁each	-8.00958
▁life	-8.01302
▁five	-8.01307
▁main	-8.0165
▁century	-8.01895
▁lead	-8.01921
▁16	-8.02847
▁]	-8.03318
▁single	-8.03426
[	-8.03523
▁small	-8.03833
▁war	-8.04082
▁June	-8.04083
▁R	-8.04479
▁city	-8.04796
um	-8.0529
▁down	-8.05642
▁US	-8.05927
▁%	-8.06058
▁July	-8.06087
en	-8.06294
▁November	-8.06735
▁11	-8.07248
▁result	-8.07336
▁since	-8.07932
▁Dur	-8.08009
ity	-8.08271
ic	-8.08315
S	-8.0844
▁March	-8.08482
▁York	-8.08539
▁April	-8.08653
▁will	-8.09336
▁set	-8.09385
▁group	-8.10979
▁great	-8.11433
▁attack	-8.12036
▁allow	-8.12085
▁what	-8.12237
▁line	-8.12375
▁left	-8.13179
▁They	-8.13844
▁government	-8.13849
▁consider	-8.13922
▁E	-8.14125
▁last	-8.14126
▁name	-8.14197
▁North	-8.14276
▁system	-8.14305
▁character	-8.14343
▁December	-8.14632
▁18	-8.1467
▁reach	-8.14694
▁release	-8.14733
▁third	-8.1474
▁due	-8.14807
▁home	-8.15151
▁much	-8.15738
▁13	-8.15818
▁17	-8.15912
le	-8.15974
▁if	-8.16112
▁bas	-8.16142
▁January	-8.16221
▁another	-8.16427
▁included	-8.1654
▁own	-8.16637
▁...	-8.16829
▁P	-8.17286
▁un	-8.17349
▁played	-8.17568
▁wrote	-8.17839
▁South	-8.17968
▁When	-8.18006
▁open	-8.18113
▁change	-8.18341
▁death	-8.18686
▁band	-8.18692
▁force	-8.18758
▁won	-8.19456
▁30	-8.20263
▁14	-8.20296
▁record	-8.21334
▁six	-8.2163
▁described	-8.22477
▁previous	-8.22484
ce	-8.22655
▁family	-8.22733
▁support	-8.22901
▁led	-8.22913
▁short	-8.23057
▁just	-8.23532
▁appear	-8.23629
▁include	-8.23858
▁named	-8.24184
▁make	-8.24381
▁ship	-8.24618
▁world	-8.25202
▁now	-8.25595
▁F	-8.26208
▁By	-8.2628
▁north	-8.26498
▁play	-8.26884
▁late	-8.27605
▁very	-8.27705
those	-8.27858
▁T	-8.27974
▁O	-8.28049
▁form	-8.28095
▁February	-8.28526
▁still	-8.28722
▁German	-8.29023
▁species	-8.29197
▁next	-8.29199
▁perform	-8.29301
▁video	-8.2942
▁best	-8.29791
▁match	-8.30644
▁men	-8.30712
▁No	-8.31085
▁major	-8.31108
an	-8.31276
▁His	-8.31571
▁old	-8.31673
▁National	-8.3169
▁role	-8.32143
▁built	-8.32504
▁power	-8.32531
▁do	-8.32567
▁French	-8.32572
▁held	-8.32587
▁2010	-8.32889
▁former	-8.33249
▁100	-8.33667
▁house	-8.34357
▁way	-8.34581
▁per	-8.34591
▁again	-8.34647
▁direct	-8.3495
▁storm	-8.34967
▁south	-8.35277
▁local	-8.35277
▁side	-8.35624
▁St	-8.35733
▁public	-8.36238
▁games	-8.36476
▁title	-8.36599
▁take	-8.36638
▁There	-8.36732
▁you	-8.37299
▁19	-8.37469
▁water	-8.37502
▁school	-8.37847
▁help	-8.38157
▁2008	-8.38211
▁period	-8.38241
▁even	-8.38296
▁2009	-8.38716
▁few	-8.38869
▁top	-8.39388
ers	-8.39997
▁2011	-8.40415
▁continued	-8.40448
▁often	-8.40463
▁book	-8.40586
▁among	-8.40708
▁follow	-8.40788
▁career	-8.40803
▁similar	-8.40861
▁25	-8.41598
▁days	-8.41841
ok	-8.41842
▁members	-8.41845
▁production	-8.42053
&	-8.42195
▁England	-8.42214
▁For	-8.42483
▁re	-8.42607
▁point	-8.42627
▁air	-8.42706
re	-8.42713
▁further	-8.43031
ion	-8.43203
▁West	-8.43579
▁half	-8.44208
▁L	-8.44218
▁All	-8.44427
▁2007	-8.44542
▁want	-8.44694
▁turn	-8.44983
▁One	-8.45108
▁story	-8.45139
having	-8.45166
▁position	-8.453
▁become	-8.45382
▁player	-8.45406
▁came	-8.45512
▁version	-8.4557
▁different	-8.45948
▁City	-8.46192
2	-8.46331
▁English	-8.46574
▁G	-8.47003
went	-8.47519
▁II	-8.47733
▁we	-8.47817
▁join	-8.47954
▁total	-8.48311
ton	-8.48354
▁2012	-8.48357
▁history	-8.48643
▁H	-8.493
▁London	-8.49495
▁increase	-8.49555
▁River	-8.49683
▁King	-8.50236
▁every	-8.50473
▁establish	-8.50716
c	-8.50976
▁written	-8.51172
▁full	-8.51984
▁contain	-8.52469
▁land	-8.5319
▁track	-8.53614
ation	-8.538
▁given	-8.53825
▁strong	-8.53889
▁gave	-8.54344
▁University	-8.54406
▁close	-8.54672
▁K	-8.54829
▁wide	-8.54984
▁never	-8.5516
▁While	-8.55172
▁east	-8.55264
▁21	-8.55572
▁man	-8.55688
▁caus	-8.55748
▁control	-8.55752
▁though	-8.55833
▁service	-8.55963
▁act	-8.56234
took	-8.56389
▁company	-8.56562
▁initial	-8.57037
▁week	-8.57075
▁published	-8.57319
▁town	-8.5754
▁building	-8.5773
▁2006	-8.58232
▁N	-8.58389
▁lost	-8.58447
▁24	-8.58448
▁west	-8.5884
▁performance	-8.58969
▁To	-8.59015
▁stated	-8.59028
▁particular	-8.59056
g	-8.59126
▁reported	-8.59136
▁young	-8.59153
▁common	-8.59513
moved	-8.596
▁According	-8.59808
stead	-8.59855
▁list	-8.59899
▁enter	-8.60283
ism	-8.60452
▁style	-8.60508
▁State	-8.6054
▁militar	-8.61065
▁country	-8.6127
▁pass	-8.6151
u	-8.61731
▁General	-8.61748
▁suggest	-8.62099
▁low	-8.62198
▁father	-8.62476
▁produc	-8.62613
▁club	-8.6275
▁making	-8.62816
▁These	-8.62849
▁less	-8.62866
▁right	-8.62882
ness	-8.62967
▁W	-8.62994
▁aircraft	-8.63241
▁fire	-8.63245
▁run	-8.63298
▁J	-8.63361
▁himself	-8.63388
▁2013	-8.6347
h	-8.63625
▁recorded	-8.63652
▁Australia	-8.63659
▁real	-8.63937
less	-8.63938
▁h	-8.63996
▁development	-8.64602
▁featur	-8.64632
▁William	-8.64665
▁head	-8.6511
▁claim	-8.65343
▁live	-8.65357
▁toward	-8.65745
▁forces	-8.65932
▁James	-8.66055
▁ships	-8.66152
▁cover	-8.66583
▁class	-8.66693
▁tour	-8.6673
▁With	-8.67282
▁range	-8.67728
▁An	-8.67844
▁ft	-8.67976
▁good	-8.68351
▁Army	-8.68353
▁22	-8.68361
▁Australian	-8.68397
▁Division	-8.68709
▁design	-8.68735
▁America	-8.68895
▁sign	-8.69328
▁died	-8.69431
▁League	-8.69504
▁50	-8.69552
▁George	-8.69589
▁command	-8.69621
▁political	-8.69645
▁win	-8.69824
▁present	-8.70019
or	-8.70368
▁children	-8.70391
▁developed	-8.7061
▁light	-8.70928
▁months	-8.70988
▁finish	-8.71472
▁official	-8.71753
▁Street	-8.71964
▁Park	-8.72059
▁away	-8.72314
▁eight	-8.72651
▁felt	-8.72768
k	-8.73496
either	-8.73504
▁see	-8.73508
most	-8.73686
▁characters	-8.73738
▁announced	-8.73818
▁national	-8.73964
▁sent	-8.73979
▁television	-8.74
▁songs	-8.74474
▁County	-8.74565
▁level	-8.74868
▁seven	-8.74956
▁should	-8.75127
▁age	-8.7519
▁Japanese	-8.75193
▁2005	-8.75226
▁23	-8.75392
▁successful	-8.7548
▁get	-8.75604
▁route	-8.75711
▁eventual	-8.75809
▁station	-8.75823
▁various	-8.76108
▁Road	-8.76114
▁damage	-8.76324
▁seen	-8.76512
▁provid	-8.76575
▁success	-8.766
p	-8.76962
▁East	-8.7703
▁son	-8.77201
▁Man	-8.77212
▁ask	-8.77265
▁2014	-8.77426
▁need	-8.77489
b	-8.77538
▁battle	-8.77632
▁thought	-8.77632
▁race	-8.78214
▁ten	-8.78276
▁campaign	-8.78304
is	-8.78428
z	-8.78524
▁writing	-8.78887
▁road	-8.78953
land	-8.79026
▁come	-8.79234
by	-8.7943
▁addition	-8.79567
▁creat	-8.79583
▁post	-8.80035
▁award	-8.80274
▁member	-8.80408
▁Air	-8.80416
▁killed	-8.80439
▁tropical	-8.80613
▁debut	-8.80626
▁fight	-8.80646
▁white	-8.80703
▁little	-8.80871
▁stage	-8.81032
taken	-8.81183
▁significant	-8.81204
▁look	-8.81255
▁complete	-8.81316
▁areas	-8.81466
ian	-8.8152
ally	-8.81794
▁peak	-8.81836
▁players	-8.8186
▁40	-8.81898
▁general	-8.82383
▁earlie	-8.82501
▁entire	-8.82644
▁involv	-8.82658
▁does	-8.82681
▁black	-8.82742
▁mm	-8.82773
▁!	-8.82817
▁28	-8.82946
▁face	-8.83101
▁serv	-8.83167
▁too	-8.83264
▁mi	-8.83303
▁miles	-8.83928
▁women	-8.83943
▁able	-8.84125
▁27	-8.84332
▁writer	-8.84481
▁night	-8.84577
▁decided	-8.84704
▁V	-8.85287
▁De	-8.85897
▁body	-8.86102
▁Royal	-8.86247
▁We	-8.86296
▁ground	-8.86328
▁action	-8.8636
▁provide	-8.86397
▁sold	-8.86438
▁House	-8.86449
▁feet	-8.86549
▁David	-8.8658
▁features	-8.86756
▁together	-8.86811
▁times	-8.87026
▁law	-8.87034
▁located	-8.87366
▁France	-8.87574
▁26	-8.87736
▁added	-8.87739
▁population	-8.87741
▁average	-8.87771
▁points	-8.87777
▁Michael	-8.88054
▁once	-8.88257
hind	-8.88578
▁important	-8.88734
el	-8.88965
▁site	-8.89043
▁limit	-8.89104
▁go	-8.89181
▁front	-8.89198
▁interest	-8.89384
▁co	-8.89558
▁non	-8.89754
▁completed	-8.90087
▁field	-8.90414
▁2004	-8.90463
ia	-8.90474
▁project	-8.9057
▁attempt	-8.90588
▁popular	-8.90692
rather	-8.90808
▁saw	-8.90821
▁move	-8.909
▁scene	-8.91027
▁c	-8.91064
▁en	-8.91243
▁leas	-8.91277
▁formed	-8.91353
▁consist	-8.91404
▁coast	-8.91491
▁playing	-8.91501
▁replac	-8.91667
▁believ	-8.91714
ar	-8.91841
ry	-8.92255
▁San	-8.92382
▁Great	-8.9262
▁construction	-8.92709
son	-8.92735
▁rest	-8.92759
▁event	-8.92856
▁2015	-8.92894
▁Some	-8.93267
▁case	-8.93296
▁free	-8.93426
ley	-8.9347
▁29	-8.93491
▁You	-8.93542
▁School	-8.93786
▁subsequent	-8.9408
▁rock	-8.94465
spite	-8.94561
▁heavy	-8.94758
▁put	-8.9493
▁my	-8.94987
▁party	-8.95365
▁Henry	-8.95373
▁guns	-8.95461
▁Robert	-8.95498
▁upon	-8.95631
▁lack	-8.95745
▁born	-8.95971
▁Battle	-8.96064
▁scored	-8.9651
▁2000	-8.96605
▁office	-8.9665
▁fourth	-8.96719
▁region	-8.96758
▁mid	-8.9684
▁Best	-8.96849
▁view	-8.96873
▁current	-8.9702
▁example	-8.97164
▁hit	-8.97212
▁base	-8.97299
▁rank	-8.97386
▁Other	-8.97433
mph	-8.97478
▁200	-8.9762
▁brought	-8.97723
▁Her	-8.97936
▁Music	-8.9798
▁continue	-8.97999
▁us	-8.98019
▁individual	-8.98159
▁extend	-8.98185
▁me	-8.98316
▁mother	-8.98408
ough	-8.9845
▁cost	-8.9861
▁visit	-8.98776
men	-8.98782
▁modern	-8.9881
▁chart	-8.98833
▁review	-8.98868
▁special	-8.98974
▁Washington	-8.99142
▁weeks	-8.99352
▁X	-8.99411
▁quick	-8.99731
▁working	-8.998
▁noted	-8.99833
▁month	-9.00344
▁500	-9.00485
▁European	-9.00661
▁wife	-9.00818
▁critics	-9.00992
▁Europe	-9.01021
▁discover	-9.01117
3	-9.01158
▁worked	-9.01183
▁troops	-9.01231
nd	-9.01293
▁La	-9.01509
ous	-9.01536
▁arm	-9.01653
▁2003	-9.01772
▁prais	-9.01854
▁novel	-9.01856
▁Follow	-9.01911
▁crew	-9.02354
▁agree	-9.02384
▁far	-9.02496
▁experience	-9.0266
▁Earl	-9.02711
▁island	-9.02762
▁President	-9.02871
▁generally	-9.02919
▁fail	-9.03189
▁launch	-9.03416
▁Black	-9.035
▁hurricane	-9.03575
▁Cup	-9.03691
▁Star	-9.0371
▁sound	-9.03929
▁love	-9.04041
▁First	-9.04083
▁director	-9.04291
▁works	-9.04302
▁Japan	-9.04665
▁victory	-9.04788
▁runs	-9.04981
▁Charles	-9.04986
▁positive	-9.05015
▁cause	-9.05046
▁gain	-9.05173
▁Paul	-9.05311
▁Two	-9.0535
▁soon	-9.05444
▁process	-9.05467
▁gun	-9.05636
▁opening	-9.05669
▁highway	-9.05729
▁fall	-9.06153
▁regard	-9.06264
▁accept	-9.06311
▁Me	-9.06714
ie	-9.06728
ary	-9.06855
▁sea	-9.06857
ish	-9.06885
▁events	-9.06939
using	-9.07121
▁Route	-9.07139
▁shot	-9.07235
▁usual	-9.07245
▁saying	-9.07356
▁goal	-9.07468
▁car	-9.07505
▁hours	-9.07731
▁regular	-9.07876
▁ever	-9.07967
▁room	-9.08126
▁length	-9.08204
▁designed	-9.08229
▁hand	-9.08341
▁studio	-9.08541
▁met	-9.08588
▁arriv	-9.08752
▁star	-9.08766
▁southern	-9.08801
▁court	-9.0887
▁possible	-9.08886
▁term	-9.09178
▁business	-9.09197
▁From	-9.09436
▁2001	-9.09512
▁International	-9.09514
▁available	-9.09595
▁White	-9.09839
▁31	-9.10215
▁training	-9.1025
ist	-9.10415
▁human	-9.10429
▁Thomas	-9.10691
▁Kingdom	-9.10694
▁figure	-9.10698
▁Navy	-9.10891
▁appearance	-9.10998
▁minutes	-9.11038
▁decision	-9.11131
A	-9.11245
▁center	-9.11538
side	-9.11609
x	-9.11752
▁lower	-9.12029
▁maintain	-9.12166
▁Hall	-9.12317
▁cast	-9.12318
▁contract	-9.12352
▁relationship	-9.12475
▁northern	-9.13
▁issue	-9.13009
▁Game	-9.13057
▁travel	-9.13113
▁league	-9.13207
ty	-9.1341
▁2002	-9.13476
▁Canada	-9.13702
▁difficult	-9.13846
▁Court	-9.14087
▁focus	-9.14137
▁personal	-9.14306
▁create	-9.14352
▁must	-9.14355
▁nine	-9.14375
▁central	-9.14411
▁round	-9.14498
▁introduc	-9.14568
▁find	-9.14817
▁taking	-9.14944
▁California	-9.15063
ta	-9.15109
ought	-9.15119
ch	-9.15281
▁immediate	-9.15439
▁voice	-9.16093
▁Award	-9.16153
▁clear	-9.16346
▁defeat	-9.16665
▁better	-9.16712
▁units	-9.16887
▁social	-9.17053
▁Red	-9.1735
▁church	-9.17505
▁Island	-9.17636
ve	-9.17668
▁size	-9.17746
▁commercial	-9.1777
▁Union	-9.17778
▁break	-9.17836
▁others	-9.17842
▁art	-9.17909
C	-9.17912
▁Christian	-9.18096
▁according	-9.18245
▁concern	-9.18303
▁hard	-9.18334
▁India	-9.18403
▁score	-9.1845
▁above	-9.18471
▁recording	-9.18517
▁outside	-9.18639
▁influence	-9.18655
D	-9.18679
▁beginning	-9.18891
▁Peter	-9.19117
▁told	-9.19137
▁relative	-9.19149
▁Smith	-9.19162
▁additional	-9.19186
▁pre	-9.1922
▁winds	-9.19293
▁1990	-9.19526
▁going	-9.19603
▁Richard	-9.19688
▁surface	-9.19805
▁ended	-9.20142
▁Company	-9.20189
▁section	-9.20254
▁response	-9.20392
▁spen	-9.20486
▁required	-9.20621
▁rate	-9.20718
▁give	-9.20823
▁space	-9.20935
▁interview	-9.2103
▁Indian	-9.2106
▁College	-9.21104
▁pressure	-9.21181
▁evidence	-9.21293
▁itself	-9.21306
▁sometime	-9.21401
▁anti	-9.21439
▁Sea	-9.21491
▁brother	-9.21568
▁elements	-9.21721
▁appoint	-9.21746
▁account	-9.21748
▁Germany	-9.22036
▁Act	-9.22115
▁village	-9.22258
£	-9.22409
▁develop	-9.22434
▁Force	-9.22436
▁High	-9.2253
▁prevent	-9.22563
▁person	-9.22574
▁idea	-9.22628
▁musical	-9.22979
▁keep	-9.23373
▁international	-9.2354
▁poor	-9.23564
▁UK	-9.23634
▁approach	-9.23836
▁election	-9.23969
▁Western	-9.24147
▁future	-9.24154
▁speed	-9.24196
▁intend	-9.2421
▁Hill	-9.24254
ra	-9.24442
▁recent	-9.24485
▁Times	-9.2473
▁plan	-9.24935
▁reviews	-9.24982
▁host	-9.25031
▁Church	-9.25043
▁serve	-9.25125
▁rule	-9.25205
▁program	-9.25266
▁female	-9.25381
▁football	-9.2543
▁whom	-9.25453
▁chose	-9.25565
▁NY	-9.25626
▁cut	-9.25807
▁police	-9.25885
▁magazine	-9.25968
▁Los	-9.2606
▁That	-9.26073
▁suffer	-9.26075
▁king	-9.26173
▁attend	-9.26199
across	-9.26212
▁fact	-9.26338
▁material	-9.26388
▁Championship	-9.26575
ine	-9.26616
espite	-9.2671
▁alread	-9.26784
▁loss	-9.26833
▁60	-9.26981
rd	-9.27007
▁1970	-9.27293
▁Most	-9.2732
▁bridge	-9.27334
▁report	-9.27358
▁f	-9.27439
▁carri	-9.27575
▁structure	-9.27724
▁western	-9.27774
▁1980	-9.27775
▁meeting	-9.27795
▁media	-9.27902
▁study	-9.27922
▁Britain	-9.28011
▁protect	-9.28147
▁cross	-9.2823
▁president	-9.28368
▁money	-9.28532
ment	-9.28686
▁bring	-9.28851
▁estimat	-9.28895
▁especial	-9.2893
▁Awards	-9.29031
▁Up	-9.29043
▁summer	-9.29052
▁fleet	-9.29294
▁Virginia	-9.29333
▁Later	-9.29449
▁red	-9.29546
▁past	-9.29552
▁question	-9.29576
▁produce	-9.29847
▁might	-9.30006
am	-9.3003
▁food	-9.30048
▁community	-9.30234
▁park	-9.30289
▁grow	-9.30488
▁radio	-9.30578
▁audience	-9.30612
▁select	-9.30657
▁1999	-9.30697
▁eastern	-9.30785
▁propos	-9.31129
▁Bay	-9.31132
▁My	-9.31154
▁deal	-9.31166
▁actual	-9.31174
▁conduct	-9.31196
▁rais	-9.31411
▁type	-9.31449
▁Final	-9.31474
▁date	-9.31536
▁market	-9.31598
▁unit	-9.31615
▁research	-9.31684
▁feature	-9.317
▁river	-9.31713
head	-9.31733
▁percent	-9.31903
▁exist	-9.32101
▁Brown	-9.32194
▁specific	-9.32227
▁Z	-9.32274
ance	-9.32334
▁earn	-9.32401
▁latter	-9.32426
▁leav	-9.32555
▁Jackson	-9.32779
ne	-9.32784
f	-9.32794
▁winning	-9.32916
▁deep	-9.33012
▁groups	-9.33048
▁Soviet	-9.33191
▁division	-9.33425
▁defeated	-9.33452
▁Grand	-9.33568
na	-9.3358
▁If	-9.33611
▁practice	-9.33676
▁referr	-9.33678
▁Rock	-9.3368
▁Roman	-9.33745
day	-9.33916
▁Edward	-9.34023
▁amount	-9.3416
▁separate	-9.34163
▁staff	-9.34197
ive	-9.34203
▁lines	-9.34286
▁daughter	-9.34302
▁brief	-9.34468
▁stay	-9.34506
▁states	-9.34623
▁students	-9.34675
▁Club	-9.34895
▁Spanish	-9.35061
▁seem	-9.35068
ter	-9.35096
age	-9.35103
▁movement	-9.35111
▁God	-9.35246
▁Association	-9.35717
▁destroyed	-9.35882
▁35	-9.36006
▁Love	-9.36096
▁overall	-9.36123
▁Party	-9.36267
▁1960	-9.36317
▁effects	-9.36436
▁course	-9.36528
ville	-9.36563
▁private	-9.36583
▁our	-9.36689
▁certain	-9.36907
▁language	-9.36976
ro	-9.36988
army	-9.37135
▁broadcast	-9.37205
▁professional	-9.37224
▁Chicago	-9.37246
▁running	-9.37298
▁Second	-9.37574
▁elect	-9.37625
et	-9.37636
▁natural	-9.37886
▁Lake	-9.38051
▁effect	-9.38063
▁affect	-9.38127
▁married	-9.38146
▁1998	-9.38296
▁Chinese	-9.38323
1	-9.38335
▁Council	-9.38419
▁t	-9.3848
▁producer	-9.38589
▁self	-9.38648
▁tell	-9.38682
▁Many	-9.38726
▁know	-9.38868
▁forward	-9.39139
▁display	-9.39175
▁traditional	-9.39222
▁Russian	-9.39358
▁scenes	-9.39424
▁Day	-9.39477
▁vote	-9.39731
▁Mary	-9.39889
▁critical	-9.39916
▁trial	-9.40252
▁planned	-9.40385
▁increasing	-9.40511
▁parts	-9.40638
▁effective	-9.4067
▁annual	-9.40671
▁longer	-9.40676
▁active	-9.40724
▁Johnson	-9.40763
▁80	-9.40805
▁compared	-9.40839
co	-9.40849
▁living	-9.41011
▁Pacific	-9.41022
▁approximately	-9.41032
▁higher	-9.41048
▁captured	-9.41064
▁fifth	-9.41166
▁child	-9.41261
▁themselves	-9.41275
▁commission	-9.41293
▁singer	-9.41303
▁operat	-9.41372
▁done	-9.41381
▁History	-9.41405
▁leader	-9.41408
▁related	-9.41491
▁tri	-9.41514
▁offer	-9.41748
▁fast	-9.41828
▁pair	-9.41893
▁Bill	-9.41921
▁Billboard	-9.41932
▁rights	-9.41994
▁centre	-9.42065
▁gold	-9.42085
▁friend	-9.42117
▁thus	-9.42215
il	-9.42217
▁test	-9.42305
▁fans	-9.42404
▁Dr	-9.42412
▁Canadian	-9.42413
▁manager	-9.42568
▁Re	-9.4257
▁woman	-9.42639
▁probab	-9.42904
▁coach	-9.4292
cross	-9.4298
▁pay	-9.43035
▁whether	-9.43075
▁dark	-9.43157
ford	-9.43303
▁Mark	-9.43318
time	-9.43416
▁think	-9.43449
▁learn	-9.43568
▁prior	-9.43687
▁300	-9.43702
▁Film	-9.43702
▁Lord	-9.43702
ri	-9.4378
▁leave	-9.43854
▁copies	-9.43856
▁Since	-9.43871
▁Squadron	-9.43979
▁typical	-9.4401
▁Atlantic	-9.44134
▁1997	-9.44147
▁location	-9.44228
▁soldiers	-9.44299
▁subject	-9.44299
▁Le	-9.44315
▁complex	-9.44341
▁lyrics	-9.44485
▁films	-9.44487
▁countries	-9.44664
▁shows	-9.44738
▁Queen	-9.44748
▁China	-9.44748
▁model	-9.44827
▁supported	-9.44834
▁Both	-9.44984
▁Florida	-9.45037
▁believe	-9.45091
▁cm	-9.451
▁watch	-9.45156
▁operations	-9.45387
▁Jack	-9.45409
▁Highway	-9.45494
▁demand	-9.45529
▁pilot	-9.45602
▁reduc	-9.45681
▁trade	-9.45697
▁request	-9.45822
▁fell	-9.45971
nother	-9.45984
▁via	-9.46067
▁Martin	-9.46103
▁target	-9.46265
ham	-9.46344
▁minute	-9.46351
▁inspir	-9.46398
▁stop	-9.46476
▁mixed	-9.46486
▁Italian	-9.46498
▁Texas	-9.46624
▁expand	-9.46635
▁So	-9.46931
▁portion	-9.4697
▁health	-9.46987
▁El	-9.47056
▁historian	-9.4706
▁stars	-9.47084
▁45	-9.47092
▁removed	-9.47175
▁always	-9.47184
▁ran	-9.47312
▁network	-9.47327
▁status	-9.47348
▁flight	-9.47636
▁Center	-9.4772
▁compos	-9.47962
▁advance	-9.4808
▁Green	-9.48349
▁wind	-9.48519
▁something	-9.48542
▁press	-9.48633
to	-9.48685
▁officers	-9.48813
▁carry	-9.48819
▁Africa	-9.48847
▁avoid	-9.48961
▁majority	-9.49159
▁tracks	-9.49258
▁refus	-9.49292
▁becom	-9.4943
▁got	-9.49481
▁issu	-9.49746
▁tons	-9.49796
▁problems	-9.49876
▁Year	-9.49916
▁hour	-9.49927
▁share	-9.50283
▁But	-9.50399
▁offered	-9.50418
▁script	-9.50459
▁Earth	-9.50562
▁nature	-9.50569
▁frequent	-9.50678
▁Don	-9.50844
▁access	-9.50844
▁teams	-9.50905
▁potential	-9.51054
▁plans	-9.51119
▁Empire	-9.51143
▁drive	-9.5122
▁Sir	-9.51279
▁metal	-9.51373
▁numero	-9.51397
▁culture	-9.5145
▁respectively	-9.51519
▁Central	-9.51576
▁buildings	-9.51678
▁1995	-9.51759
id	-9.51778
▁associat	-9.51807
▁impact	-9.51877
▁revealed	-9.51896
▁port	-9.51897
▁70	-9.51946
▁Angeles	-9.52008
▁grant	-9.5208
▁ball	-9.52083
▁III	-9.52115
▁episodes	-9.52152
▁territor	-9.52242
▁yet	-9.52415
▁color	-9.52584
▁minor	-9.52782
▁guitar	-9.52816
te	-9.52969
▁Tour	-9.52999
▁moving	-9.53023
▁terms	-9.53071
▁board	-9.53074
▁whole	-9.53102
▁Test	-9.53118
▁occurred	-9.53138
▁shown	-9.53582
▁upper	-9.53591
▁occur	-9.53609
▁Group	-9.53646
▁treat	-9.53736
▁transport	-9.53798
▁information	-9.53829
▁2016	-9.53858
ey	-9.54039
▁1996	-9.5405
▁slight	-9.54084
▁1950	-9.54173
▁depression	-9.54208
▁Greek	-9.54355
▁TV	-9.54379
wood	-9.54399
▁slow	-9.54579
▁operation	-9.54837
▁injur	-9.54874
▁legal	-9.549
▁defend	-9.54918
▁castle	-9.54983
▁goals	-9.55096
▁sister	-9.55102
▁conditions	-9.55129
▁Minister	-9.55285
▁direction	-9.55285
▁male	-9.55289
▁severe	-9.55357
▁services	-9.55396
B	-9.55423
▁key	-9.55515
▁letter	-9.55554
4	-9.55557
▁officer	-9.5569
▁word	-9.55747
▁independent	-9.55759
ches	-9.55764
▁border	-9.55806
▁industry	-9.5591
▁1994	-9.55937
w	-9.55952
▁Super	-9.55973
▁session	-9.5598
▁pop	-9.56076
▁Big	-9.56076
▁feel	-9.56103
▁double	-9.56149
da	-9.56196
▁Corps	-9.562
▁artist	-9.56233
▁situation	-9.56248
▁commander	-9.56428
▁heavi	-9.56452
▁00	-9.56455
▁primar	-9.5648
▁attention	-9.56545
▁assigned	-9.5657
it	-9.56692
▁plant	-9.56759
▁Team	-9.56771
▁Old	-9.56804
▁economic	-9.56818
▁standard	-9.56871
ll	-9.56929
▁commented	-9.57038
▁Sever	-9.57063
▁DVD	-9.57069
▁attempted	-9.57184
the	-9.57212
▁yards	-9.57223
▁expected	-9.57341
▁moment	-9.57388
▁education	-9.5747
▁90	-9.57548
▁capital	-9.57614
one	-9.57926
▁dance	-9.58055
▁sales	-9.58099
▁competition	-9.58179
▁Stone	-9.58251
▁damag	-9.58261
▁Michigan	-9.5843
▁Sun	-9.58567
▁mention	-9.58741
▁closed	-9.58868
é	-9.58877
▁retain	-9.58896
▁issues	-9.58897
▁below	-9.58929
▁author	-9.58975
▁Be	-9.59004
▁1940	-9.59006
▁horse	-9.59033
▁75	-9.59077
▁fish	-9.59168
▁Wales	-9.59218
▁And	-9.59509
▁distance	-9.59526
▁sell	-9.59598
▁concept	-9.5967
▁giving	-9.59702
ma	-9.59724
▁dead	-9.59748
▁declared	-9.59796
▁Time	-9.59815
▁marriage	-9.59895
▁hop	-9.59917
▁Congress	-9.59945
▁Hot	-9.59945
▁African	-9.59949
▁religious	-9.60004
▁middle	-9.60005
▁resident	-9.60069
▁mass	-9.60115
▁ability	-9.60126
▁Go	-9.60128
▁Tom	-9.60551
▁science	-9.60691
ling	-9.60706
▁draft	-9.6076
▁rapid	-9.6076
▁Major	-9.60762
▁normal	-9.60842
▁plot	-9.60884
la	-9.60885
▁captain	-9.60893
▁Scott	-9.6098
▁matches	-9.61042
▁Frank	-9.61096
▁ultimate	-9.61105
▁nation	-9.61113
▁decade	-9.61321
▁heart	-9.61386
▁Over	-9.61422
▁serious	-9.61456
▁describe	-9.61519
▁friends	-9.61542
▁Co	-9.61622
▁couple	-9.61776
▁appears	-9.61783
▁district	-9.61862
▁1992	-9.61989
▁financial	-9.62159
▁energy	-9.62307
▁takes	-9.62315
▁conflict	-9.62439
▁edition	-9.62476
▁adopt	-9.62769
▁movie	-9.62895
ler	-9.63019
▁Fox	-9.63024
▁contact	-9.63266
field	-9.6345
▁constructed	-9.63736
▁32	-9.63807
▁vocals	-9.63843
▁stone	-9.63867
▁temperature	-9.64083
▁attacks	-9.64089
com	-9.64136
▁chief	-9.64273
▁kind	-9.64461
▁effort	-9.64494
▁Mexico	-9.64513
▁call	-9.64577
▁Like	-9.64607
▁source	-9.64696
▁college	-9.64828
▁1930	-9.65114
▁screen	-9.65118
▁promot	-9.65162
▁defense	-9.65199
▁Bridge	-9.65366
▁transferr	-9.65388
▁theme	-9.65522
▁physical	-9.65574
▁combat	-9.65661
▁Madonna	-9.65814
▁collect	-9.65814
▁b	-9.65842
▁argu	-9.65861
ate	-9.65874
▁twenty	-9.65878
▁extra	-9.65893
▁Line	-9.6597
▁1993	-9.66035
▁cyclone	-9.66041
▁Chris	-9.66046
ant	-9.66092
▁stating	-9.66136
▁1991	-9.66163
▁oil	-9.66231
▁Jones	-9.66322
▁Service	-9.66346
▁fund	-9.66397
▁p	-9.66414
▁Scotland	-9.66626
▁engine	-9.66823
▁concert	-9.66984
▁hold	-9.67013
▁Department	-9.67092
▁add	-9.67093
▁escape	-9.67212
▁yard	-9.67442
▁receive	-9.67462
▁means	-9.67477
▁Hurricane	-9.67483
▁Zealand	-9.67605
▁makes	-9.67626
▁dropp	-9.67651
▁morning	-9.67653
▁executive	-9.67719
▁represent	-9.67813
▁Their	-9.67819
▁charge	-9.6782
▁build	-9.67887
▁Three	-9.67954
▁wall	-9.67981
▁responsibl	-9.68177
▁foot	-9.68181
▁performances	-9.68298
▁inside	-9.68316
▁mount	-9.68365
▁Fort	-9.68469
▁managed	-9.685
▁wear	-9.68625
▁Prince	-9.68626
▁Infantry	-9.68692
▁ending	-9.68731
▁Creek	-9.68758
kept	-9.68803
▁400	-9.68911
▁Catholic	-9.69088
▁Simpson	-9.69089
▁mission	-9.69141
▁notes	-9.69279
▁variety	-9.69481
▁Life	-9.69542
▁depict	-9.69651
▁era	-9.69699
▁Lee	-9.6989
▁arrest	-9.69981
▁Committee	-9.70222
▁presented	-9.70295
▁square	-9.704
▁speak	-9.70535
▁meant	-9.70543
line	-9.70588
ium	-9.70605
▁search	-9.70751
ier	-9.7078
▁Records	-9.70862
▁divid	-9.70942
▁v	-9.70998
▁bad	-9.71024
▁oppos	-9.71055
▁tower	-9.71145
▁Battalion	-9.71152
▁Cross	-9.71232
▁efforts	-9.71237
▁marked	-9.71288
▁formation	-9.7144
▁wing	-9.71508
▁box	-9.71586
▁Latin	-9.71606
▁train	-9.71608
▁hundred	-9.71654
ner	-9.71832
▁portray	-9.71878
▁begins	-9.72075
▁piece	-9.72088
▁presence	-9.72132
▁sex	-9.72169
▁Society	-9.72269
▁engage	-9.72328
▁books	-9.72338
▁Post	-9.72339
▁1942	-9.72396
▁camp	-9.72422
▁content	-9.72584
▁federal	-9.72598
▁collection	-9.72608
▁scale	-9.72635
▁Southern	-9.7275
be	-9.72824
▁write	-9.72992
▁Saint	-9.7303
▁speech	-9.73038
▁levels	-9.73165
▁enjoy	-9.73216
▁Stephen	-9.73247
▁primari	-9.73343
▁viewers	-9.73347
▁kill	-9.73414
▁seat	-9.73429
▁Live	-9.73431
▁forest	-9.73434
▁metres	-9.73445
▁cit	-9.73622
▁words	-9.73625
▁winter	-9.73634
▁Oxford	-9.73648
▁extreme	-9.73675
▁Louis	-9.73684
ka	-9.73714
▁blood	-9.73783
▁Captain	-9.73786
▁enemy	-9.73884
▁Under	-9.73904
den	-9.73917
▁traffic	-9.73918
▁storie	-9.73962
▁records	-9.73988
▁value	-9.74023
▁actor	-9.74299
ities	-9.74422
▁Republican	-9.74425
▁read	-9.74445
board	-9.74505
▁multiple	-9.74529
▁Chief	-9.74557
▁link	-9.7464
▁Boston	-9.74644
▁Mr	-9.74687
▁concluded	-9.7473
▁inch	-9.7477
▁royal	-9.74817
▁scoring	-9.7482
▁property	-9.74824
▁Harrison	-9.74876
▁Manchester	-9.74991
▁risk	-9.75046
▁meaning	-9.75086
▁prominent	-9.75144
▁setting	-9.75222
ol	-9.75247
ecause	-9.75264
os	-9.75297
▁Before	-9.75398
▁weaken	-9.75462
▁rating	-9.75487
▁positions	-9.75494
▁extensive	-9.75497
▁Brigade	-9.75525
▁job	-9.75595
▁cases	-9.7578
at	-9.75822
▁Vietnam	-9.75965
▁observed	-9.76078
▁Long	-9.76103
ten	-9.7625
▁Regiment	-9.76306
▁1944	-9.76326
▁tournament	-9.7642
▁Little	-9.76492
▁strength	-9.76512
▁rough	-9.76529
▁i	-9.76575
▁33	-9.76623
▁things	-9.76649
▁reception	-9.76652
▁paid	-9.76808
go	-9.76913
▁quarter	-9.76914
▁Joseph	-9.76953
▁invasion	-9.77007
▁sense	-9.7707
truck	-9.77157
▁companies	-9.77237
▁convert	-9.77482
▁meet	-9.77506
▁onto	-9.77512
▁historical	-9.77587
▁bill	-9.77606
▁hospital	-9.77891
▁Series	-9.77897
▁animals	-9.77916
▁say	-9.77932
▁document	-9.77933
▁blue	-9.7802
▁powerful	-9.78052
town	-9.78098
▁broke	-9.78145
ur	-9.78172
▁parents	-9.78194
▁reflect	-9.78231
quality	-9.78265
5	-9.78344
▁candidate	-9.78351
▁BBC	-9.78447
▁reject	-9.78471
▁identifi	-9.78584
▁participat	-9.78757
▁More	-9.78826
▁maximum	-9.78847
▁block	-9.78896
▁innings	-9.78901
ha	-9.78987
▁criticiz	-9.79024
▁Academy	-9.79272
▁schools	-9.79289
▁1920	-9.79425
▁1945	-9.7944
▁policy	-9.7948
▁Middle	-9.79561
▁societ	-9.79566
▁your	-9.7959
▁Young	-9.79722
▁Entertainment	-9.79743
▁Museum	-9.79804
▁lot	-9.79816
▁Paris	-9.79817
▁1941	-9.79941
▁designated	-9.80016
▁Bar	-9.80127
▁pick	-9.80159
ul	-9.80165
▁activity	-9.80384
▁opportunit	-9.80469
▁Italy	-9.80562
▁discuss	-9.80595
▁aid	-9.80646
▁Home	-9.80656
▁combined	-9.80661
▁thousand	-9.80662
ge	-9.8069
▁capture	-9.80732
▁label	-9.80847
▁Jim	-9.80962
▁fill	-9.80973
▁battleship	-9.81213
ga	-9.81229
ke	-9.81278
▁Williams	-9.81325
▁contrast	-9.81347
▁background	-9.81357
▁reference	-9.81468
▁Avenue	-9.8156
▁calling	-9.81588
▁foreign	-9.81698
▁prov	-9.81759
▁Port	-9.81854
▁nominated	-9.81936
▁Joe	-9.8195
▁naval	-9.81962
▁weather	-9.82146
▁succeed	-9.82193
▁talk	-9.82237
▁36	-9.82296
▁names	-9.82322
▁treatment	-9.82387
▁attempts	-9.82411
▁Ben	-9.82424
▁ice	-9.82493
▁Ireland	-9.82511
▁husband	-9.82541
▁numbers	-9.82588
ad	-9.82617
ory	-9.82627
▁flow	-9.82634
▁incident	-9.82733
▁Games	-9.82788
▁confirmed	-9.82967
▁raid	-9.83166
▁push	-9.83185
V	-9.83235
▁Show	-9.83302
▁1989	-9.83339
▁advanc	-9.83449
▁Victoria	-9.83487
▁image	-9.83544
▁forms	-9.83588
▁Republic	-9.8359
v	-9.83611
▁native	-9.83613
▁surrounding	-9.8376
▁explained	-9.83791
no	-9.83804
▁don	-9.83819
▁1943	-9.83919
▁begin	-9.83949
▁Parliament	-9.83994
cy	-9.84005
▁floor	-9.84018
▁sixth	-9.8403
▁weight	-9.84072
ir	-9.84081
▁reason	-9.84112
ent	-9.84128
▁rise	-9.8421
▁county	-9.84234
▁student	-9.84286
ak	-9.84369
ard	-9.84404
▁Har	-9.84439
▁150	-9.845
▁sexual	-9.84559
▁ceremon	-9.84591
▁37	-9.84676
▁coming	-9.84744
▁website	-9.84781
▁seek	-9.8489
▁sources	-9.84933
▁Tropical	-9.8497
▁soundtrack	-9.84999
▁secret	-9.85053
▁cities	-9.85177
▁Valley	-9.85186
▁attract	-9.85287
▁stand	-9.85382
mi	-9.85412
ney	-9.85431
▁true	-9.85433
▁organization	-9.85507
▁expressed	-9.85516
▁Art	-9.85523
▁owned	-9.8557
▁sides	-9.85656
▁passing	-9.85681
▁matter	-9.85737
▁agreement	-9.85832
▁Dutch	-9.85936
▁visual	-9.86072
ov	-9.86074
▁formal	-9.86108
▁Alli	-9.86132
▁artists	-9.86154
ko	-9.86182
▁becomes	-9.86199
▁ring	-9.86284
▁kg	-9.86292
▁reign	-9.86298
▁38	-9.86311
▁Sam	-9.86458
▁artillery	-9.86471
▁theory	-9.86526
▁armor	-9.86568
▁save	-9.86622
▁count	-9.86672
▁49	-9.86697
▁Football	-9.86788
▁Through	-9.86788
▁actions	-9.86805
▁edge	-9.87094
▁Carolina	-9.87122
▁supplie	-9.8721
▁failure	-9.87397
ca	-9.8742
▁price	-9.87422
▁improv	-9.87436
▁negative	-9.87509
▁appeal	-9.87522
▁Governor	-9.87599
▁alone	-9.87607
▁says	-9.87653
▁apparent	-9.87726
▁coin	-9.87739
▁Van	-9.87742
▁senior	-9.87758
▁studies	-9.87806
▁detail	-9.87826
▁contribut	-9.87875
▁What	-9.88031
▁Fleet	-9.88232
▁kilometre	-9.88287
▁beat	-9.88314
▁weapons	-9.88432
▁equipment	-9.88496
▁achiev	-9.88632
▁Korean	-9.88635
▁birth	-9.88637
▁spread	-9.88743
▁assist	-9.88755
▁green	-9.88879
▁machine	-9.8906
▁34	-9.89108
▁injury	-9.89199
▁represented	-9.89256
▁Though	-9.8927
▁mind	-9.89367
▁guest	-9.89396
▁growth	-9.89446
▁Top	-9.89471
▁lane	-9.89486
▁contemporary	-9.895
▁reviewer	-9.89509
▁Bond	-9.89562
▁Duke	-9.89619
▁Homer	-9.89643
▁medical	-9.89683
▁officials	-9.89763
▁fuel	-9.8978
▁except	-9.89785
▁destroy	-9.89819
aught	-9.89856
▁fired	-9.89866
▁Northern	-9.89957
▁thick	-9.89989
ese	-9.90002
▁care	-9.90016
▁laid	-9.9006
▁championship	-9.90233
▁Castle	-9.90243
▁Prime	-9.90265
▁capacit	-9.90266
▁Government	-9.90267
▁Do	-9.90303
ab	-9.90336
▁big	-9.90582
berg	-9.90656
▁Wood	-9.90702
▁District	-9.90826
▁governor	-9.90847
▁problem	-9.90957
▁offensive	-9.91007
▁activities	-9.91064
▁Storm	-9.91163
▁Se	-9.91278
▁spring	-9.91352
ina	-9.91609
▁prisoner	-9.91658
▁Operation	-9.91737
▁Admiral	-9.91875
▁degree	-9.919
▁Scottish	-9.91969
▁killing	-9.92056
▁settlement	-9.9209
▁1987	-9.92108
▁aspect	-9.9212
▁gas	-9.92126
▁appearances	-9.92144
▁worldwide	-9.9219
▁connect	-9.92309
N	-9.92327
▁1988	-9.92343
do	-9.92408
▁Short	-9.92472
▁interchange	-9.92488
▁boat	-9.92543
▁la	-9.92587
▁Fantasy	-9.92589
▁sequence	-9.92676
▁railway	-9.92736
▁Blue	-9.92737
▁proposal	-9.92758
▁Background	-9.92774
ship	-9.92813
ot	-9.9294
▁trying	-9.92985
grew	-9.93002
▁sail	-9.93035
▁rainfall	-9.93111
▁organiz	-9.93124
▁famous	-9.93132
ti	-9.9314
▁fine	-9.93187
▁doing	-9.93237
▁universit	-9.93386
wise	-9.93401
▁composition	-9.93443
▁eye	-9.93542
▁tail	-9.93606
▁flag	-9.93635
▁600	-9.9364
▁twice	-9.93651
▁Polish	-9.93738
▁Men	-9.93777
well	-9.93781
▁supply	-9.93855
ki	-9.93878
▁plays	-9.9388
▁pieces	-9.94002
▁bar	-9.94027
▁newspaper	-9.94091
ba	-9.94103
▁Senate	-9.94113
▁Chart	-9.9421
▁acre	-9.94211
▁spend	-9.94292
ful	-9.94377
▁consecutive	-9.94383
▁billion	-9.94393
▁Christmas	-9.94418
▁therefore	-9.9443
▁Eastern	-9.94443
▁drama	-9.94456
▁Festival	-9.94537
▁opinion	-9.94583
▁expedition	-9.94623
▁Mike	-9.94668
▁progress	-9.94697
▁g	-9.94711
▁multi	-9.94742
▁Studios	-9.94754
▁estate	-9.94847
▁trees	-9.9488
▁Ocean	-9.94894
▁birds	-9.95066
▁Wilson	-9.95122
losing	-9.95124
▁Pennsylvania	-9.95206
▁herself	-9.95231
▁Tech	-9.95233
▁expansion	-9.95379
▁leaders	-9.95424
▁Taylor	-9.95536
ell	-9.95571
▁squadron	-9.9558
ni	-9.95626
▁simply	-9.95672
water	-9.95707
▁Light	-9.95708
▁brown	-9.95891
hile	-9.95909
▁condition	-9.96073
j	-9.96093
▁flood	-9.96098
▁assault	-9.96098
▁BC	-9.96178
▁storyline	-9.96186
▁Mount	-9.9621
▁1986	-9.96251
▁crime	-9.96298
▁Alexander	-9.96367
▁leg	-9.96384
▁nothing	-9.96402
▁wounded	-9.96405
▁48	-9.96406
▁55	-9.96432
▁authority	-9.96499
▁firm	-9.96582
▁passe	-9.9659
coming	-9.96603
▁camera	-9.96605
▁Due	-9.96644
▁Each	-9.96729
▁Song	-9.9687
▁deck	-9.9689
▁Bo	-9.96899
▁unknown	-9.96909
▁silver	-9.96926
▁encounter	-9.96945
▁Of	-9.96997
H	-9.97017
▁simple	-9.97136
▁versions	-9.9732
ek	-9.97335
▁northeast	-9.97349
▁Will	-9.97386
▁opposition	-9.97488
▁workers	-9.97516
way	-9.97544
▁environment	-9.97554
▁fiction	-9.97569
▁standing	-9.9758
▁disease	-9.97635
▁favor	-9.97646
▁Civil	-9.97646
▁Gold	-9.97683
▁council	-9.97928
▁tax	-9.98062
▁fellow	-9.98072
▁mean	-9.98094
▁element	-9.98133
▁throw	-9.98165
▁shape	-9.98192
▁adapt	-9.98239
▁Night	-9.98255
more	-9.9829
▁heard	-9.98306
▁paper	-9.98366
▁threat	-9.98387
▁honor	-9.98409
▁tree	-9.98452
▁basis	-9.98477
▁civil	-9.98506
▁Reception	-9.98535
lo	-9.98557
▁walk	-9.98558
▁serving	-9.98644
▁budget	-9.98676
▁vocal	-9.98679
▁Production	-9.98699
▁walls	-9.98729
▁starr	-9.98872
▁purpose	-9.98875
▁murder	-9.98883
▁suit	-9.98951
▁Irish	-9.98974
▁shar	-9.98985
▁Further	-9.98998
▁Institute	-9.99079
▁sustain	-9.99121
▁shift	-9.99185
▁crossing	-9.99217
▁fear	-9.99231
▁Doctor	-9.9932
▁leaves	-9.99447
▁pull	-9.99559
lin	-9.9957
▁message	-9.99609
▁Harry	-9.99659
▁purchas	-9.99705
▁administration	-9.99769
▁Spain	-9.998
▁64	-9.99813
▁task	-9.99863
▁Jersey	-9.99896
ig	-9.99913
▁broad	-9.99941
▁abandoned	-9.99966
▁flying	-10.0006
▁reports	-10.0009
▁criticism	-10.0019
yond	-10.0023
▁respect	-10.0024
▁Not	-10.0036
▁sub	-10.0039
▁Coast	-10.0042
▁protest	-10.0044
▁systems	-10.0046
▁northwest	-10.0047
M	-10.0056
▁rival	-10.0057
▁trip	-10.0063
▁convince	-10.0069
▁possibl	-10.0075
▁girl	-10.0078
▁unique	-10.0078
▁carrier	-10.0091
▁1939	-10.0105
▁creation	-10.0111
▁Bob	-10.0111
ial	-10.0112
ya	-10.0113
▁influenc	-10.012
▁Four	-10.0133
▁hands	-10.0134
▁choice	-10.0135
▁bodies	-10.0138
▁narrow	-10.0139
▁crash	-10.0149
▁Ka	-10.0154
released	-10.0159
▁Su	-10.0172
im	-10.0173
▁retreat	-10.0174
▁recogniz	-10.0174
▁Elizabeth	-10.0177
▁split	-10.0179
▁province	-10.019
▁committee	-10.0199
▁digital	-10.0207
ite	-10.0207
▁animal	-10.0212
▁Arthur	-10.0218
▁function	-10.0219
▁phase	-10.022
▁Commission	-10.0222
▁Field	-10.0224
▁65	-10.0228
▁fan	-10.0235
▁results	-10.024
▁advantage	-10.0242
▁canno	-10.0244
▁n	-10.0245
▁actors	-10.0245
▁here	-10.0251
▁torpedo	-10.0253
▁cultural	-10.0255
▁retired	-10.0256
▁article	-10.0256
house	-10.0259
▁data	-10.026
▁creating	-10.0261
▁warning	-10.0263
▁inform	-10.0266
▁Ra	-10.0269
▁draw	-10.0272
▁47	-10.0282
▁stations	-10.0289
▁w	-10.029
▁1985	-10.0295
▁1968	-10.0302
▁selection	-10.0305
▁producers	-10.0314
▁Board	-10.0315
▁necessary	-10.0322
▁pro	-10.0325
▁personnel	-10.0329
▁horses	-10.0331
▁Meanw	-10.0331
▁text	-10.0336
▁dedicat	-10.0336
▁bit	-10.0347
▁twelve	-10.0348
▁wave	-10.0352
▁Ten	-10.0357
▁address	-10.0373
▁gross	-10.0376
▁leadership	-10.0377
▁Also	-10.0381
▁surrender	-10.0382
6	-10.0382
▁rain	-10.0386
bo	-10.0386
▁accompani	-10.0393
▁Ohio	-10.0404
▁repeated	-10.0407
▁management	-10.0412
▁threaten	-10.0416
▁Point	-10.0419
▁infantry	-10.0425
▁categor	-10.0432
▁counter	-10.0432
au	-10.0443
▁Walter	-10.0443
▁Order	-10.0448
▁conference	-10.0451
▁parallel	-10.0455
▁arms	-10.0459
▁wait	-10.0459
▁Secretary	-10.0459
G	-10.0467
▁claims	-10.0471
▁rear	-10.0477
▁height	-10.0478
▁peace	-10.0491
▁39	-10.0494
▁System	-10.0497
haps	-10.0498
▁Town	-10.0498
▁Its	-10.0499
▁broken	-10.05
▁ancient	-10.0501
▁comed	-10.0511
▁1984	-10.0513
▁reduce	-10.0516
▁landing	-10.0526
▁42	-10.0533
▁Georgia	-10.0534
▁composer	-10.0535
▁permanent	-10.0537
▁Philadelphia	-10.0542
▁motion	-10.0554
▁Islands	-10.0558
▁battalion	-10.0559
▁mile	-10.0563
▁reveal	-10.0574
▁perfect	-10.0575
▁franchise	-10.0575
▁holding	-10.0576
▁52	-10.0576
▁alternative	-10.0579
▁arrival	-10.0588
▁defence	-10.0589
▁miss	-10.0596
▁contest	-10.0601
▁acquired	-10.0609
▁Cambridge	-10.0613
▁MD	-10.0614
▁critic	-10.0623
▁Andrew	-10.0625
▁Or	-10.0629
▁tradition	-10.0631
▁newly	-10.0635
▁planet	-10.0637
▁driver	-10.064
▁Never	-10.064
▁Player	-10.0641
▁aim	-10.0649
▁occasional	-10.0661
▁sports	-10.0663
▁investigation	-10.0667
▁adult	-10.0672
▁Pro	-10.0675
▁seventh	-10.0675
▁spot	-10.0687
▁authorities	-10.0695
▁Grant	-10.0697
▁Y	-10.0698
▁solo	-10.07
▁semi	-10.0705
▁centuries	-10.0718
▁zone	-10.0718
▁Russia	-10.0719
▁defensive	-10.0723
▁genu	-10.0725
▁1967	-10.0726
▁crowd	-10.0728
▁exchange	-10.073
▁People	-10.0731
▁headquarters	-10.0736
▁Ko	-10.0743
▁recommend	-10.0747
▁improve	-10.0756
▁arrange	-10.0757
▁Development	-10.0758
▁Sa	-10.0761
▁vehicles	-10.0764
▁41	-10.0765
▁bomb	-10.0771
▁breed	-10.0772
▁affair	-10.0774
▁Square	-10.078
lived	-10.0786
▁determined	-10.0789
▁occupi	-10.0791
▁families	-10.0794
▁Among	-10.0796
▁Ottoman	-10.0796
▁household	-10.0798
▁Liverpool	-10.0799
▁800	-10.0806
▁security	-10.0807
▁controlled	-10.0811
▁computer	-10.0813
▁street	-10.0816
▁Nintendo	-10.0837
▁Lewis	-10.0845
▁lives	-10.0846
▁46	-10.0849
▁refer	-10.0849
gen	-10.0854
▁prison	-10.0856
▁Law	-10.0856
▁Columbia	-10.0863
▁turret	-10.0864
ang	-10.0865
▁econom	-10.0873
▁temple	-10.0882
▁replace	-10.0883
▁Lieutenant	-10.0896
▁dollar	-10.0898
▁Additional	-10.0902
▁Office	-10.0905
▁protection	-10.0905
▁branch	-10.0907
▁declin	-10.0908
▁emerg	-10.091
▁Bell	-10.0913
▁singing	-10.0915
▁hair	-10.0925
▁ideas	-10.0932
▁Asia	-10.0933
▁guard	-10.0937
▁piano	-10.0937
▁shooting	-10.094
▁plants	-10.0942
▁paint	-10.0944
▁Turk	-10.0949
▁Ne	-10.0961
▁gradual	-10.0975
▁thing	-10.0983
▁Daniel	-10.0987
▁steam	-10.0992
▁schedul	-10.0996
▁1983	-10.0999
▁Olympic	-10.1003
▁Christ	-10.1006
▁farm	-10.1007
▁mountain	-10.101
▁hope	-10.101
▁Gulf	-10.1011
▁intensit	-10.1011
li	-10.1012
▁Un	-10.1013
von	-10.1018
▁rare	-10.1019
▁brigade	-10.1019
▁follows	-10.1022
▁Jewish	-10.1025
▁debate	-10.1029
▁SR	-10.1039
▁nuclea	-10.1044
ized	-10.1045
▁comic	-10.1046
▁Francisco	-10.1048
▁Anderson	-10.1052
▁iron	-10.1052
▁Ma	-10.1057
▁mouth	-10.1067
▁1964	-10.107
▁Railway	-10.1075
▁Miller	-10.1078
▁1969	-10.1084
▁flooding	-10.1092
▁43	-10.1109
P	-10.1109
ut	-10.1113
▁indicate	-10.1113
▁fresh	-10.1118
▁let	-10.1118
R	-10.1121
▁fair	-10.1122
▁Carey	-10.1123
▁Li	-10.1124
▁Davis	-10.1129
▁44	-10.1131
▁renam	-10.1167
▁Emperor	-10.1168
▁1914	-10.1173
▁Good	-10.1176
▁Americans	-10.1182
▁cap	-10.1185
▁Conference	-10.1189
▁PlayStation	-10.1193
▁1918	-10.1198
▁HMS	-10.1201
▁120	-10.1202
▁print	-10.1207
▁volume	-10.1209
▁chance	-10.1211
▁Steve	-10.1212
▁1982	-10.1225
▁Brian	-10.1227
▁CD	-10.1234
▁1971	-10.1238
▁supporter	-10.1244
▁depend	-10.1245
ac	-10.1247
▁rail	-10.1254
E	-10.1262
▁1966	-10.1265
▁1972	-10.1277
▁Jean	-10.1281
▁1979	-10.129
▁promotion	-10.1299
▁facilities	-10.1305
▁install	-10.1313
io	-10.1317
▁happen	-10.1323
▁principal	-10.1328
▁constant	-10.1332
▁cell	-10.1336
▁weak	-10.1345
▁notable	-10.1346
▁product	-10.135
▁escort	-10.1355
mon	-10.1357
▁department	-10.136
▁publication	-10.136
▁types	-10.1364
▁Q	-10.1368
▁accident	-10.137
▁drawn	-10.1378
▁core	-10.1379
▁1965	-10.1386
mo	-10.1392
▁submarine	-10.1392
▁cold	-10.1396
▁gives	-10.1396
▁reaction	-10.1397
▁roads	-10.1398
ja	-10.1399
▁dai	-10.1399
em	-10.1402
▁NHL	-10.1405
▁dress	-10.1408
▁intersection	-10.1417
▁unusual	-10.1417
▁Indiana	-10.1421
▁fit	-10.1429
F	-10.1437
▁lay	-10.1442
▁fruit	-10.1443
▁surprise	-10.1446
▁1975	-10.1447
▁platform	-10.1448
▁analysis	-10.145
▁singles	-10.1456
▁combination	-10.1461
vi	-10.1462
▁yellow	-10.1462
▁steel	-10.1463
▁51	-10.1463
▁arrive	-10.1465
bury	-10.1465
▁symbol	-10.1468
▁purchase	-10.147
▁promote	-10.1483
▁pitch	-10.1484
▁Con	-10.1485
▁Original	-10.1488
▁Bowl	-10.1491
▁strike	-10.1492
▁heat	-10.1493
sen	-10.1494
▁hir	-10.1501
▁defin	-10.1502
▁Bank	-10.1513
▁Jr	-10.1524
why	-10.1528
▁Hollywood	-10.153
bound	-10.1536
▁religion	-10.1538
▁try	-10.1543
▁1974	-10.1543
▁lap	-10.1556
▁table	-10.1566
▁decline	-10.1569
▁entrance	-10.1572
▁assistant	-10.1573
▁News	-10.1575
▁cricket	-10.1577
▁1973	-10.1598
▁Station	-10.1601
▁climb	-10.1606
▁Democratic	-10.1608
▁themes	-10.1609
▁editor	-10.1618
▁Singapore	-10.1618
▁finds	-10.1623
▁bank	-10.1628
▁Rose	-10.1642
▁casualties	-10.1645
▁Between	-10.1649
▁flat	-10.165
▁islands	-10.1657
▁Supreme	-10.166
▁Disney	-10.1666
▁1976	-10.1686
▁Way	-10.1686
▁Press	-10.1687
▁tend	-10.1693
mer	-10.1696
▁Land	-10.17
gun	-10.1705
▁locations	-10.1716
▁Lady	-10.1716
▁joint	-10.172
▁Mar	-10.1726
▁painting	-10.1727
▁Wall	-10.173
▁boats	-10.1733
▁domestic	-10.1737
▁agent	-10.1744
▁journalist	-10.1747
▁Di	-10.1758
▁approved	-10.176
▁programme	-10.1763
quite	-10.1765
▁Colonel	-10.1769
▁depart	-10.1778
▁Can	-10.1786
▁Out	-10.1786
▁Mac	-10.1796
▁Dan	-10.1796
stone	-10.1801
▁eyes	-10.1808
▁losses	-10.181
▁Bart	-10.1811
▁basic	-10.1811
▁decide	-10.1814
ability	-10.1815
▁disc	-10.1816
knew	-10.1816
▁row	-10.1819
▁literature	-10.1823
▁Women	-10.1827
▁electric	-10.1828
▁easi	-10.1831
▁exact	-10.1832
▁Daily	-10.1832
drew	-10.1835
▁poem	-10.1836
á	-10.1837
▁Cape	-10.184
me	-10.1844
▁boy	-10.1846
▁path	-10.1849
▁Muslim	-10.1853
▁trains	-10.1858
ana	-10.1867
▁garden	-10.1869
▁kick	-10.187
▁Matt	-10.187
▁End	-10.1877
ger	-10.1878
▁Beyoncé	-10.1881
▁Ed	-10.1882
▁reform	-10.1887
▁unsuccessful	-10.1888
▁unlike	-10.1889
▁secure	-10.1893
▁roll	-10.1901
▁Book	-10.1903
▁Special	-10.1904
▁urban	-10.1905
▁technology	-10.1908
▁goes	-10.1911
▁Pre	-10.1912
▁95	-10.1914
▁resistance	-10.1917
ji	-10.1918
▁250	-10.1919
▁prepared	-10.1924
▁calls	-10.1925
▁reputation	-10.1932
▁Summer	-10.1934
ah	-10.1935
▁introduction	-10.1941
▁habitat	-10.1955
▁responsibilit	-10.1958
▁proceed	-10.1963
va	-10.197
▁grade	-10.1989
▁Who	-10.199
▁sequel	-10.1991
▁fashion	-10.1993
older	-10.1997
▁wor	-10.1998
▁SS	-10.2004
▁Clark	-10.2004
▁turns	-10.2007
▁gett	-10.2018
▁Kentucky	-10.202
▁scientific	-10.2031
▁1946	-10.2031
▁1981	-10.2036
▁straight	-10.2039
▁roles	-10.2039
▁store	-10.2045
▁albums	-10.2051
K	-10.2053
▁fort	-10.2062
▁Airport	-10.2068
▁freeway	-10.2068
▁popularity	-10.2069
▁Per	-10.2075
▁seconds	-10.208
▁Lincoln	-10.2082
ster	-10.2084
▁method	-10.2086
der	-10.2094
▁Am	-10.2096
▁object	-10.2101
▁Norway	-10.2104
▁extension	-10.2113
▁channel	-10.212
▁employed	-10.2121
▁dispute	-10.2126
tic	-10.213
▁travell	-10.2135
▁appli	-10.2145
▁museum	-10.2147
▁1917	-10.2147
▁settl	-10.2149
▁survey	-10.215
▁southeast	-10.2151
▁ray	-10.2151
▁coal	-10.2155
▁85	-10.2158
▁dry	-10.216
▁passage	-10.2163
▁Main	-10.2164
▁Golden	-10.2168
▁compet	-10.2175
▁structures	-10.2182
▁IV	-10.2193
▁distinguish	-10.2197
▁desire	-10.2197
▁Massachusetts	-10.22
▁slave	-10.2205
nything	-10.2216
▁journey	-10.2223
▁strateg	-10.2224
▁Public	-10.2226
▁depth	-10.223
kin	-10.223
▁awards	-10.2231
▁Car	-10.2241
▁ha	-10.2241
▁stock	-10.2244
▁favour	-10.2263
▁stadium	-10.2266
▁continu	-10.2272
▁industrial	-10.2273
▁description	-10.2276
▁transfer	-10.2285
▁distribution	-10.2286
un	-10.229
▁layer	-10.2296
▁Boy	-10.2297
▁planning	-10.2298
▁possibilit	-10.23
▁knowledge	-10.2305
▁homes	-10.2305
▁eat	-10.231
▁genre	-10.2321
▁1948	-10.2322
▁reserve	-10.2322
▁Ray	-10.2324
ised	-10.2327
▁raise	-10.2328
▁existence	-10.233
▁register	-10.2334
▁missing	-10.2342
▁am	-10.2344
▁southwest	-10.2345
▁rush	-10.2345
▁distinct	-10.2346
▁buri	-10.2355
▁About	-10.2357
ci	-10.2361
▁statement	-10.2368
▁Video	-10.2371
▁Dark	-10.2385
▁lb	-10.239
▁assum	-10.239
▁roof	-10.2392
▁Na	-10.2404
▁Part	-10.2404
▁Radio	-10.2405
▁letters	-10.241
▁rich	-10.2413
▁responded	-10.2414
▁nor	-10.2416
▁theatre	-10.2431
▁Moon	-10.2435
▁Byzantine	-10.2438
▁connected	-10.2441
▁dismiss	-10.2442
▁wood	-10.2443
▁1978	-10.2444
▁safet	-10.2444
▁surround	-10.2445
▁praise	-10.2447
▁Moore	-10.2447
▁regions	-10.245
▁baseball	-10.2457
▁reasons	-10.2457
▁reading	-10.2459
ack	-10.2461
▁entitl	-10.2475
▁Imperial	-10.2477
O	-10.2482
▁festival	-10.2495
▁moderate	-10.2501
▁Justice	-10.2505
▁Age	-10.2505
▁54	-10.2509
▁Olympics	-10.251
▁challenge	-10.251
▁driv	-10.2515
▁Even	-10.2518
up	-10.2523
▁committ	-10.2523
▁recruit	-10.2527
▁Sunday	-10.2532
ow	-10.254
ph	-10.254
ett	-10.2543
▁shoot	-10.2546
all	-10.2548
▁Director	-10.2549
▁1915	-10.255
▁bowl	-10.255
▁bird	-10.2551
▁wild	-10.2553
▁Poland	-10.2569
▁1977	-10.2577
▁invit	-10.2578
▁Sydney	-10.2579
▁landfall	-10.2584
▁Naval	-10.2584
▁Sound	-10.2586
▁Maryland	-10.2587
ino	-10.2591
▁technical	-10.2595
▁Recording	-10.2596
ver	-10.2602
▁charts	-10.2608
ization	-10.261
▁master	-10.2617
▁afterward	-10.2623
▁Arab	-10.2624
▁gamepla	-10.2624
▁stopp	-10.2624
▁MTV	-10.2634
▁opera	-10.2636
▁brand	-10.2638
▁scheme	-10.265
▁Po	-10.2669
▁credited	-10.2682
▁cells	-10.2683
▁violence	-10.269
▁winner	-10.269
▁1963	-10.2695
▁regiment	-10.2697
▁repair	-10.2704
▁700	-10.2717
▁worth	-10.2722
▁signal	-10.2733
▁Theatre	-10.2744
▁battery	-10.2749
▁skin	-10.2756
▁Simon	-10.2756
▁send	-10.2762
▁hero	-10.2763
▁1916	-10.2764
▁hall	-10.2765
▁politics	-10.2768
▁Alan	-10.2776
za	-10.2777
▁turning	-10.2781
I	-10.2781
thing	-10.2781
▁56	-10.2783
▁none	-10.2794
▁Jay	-10.2798
▁tall	-10.2805
▁Mulder	-10.2809
▁Gordon	-10.2809
▁independence	-10.2813
▁sites	-10.282
▁equal	-10.2822
▁items	-10.2833
▁secur	-10.2834
▁brothers	-10.2841
▁rules	-10.2857
▁transition	-10.2862
ck	-10.2863
▁Songs	-10.2864
▁Play	-10.287
▁bottom	-10.2874
▁classic	-10.2889
▁prompt	-10.2895
▁Stadium	-10.2895
▁bigge	-10.2896
▁53	-10.2899
▁animat	-10.2899
▁1919	-10.2901
▁argue	-10.2903
▁finding	-10.2904
▁campus	-10.2908
▁Ca	-10.291
han	-10.2911
▁1962	-10.2915
▁employee	-10.2924
▁struggle	-10.2926
▁wealth	-10.2926
▁indicated	-10.2929
▁rescue	-10.2932
▁evening	-10.2932
vo	-10.2937
▁delivered	-10.2947
▁equipp	-10.2951
▁titles	-10.2957
▁Albert	-10.2964
▁cars	-10.2964
▁inter	-10.2965
▁scientist	-10.297
▁nomination	-10.2972
▁civilian	-10.2972
▁aware	-10.2976
▁observation	-10.2978
▁drop	-10.298
▁boundar	-10.2981
▁shap	-10.2994
▁Space	-10.2996
▁exit	-10.2998
▁Prior	-10.3
pa	-10.3002
▁studi	-10.3006
▁fun	-10.3011
▁1938	-10.302
▁producing	-10.3021
▁Critical	-10.3026
▁bought	-10.3031
▁showing	-10.3039
▁protein	-10.3041
ker	-10.3047
▁Brad	-10.3048
▁Egypt	-10.3054
▁flank	-10.3056
▁Just	-10.3061
▁cent	-10.3062
▁handle	-10.3064
hu	-10.3064
▁owner	-10.3067
▁knots	-10.3069
▁online	-10.3075
J	-10.3076
▁En	-10.3079
▁essential	-10.308
▁replacement	-10.3082
▁download	-10.3083
▁ago	-10.3088
▁Ross	-10.3092
▁relief	-10.3093
▁powers	-10.3099
▁substantial	-10.31
▁76	-10.3104
don	-10.3109
▁models	-10.3111
▁factor	-10.3112
▁Rome	-10.3128
▁ends	-10.3129
▁crown	-10.3139
▁kingdom	-10.3145
▁Fire	-10.3156
▁deploy	-10.3161
▁duty	-10.3165
▁projects	-10.3165
▁equivalent	-10.3172
▁Tony	-10.3173
▁shell	-10.3175
▁controversy	-10.3179
▁partner	-10.318
▁component	-10.3184
▁internal	-10.3187
▁mode	-10.3192
▁Memorial	-10.3196
▁spirit	-10.3199
▁Beach	-10.3207
▁seasons	-10.3212
▁1956	-10.3215
▁ridge	-10.3219
spread	-10.3221
▁heads	-10.3221
▁academic	-10.3221
▁actress	-10.3226
▁Arts	-10.3234
▁dominat	-10.3234
▁Sky	-10.3236
op	-10.3238
L	-10.3239
▁engineer	-10.324
▁Kent	-10.3243
hi	-10.3243
▁entry	-10.3249
▁deni	-10.325
▁emergenc	-10.3257
▁recalled	-10.326
▁global	-10.3264
▁restor	-10.3266
▁sufficient	-10.3267
▁tank	-10.3268
▁survived	-10.327
▁experienc	-10.3273
▁premiere	-10.3277
▁hotel	-10.3279
po	-10.3281
▁details	-10.3281
▁Hungarian	-10.3281
▁establishment	-10.3285
▁Adam	-10.3287
▁departure	-10.3292
▁Free	-10.3295
▁remainder	-10.3301
▁breeding	-10.3303
▁note	-10.3305
▁Revolution	-10.3306
▁manner	-10.3306
▁relations	-10.3308
▁views	-10.3313
▁admitted	-10.3316
▁1936	-10.3318
▁Thu	-10.3319
▁Hamilton	-10.3321
▁ex	-10.3324
▁Douglas	-10.3329
▁airport	-10.3331
▁Plot	-10.3343
▁IGN	-10.3347
▁headed	-10.3349
▁Singles	-10.3351
▁Adams	-10.3352
▁classification	-10.3357
▁convoy	-10.3359
▁Power	-10.3363
ran	-10.3368
▁sets	-10.3368
▁Philip	-10.3377
▁drug	-10.3378
▁wish	-10.3397
▁preparation	-10.3404
▁Kennedy	-10.3405
▁income	-10.3408
▁catch	-10.3427
▁Bush	-10.3427
▁Head	-10.343
▁meters	-10.3432
▁emotional	-10.3436
▁1961	-10.3447
▁Science	-10.3448
▁accus	-10.3456
▁union	-10.3456
UTC	-10.3458
ical	-10.3462
▁tunnel	-10.3464
▁engines	-10.3465
▁Your	-10.3467
▁Howard	-10.347
craft	-10.3475
▁trail	-10.3475
▁instance	-10.3478
▁Water	-10.3485
▁Mu	-10.3485
▁Norman	-10.3486
▁intention	-10.3494
▁NBA	-10.3497
▁Mountain	-10.3498
▁buy	-10.3513
▁stages	-10.3517
▁humans	-10.3519
▁1953	-10.3521
▁picture	-10.3521
▁youth	-10.3528
▁Pop	-10.3534
▁Death	-10.3536
▁attain	-10.3541
▁Today	-10.3546
▁connection	-10.3546
▁programs	-10.3547
▁duties	-10.3548
▁designer	-10.3549
▁Roger	-10.355
▁Magazine	-10.3558
▁generat	-10.3559
▁attribut	-10.3566
▁remember	-10.3566
▁Military	-10.3569
▁rural	-10.3571
▁someone	-10.3572
▁Ni	-10.3573
▁decrease	-10.3574
▁tanks	-10.3576
▁ill	-10.3578
ius	-10.3581
▁Initial	-10.3584
▁eighth	-10.3591
ze	-10.3591
▁import	-10.3593
▁Band	-10.3594
▁generation	-10.3596
▁Project	-10.3602
▁Back	-10.3603
▁Han	-10.3606
▁Scully	-10.361
▁Five	-10.3611
▁identity	-10.3614
▁Norwegian	-10.3623
▁Design	-10.363
que	-10.3633
▁writes	-10.3633
▁di	-10.3635
▁Lo	-10.3636
ny	-10.3639
▁armour	-10.3642
▁Research	-10.3642
▁lift	-10.3643
▁Hitler	-10.3647
▁recognition	-10.3657
▁pattern	-10.3658
▁freedom	-10.3658
▁1947	-10.3666
▁measure	-10.367
▁climate	-10.368
▁lose	-10.3681
▁segment	-10.3682
▁conclusion	-10.3683
▁1958	-10.3687
▁hip	-10.3687
▁regional	-10.369
▁champion	-10.3692
▁products	-10.3701
▁ensure	-10.3703
▁convention	-10.3712
▁Carl	-10.3718
▁march	-10.3724
▁rose	-10.3726
▁charg	-10.3728
▁deriv	-10.3731
▁WWE	-10.3733
▁rat	-10.3735
▁Germans	-10.3735
▁1910	-10.3741
▁Mexican	-10.3743
▁describing	-10.3743
▁references	-10.3744
▁1957	-10.3747
T	-10.3753
ong	-10.3759
▁corner	-10.3762
round	-10.3762
▁sections	-10.3762
▁ticket	-10.3764
▁towns	-10.3765
▁enemies	-10.3767
▁belt	-10.3769
▁1937	-10.3773
▁soul	-10.3774
▁Ryan	-10.3777
▁determine	-10.3777
▁Assembly	-10.3783
▁66	-10.3783
▁patrol	-10.3786
▁males	-10.3786
▁visitor	-10.3787
▁FA	-10.3787
▁objects	-10.379
▁dated	-10.3796
▁certifi	-10.3801
▁alter	-10.3804
chi	-10.3805
ists	-10.3805
▁exercise	-10.3808
▁Cleveland	-10.3809
▁stoo	-10.381
▁Girl	-10.3818
▁glass	-10.3818
▁considerabl	-10.3824
▁Media	-10.3827
▁medal	-10.383
▁Illinois	-10.3836
▁Rolling	-10.3838
▁restaurant	-10.3841
▁minister	-10.3842
▁Dream	-10.3846
▁chemical	-10.3851
▁Ver	-10.3852
▁slowly	-10.3859
cher	-10.3878
▁Iron	-10.388
▁cool	-10.388
port	-10.3882
▁Ke	-10.3883
▁attached	-10.3897
▁Arsenal	-10.39
▁Dean	-10.3904
▁cycle	-10.3905
▁deem	-10.3915
▁atmosphere	-10.3916
▁Hav	-10.3917
jo	-10.3923
▁hits	-10.3925
▁Hu	-10.3926
▁behavior	-10.3927
sh	-10.3927
▁surviv	-10.3927
▁highlight	-10.3929
▁correct	-10.3929
▁1959	-10.3935
▁Review	-10.3935
▁Oregon	-10.3942
▁origin	-10.3943
▁Weekly	-10.3943
▁acclaim	-10.3945
▁circulation	-10.3948
▁Stanley	-10.3956
▁achieve	-10.3959
▁foundation	-10.3963
▁favorite	-10.3965
▁130	-10.3965
▁57	-10.3971
▁laws	-10.3971
▁Bruce	-10.3973
▁Third	-10.3975
▁acid	-10.3984
▁valley	-10.3985
▁Forest	-10.3986
▁58	-10.399
▁Kong	-10.399
▁obtained	-10.3998
▁judge	-10.4004
▁Chi	-10.4008
▁Kevin	-10.401
▁Jeff	-10.4014
▁vessels	-10.4015
▁terminus	-10.4018
▁Family	-10.4018
▁waters	-10.402
▁opposite	-10.4021
▁Mediterranea	-10.4023
▁1955	-10.4029
▁1954	-10.4029
▁insist	-10.403
wa	-10.4031
▁Andy	-10.4031
▁inspiration	-10.4031
▁Allen	-10.4033
▁Beatles	-10.4036
▁intelligence	-10.4036
▁supposed	-10.4039
▁citizens	-10.4042
▁Bristol	-10.4045
▁Release	-10.4055
▁shipp	-10.4059
▁literar	-10.4067
SBN	-10.4067
▁funds	-10.4069
▁Morgan	-10.4072
▁criminal	-10.4077
▁superior	-10.4077
▁Channel	-10.4077
▁prey	-10.4078
▁premier	-10.4082
▁theater	-10.4083
▁page	-10.4083
▁Premier	-10.4085
▁solid	-10.4095
▁dog	-10.4098
▁completion	-10.4106
▁Cha	-10.4107
ence	-10.411
om	-10.4112
▁doctor	-10.4112
▁founder	-10.4122
▁predict	-10.4122
▁Morris	-10.4129
ub	-10.4129
▁Marine	-10.4132
▁van	-10.4134
▁images	-10.414
▁Gar	-10.414
▁warm	-10.4147
▁Bishop	-10.4148
▁thirty	-10.4148
▁benefit	-10.4151
▁Max	-10.4157
▁feeling	-10.4159
▁merchant	-10.4159
▁downtown	-10.416
▁possession	-10.4164
▁designs	-10.4166
▁sort	-10.4167
over	-10.4169
▁answer	-10.417
▁hill	-10.4189
▁sole	-10.4192
ski	-10.4194
×	-10.4195
▁Ken	-10.4195
▁Fame	-10.4199
▁destruction	-10.4203
▁alien	-10.4203
▁Mo	-10.4209
▁interior	-10.421
ru	-10.4212
▁spoke	-10.4216
▁moral	-10.4216
▁places	-10.4218
▁cloud	-10.4225
▁trad	-10.4225
▁Korea	-10.4229
▁memorial	-10.4229
▁assistance	-10.4236
▁Anne	-10.4238
▁Lisa	-10.424
▁outer	-10.4249
▁Master	-10.4253
▁association	-10.4256
▁sport	-10.426
▁cruiser	-10.426
▁wickets	-10.4261
▁Robinson	-10.4267
▁venue	-10.4272
▁creator	-10.4277
▁operate	-10.4279
ng	-10.4283
▁tied	-10.4284
▁Within	-10.4291
▁suspect	-10.4291
▁Temple	-10.4292
mar	-10.4294
▁properties	-10.4297
▁news	-10.4313
▁vehicle	-10.4322
▁1952	-10.4328
▁withdraw	-10.4329
▁switch	-10.4329
▁alleged	-10.4331
▁impress	-10.4331
▁chorus	-10.4336
▁110	-10.4338
▁Ho	-10.434
▁massive	-10.4342
▁gather	-10.4343
▁Tim	-10.4362
▁Nick	-10.437
▁fly	-10.4372
▁capabl	-10.4378
▁garrison	-10.4381
▁Francis	-10.439
▁credit	-10.439
▁cavalry	-10.4397
▁incorporated	-10.44
▁narrative	-10.44
▁differ	-10.4402
▁distribut	-10.4403
▁ride	-10.4403
▁door	-10.4404
▁estimate	-10.4405
▁ready	-10.4407
▁Unlike	-10.4409
▁dates	-10.4412
▁62	-10.4417
▁Horse	-10.4419
▁passengers	-10.442
▁Construction	-10.4423
▁1933	-10.4429
▁mark	-10.443
▁females	-10.4431
▁Television	-10.4431
▁romantic	-10.4437
▁Similar	-10.444
▁touchdown	-10.444
▁Far	-10.4456
▁participate	-10.4458
▁Nelson	-10.4465
▁stream	-10.4471
▁honour	-10.4472
▁lands	-10.4476
▁lake	-10.4484
▁bands	-10.4486
▁61	-10.4486
▁circle	-10.4486
▁pack	-10.4489
▁weapon	-10.4504
▁classified	-10.451
▁survive	-10.4513
▁recovered	-10.4514
▁Sweden	-10.452
▁expos	-10.452
di	-10.452
▁Six	-10.453
▁Eric	-10.4534
▁1935	-10.4534
▁collapse	-10.4538
AAF	-10.454
bu	-10.454
▁72	-10.4541
▁eleven	-10.4542
▁Patrick	-10.4544
▁Winter	-10.4551
▁stretch	-10.4554
▁intensifi	-10.4554
▁brain	-10.4558
▁Command	-10.4562
▁ranking	-10.4564
▁Tower	-10.457
▁Toronto	-10.4573
▁Anna	-10.4598
▁patient	-10.4603
▁Finn	-10.4603
shire	-10.4603
▁1951	-10.4605
▁Welsh	-10.4607
▁1949	-10.4608
▁Santa	-10.4614
▁Bas	-10.4628
▁outbreak	-10.4628
▁protagonist	-10.4642
what	-10.4645
▁animation	-10.4645
▁inner	-10.465
▁Jane	-10.4657
▁sun	-10.4658
▁memory	-10.4665
▁Mi	-10.4667
▁routes	-10.4667
▁reality	-10.4675
▁die	-10.4675
▁load	-10.4678
▁charges	-10.4693
▁Jordan	-10.4695
▁Lind	-10.4697
▁obtain	-10.4697
▁sale	-10.4711
▁adaptation	-10.4718
▁strip	-10.4718
▁basketball	-10.4719
▁Netherlands	-10.472
▁poll	-10.4722
▁schedule	-10.4724
▁Ford	-10.4729
▁59	-10.4731
▁communities	-10.4734
▁fictional	-10.474
▁shop	-10.4749
▁crop	-10.4759
▁colour	-10.4766
ven	-10.4769
▁controversial	-10.4771
▁finishing	-10.4777
▁Bad	-10.4777
▁Nations	-10.4779
▁classical	-10.4784
▁seed	-10.4786
▁differences	-10.4793
formula	-10.4796
▁Hospital	-10.4798
▁monument	-10.4803
▁anniversary	-10.481
▁methods	-10.4818
▁plane	-10.482
▁min	-10.4821
▁Col	-10.4823
▁Again	-10.4824
▁Jan	-10.4834
▁Jews	-10.4836
we	-10.4838
uk	-10.484
▁doubt	-10.4842
▁architecture	-10.4842
▁soil	-10.4844
>	-10.4855
ou	-10.4856
▁passenger	-10.4859
▁delay	-10.4861
▁teaching	-10.4861
▁1900	-10.4863
▁Croatian	-10.4866
▁penalty	-10.487
▁express	-10.4871
▁Russell	-10.4874
▁Centre	-10.4874
▁absence	-10.4886
▁consistent	-10.4888
▁Wright	-10.4889
▁batting	-10.4893
▁Here	-10.4897
▁missions	-10.4902
▁fighter	-10.4902
▁cancer	-10.4907
▁apart	-10.4907
temporary	-10.4908
▁giant	-10.4909
▁Sports	-10.491
▁du	-10.4912
▁throne	-10.4912
▁comparison	-10.4921
▁cloth	-10.4923
▁Du	-10.4936
▁Jo	-10.494
▁documentary	-10.4941
▁hot	-10.4943
▁tries	-10.4948
▁involvement	-10.495
▁eliminat	-10.4951
▁compete	-10.4956
ax	-10.4956
▁worst	-10.4965
▁Thompson	-10.4966
ea	-10.4971
▁grounds	-10.498
▁criticis	-10.4982
▁63	-10.4983
▁partial	-10.4986
▁Class	-10.499
▁bound	-10.4992
▁delayed	-10.5
▁discovery	-10.5015
▁Puerto	-10.5019
▁monitor	-10.5025
▁AD	-10.5026
sis	-10.5027
▁chain	-10.5029
▁athlete	-10.5031
▁Knight	-10.5036
▁intense	-10.5037
▁exhibit	-10.504
▁Maria	-10.5045
▁Carter	-10.5046
▁step	-10.5047
▁weekend	-10.5047
▁NFL	-10.505
gi	-10.505
▁sharp	-10.5052
▁Federal	-10.5053
▁Ron	-10.5056
▁govern	-10.5058
▁dissipat	-10.5065
▁99	-10.5067
▁Last	-10.5069
▁160	-10.507
bi	-10.5074
▁requirement	-10.5077
▁bright	-10.5078
ious	-10.508
▁medieval	-10.5082
▁presidential	-10.5084
▁Islam	-10.5085
▁residence	-10.5086
▁genetic	-10.5088
▁Commander	-10.5093
▁library	-10.5094
▁Hart	-10.5096
▁Late	-10.5101
▁Kelly	-10.5102
ron	-10.5104
▁colonial	-10.5105
▁DE	-10.5114
▁vision	-10.5115
▁Alex	-10.5123
▁chamber	-10.5124
▁politician	-10.5133
▁retirement	-10.5134
ber	-10.5135
▁Modern	-10.514
▁Constitution	-10.514
▁ninth	-10.5145
▁challeng	-10.5146
▁resources	-10.5147
▁77	-10.5148
▁Along	-10.5148
▁Wal	-10.5157
▁musicians	-10.5166
▁Network	-10.5176
▁Ham	-10.5176
lan	-10.518
▁gift	-10.5182
▁siege	-10.5185
▁Now	-10.5187
▁restrict	-10.5188
shore	-10.5192
ise	-10.5195
old	-10.5195
▁bass	-10.5196
▁pure	-10.5196
▁orbit	-10.5209
▁super	-10.5223
▁revenue	-10.5224
▁arrangement	-10.5225
▁1913	-10.5225
▁Police	-10.5228
▁ratings	-10.5229
▁fitted	-10.5237
▁Batman	-10.5238
▁else	-10.524
▁weigh	-10.5248
▁96	-10.5256
▁Parker	-10.5257
▁Berlin	-10.5273
▁gate	-10.5278
borne	-10.528
▁dating	-10.5289
▁Down	-10.5293
▁negotiation	-10.5296
▁1926	-10.5302
▁prove	-10.5303
tz	-10.5316
▁Palace	-10.5316
▁Murray	-10.5318
▁convecti	-10.5324
▁facility	-10.5325
per	-10.5326
▁Fair	-10.5326
▁visible	-10.5327
▁1927	-10.5327
▁UN	-10.5334
▁Library	-10.5335
▁DNA	-10.5338
▁colony	-10.534
▁crosse	-10.5347
W	-10.5348
▁legislation	-10.535
mann	-10.5352
▁ways	-10.5354
▁mix	-10.5354
▁1921	-10.5354
▁shots	-10.5355
▁Inter	-10.5361
fa	-10.5364
▁94	-10.5369
▁1934	-10.537
▁mental	-10.537
▁stable	-10.5374
▁modified	-10.5376
▁Education	-10.5376
▁sand	-10.5381
▁remove	-10.5383
▁code	-10.5383
▁shark	-10.5388
▁Tu	-10.5393
▁stands	-10.5393
▁78	-10.5395
▁Ball	-10.5395
▁tone	-10.5401
body	-10.5402
▁dialogue	-10.5403
▁Houston	-10.5403
▁knock	-10.5408
▁format	-10.541
▁deliver	-10.5411
▁classe	-10.5411
oc	-10.5414
▁Cooper	-10.5418
▁engagement	-10.542
▁Asian	-10.5422
▁techniques	-10.5422
ata	-10.5423
▁Silver	-10.5424
tenance	-10.5425
▁gone	-10.5426
neath	-10.5429
▁Corporation	-10.5431
▁successor	-10.5433
▁Si	-10.5434
▁Cal	-10.5434
▁sponsor	-10.5439
▁68	-10.544
ure	-10.5449
▁monarch	-10.5459
▁grand	-10.5459
▁1912	-10.5463
▁card	-10.5463
▁74	-10.5464
▁Warner	-10.5471
▁Track	-10.5477
▁frame	-10.5489
▁gay	-10.5489
▁designation	-10.549
▁anyone	-10.5494
▁Swedish	-10.5496
▁sudden	-10.5496
▁hear	-10.5499
▁Samuel	-10.5499
▁Commonwealth	-10.5502
▁chairman	-10.5508
▁girls	-10.5511
▁folk	-10.5513
ington	-10.5514
▁divisions	-10.5514
▁materials	-10.5519
▁characteristics	-10.552
▁huge	-10.552
▁struggl	-10.5522
▁populations	-10.5528
▁suffering	-10.5528
▁snow	-10.553
ung	-10.5535
▁Arm	-10.5535
▁eggs	-10.5536
ev	-10.5537
▁colleague	-10.554
▁mere	-10.555
▁Angel	-10.5552
ō	-10.5553
▁railroad	-10.5553
▁1932	-10.5553
▁belong	-10.5556
▁lies	-10.5558
▁environmental	-10.5565
▁universe	-10.5572
▁Medal	-10.5589
▁sector	-10.5594
▁Gaga	-10.5595
▁separat	-10.5601
▁Pope	-10.5603
▁nickname	-10.5603
▁votes	-10.5604
selling	-10.5609
▁preced	-10.5609
▁Anthon	-10.5609
▁Ch	-10.561
▁87	-10.5612
▁bus	-10.5612
▁require	-10.5616
▁developer	-10.5622
▁intersect	-10.5623
▁Holy	-10.5629
▁safe	-10.5633
▁exception	-10.5635
▁check	-10.5635
▁understand	-10.5637
▁Guy	-10.5638
▁graphics	-10.5639
▁implement	-10.5639
▁spin	-10.564
▁historic	-10.5644
▁closer	-10.5651
▁Heart	-10.5656
▁difference	-10.5656
▁67	-10.566
▁Jason	-10.5661
▁chapter	-10.5663
▁beautiful	-10.5667
▁streets	-10.5668
▁earth	-10.5668
▁adults	-10.5671
▁Mars	-10.5671
▁NBC	-10.5671
▁architect	-10.5673
▁USA	-10.5676
▁Ba	-10.5677
▁manage	-10.5679
ud	-10.5679
▁movements	-10.568
▁Bre	-10.5682
▁graduat	-10.5689
ston	-10.569
▁influential	-10.5691
▁emperor	-10.5708
▁82	-10.571
▁Croatia	-10.5712
▁secondar	-10.5715
back	-10.5717
▁poet	-10.572
▁Democrat	-10.5721
▁costume	-10.5723
í	-10.5727
▁Gilbert	-10.5731
▁Detroit	-10.5734
▁occupation	-10.5734
ai	-10.5735
▁Writing	-10.574
▁touch	-10.5744
▁wrong	-10.575
▁Frederick	-10.576
▁qualify	-10.5763
▁transform	-10.5764
▁bow	-10.5766
▁RAF	-10.5767
▁1929	-10.5767
▁moves	-10.577
▁sounds	-10.577
▁device	-10.5772
rew	-10.5777
▁Bi	-10.5778
▁witness	-10.578
▁k	-10.5783
▁electronic	-10.5784
▁Te	-10.5785
▁squad	-10.5788
▁childhood	-10.5799
▁1911	-10.5799
▁Camp	-10.5804
án	-10.5806
ica	-10.581
▁guilt	-10.5811
ick	-10.5821
▁Clinton	-10.5824
▁isolat	-10.5828
▁Journal	-10.5833
▁Princess	-10.5838
ari	-10.5841
7	-10.5841
▁Vice	-10.5845
▁trust	-10.5847
▁interaction	-10.5849
▁Egyptian	-10.5852
▁concentration	-10.5856
▁Spears	-10.5858
▁ethnic	-10.5863
▁Lane	-10.5865
▁900	-10.5867
▁1931	-10.5868
ho	-10.587
▁1922	-10.5873
▁meets	-10.588
▁coat	-10.5885
▁executed	-10.5886
▁balance	-10.589
▁gap	-10.5893
▁firing	-10.5893
pi	-10.5893
ood	-10.5894
▁Jesus	-10.5895
▁Nielsen	-10.5895
▁happ	-10.5897
▁wooden	-10.59
▁Evans	-10.5901
▁Melbourne	-10.5905
▁Race	-10.5905
▁involve	-10.5908
▁Israel	-10.5908
▁chair	-10.5909
▁diameter	-10.5912
▁Building	-10.5912
▁tension	-10.5913
▁Stewart	-10.5915
eg	-10.592
▁69	-10.5922
ara	-10.5943
▁tribute	-10.5951
▁hearing	-10.5952
▁Xbox	-10.5958
▁preserv	-10.5959
▁hunting	-10.5965
▁provision	-10.5967
▁uniform	-10.5971
▁Sch	-10.5972
ez	-10.5978
▁recover	-10.5979
▁Ha	-10.598
▁measures	-10.598
▁180	-10.5982
▁facing	-10.5984
▁r	-10.5984
▁Category	-10.5987
▁Lennon	-10.5987
▁Mel	-10.5995
▁Anglo	-10.5996
▁talent	-10.5998
▁afternoon	-10.6
▁Ann	-10.6003
▁Phil	-10.6004
▁belief	-10.6014
▁audio	-10.6017
▁phone	-10.6017
ren	-10.6022
▁instruments	-10.6029
▁radar	-10.603
▁victims	-10.6031
▁footage	-10.6032
▁Khan	-10.6043
▁trained	-10.6046
▁carbon	-10.6048
▁resigned	-10.6049
ini	-10.605
▁encourag	-10.6054
▁flew	-10.6056
▁lawyer	-10.6061
▁experiment	-10.6063
▁73	-10.6065
▁Colorado	-10.6069
▁preferred	-10.6072
▁fields	-10.6072
▁vessel	-10.6072
▁Dave	-10.6074
▁88	-10.6081
▁Da	-10.6083
▁collaboration	-10.6085
▁neck	-10.6085
▁deposit	-10.6085
▁ideal	-10.6089
▁shore	-10.609
▁notabl	-10.609
▁remix	-10.6097
pe	-10.6098
▁circuit	-10.6099
▁extent	-10.6099
▁Foundation	-10.61
gate	-10.6102
▁violent	-10.6116
▁Brazil	-10.6118
▁junior	-10.6119
▁resolution	-10.6123
▁Sarah	-10.6127
▁Guard	-10.6127
▁Ash	-10.6128
▁79	-10.6129
▁curve	-10.613
▁Baltimore	-10.6133
▁tie	-10.6138
▁Greece	-10.614
▁Austria	-10.614
▁Area	-10.6142
▁skills	-10.6144
▁Ar	-10.6147
▁accompany	-10.6149
▁holds	-10.6149
▁98	-10.6155
▁ruin	-10.616
▁confront	-10.6161
▁thereafter	-10.6169
▁sons	-10.6171
▁71	-10.6172
▁militia	-10.6176
ions	-10.6178
▁copy	-10.6179
▁poetry	-10.6181
▁upgrad	-10.6181
▁owners	-10.6187
▁window	-10.6187
▁Cap	-10.6192
▁desert	-10.6195
▁fee	-10.6199
▁charter	-10.6199
▁suspend	-10.62
▁Nazi	-10.6213
▁edit	-10.6217
▁Guardian	-10.6218
▁Mario	-10.622
▁disaster	-10.6223
▁professor	-10.6224
▁enlist	-10.6226
▁Dance	-10.6228
▁Story	-10.6243
▁Tri	-10.6245
▁Fall	-10.6249
▁interpret	-10.6254
▁beach	-10.6254
▁Garden	-10.6254
▁shear	-10.6256
▁Somerset	-10.6257
▁technique	-10.6259
▁teeth	-10.6261
▁Iowa	-10.6261
▁vice	-10.6265
▁promise	-10.6266
▁watching	-10.6272
▁91	-10.6273
▁Rob	-10.6275
▁Marshall	-10.6276
▁offering	-10.628
▁shock	-10.628
▁clean	-10.6281
▁Sand	-10.6282
▁Austrian	-10.6283
▁authors	-10.629
▁ocean	-10.6294
▁factors	-10.6299
he	-10.6299
▁standards	-10.63
▁hull	-10.6301
▁joke	-10.6302
▁continuous	-10.6303
▁taught	-10.6306
▁140	-10.6308
▁publisher	-10.631
residential	-10.631
▁easy	-10.6311
▁verse	-10.6315
▁craft	-10.6319
▁drums	-10.632
▁margin	-10.6327
▁81	-10.6329
▁opponents	-10.6337
▁Harris	-10.6339
▁Wrestling	-10.6352
▁1928	-10.6353
▁Wind	-10.6354
▁erect	-10.6361
▁alliance	-10.6369
▁journal	-10.6382
▁identify	-10.6383
▁ballad	-10.6383
▁stem	-10.6389
▁creative	-10.6392
▁creature	-10.6395
▁recognis	-10.6397
▁legs	-10.6399
▁sit	-10.6403
▁Miami	-10.6407
▁soft	-10.6407
▁Soon	-10.6409
▁Albums	-10.6414
▁fil	-10.6415
tor	-10.6417
ura	-10.6419
▁sure	-10.6422
▁1925	-10.6422
▁sentence	-10.6422
▁Canal	-10.6424
▁alignment	-10.6428
▁representative	-10.643
con	-10.6432
▁trace	-10.6433
▁column	-10.6437
▁junction	-10.6437
▁teammate	-10.6441
▁Confederate	-10.6448
▁wedding	-10.6449
▁celebrat	-10.6451
▁dangerous	-10.6452
▁Senator	-10.6453
▁Whit	-10.6453
▁Hindu	-10.6456
▁Every	-10.6459
▁northward	-10.6461
light	-10.6464
let	-10.6466
▁pit	-10.6475
gency	-10.648
▁loop	-10.6482
▁simultaneous	-10.6486
▁1890	-10.6487
▁Wing	-10.6491
▁Seattle	-10.6493
▁permission	-10.6493
▁interpretation	-10.6498
▁medium	-10.6501
▁Cat	-10.6501
▁platin	-10.6502
▁choose	-10.6502
▁pace	-10.6507
▁satellite	-10.6513
▁See	-10.6513
▁1924	-10.6515
▁learning	-10.6517
▁pain	-10.652
▁Ministr	-10.6521
▁withdrew	-10.6524
▁elections	-10.6525
▁crisis	-10.6527
▁tourist	-10.6528
▁Human	-10.654
▁sleep	-10.6544
▁conservative	-10.6545
▁Open	-10.6545
▁Pass	-10.6551
▁salt	-10.6556
▁whereas	-10.6557
▁boiler	-10.6559
▁Mill	-10.6562
▁twin	-10.6563
▁shelter	-10.6566
▁prime	-10.6573
mp	-10.6573
▁PA	-10.6574
▁veteran	-10.6576
▁Giants	-10.658
▁apartment	-10.6588
▁Treaty	-10.6588
▁Va	-10.6597
▁advice	-10.6597
▁Kim	-10.6603
▁thirteen	-10.6604
▁Ian	-10.6615
▁Trek	-10.6617
NA	-10.6621
▁spott	-10.6622
▁wrestl	-10.6622
▁testing	-10.6629
▁cruisers	-10.6632
▁mainstream	-10.6635
▁policies	-10.6636
sky	-10.6637
▁Alabama	-10.6639
▁Caribbean	-10.6642
▁bypass	-10.6643
▁diet	-10.6645
▁Wolf	-10.665
▁engineering	-10.6653
▁difficulties	-10.6657
▁demonstrat	-10.6658
▁submitt	-10.6663
▁personality	-10.6671
▁rarely	-10.6671
▁toll	-10.6672
▁pounds	-10.668
▁Charlie	-10.6681
▁nest	-10.6698
▁Gu	-10.6698
▁illegal	-10.6699
▁predator	-10.67
▁Lawrence	-10.6702
▁drawing	-10.6714
▁Front	-10.6716
▁specimens	-10.6717
▁clubs	-10.6724
▁1923	-10.6728
▁84	-10.6729
▁elder	-10.6733
▁Hero	-10.6733
▁appointment	-10.6734
▁suicide	-10.6741
▁needs	-10.6742
▁Minnesota	-10.6752
▁scholars	-10.6753
▁achievement	-10.6757
▁pursu	-10.6758
▁Fly	-10.6763
ik	-10.6766
▁interests	-10.6768
▁forcing	-10.6774
▁approval	-10.6777
▁Crown	-10.6778
▁justice	-10.6779
▁wound	-10.678
▁Real	-10.678
▁93	-10.678
▁attitude	-10.6782
ita	-10.6787
▁partie	-10.6791
▁smooth	-10.6791
▁vertical	-10.6791
▁compilation	-10.6793
▁emphasis	-10.6794
low	-10.6796
▁debt	-10.6797
▁faith	-10.6797
▁loan	-10.6799
▁hockey	-10.6802
tropical	-10.6805
▁Key	-10.6806
▁97	-10.682
▁minimum	-10.6823
▁perspective	-10.6823
▁86	-10.6825
▁Pat	-10.6826
▁spiritual	-10.683
U	-10.6837
▁Township	-10.6842
▁neighborhood	-10.6845
▁Indians	-10.6846
▁importan	-10.6846
▁tenth	-10.6847
▁Dead	-10.6852
▁Grammy	-10.6855
▁Hungary	-10.6859
▁shoulder	-10.6859
▁housing	-10.6859
▁evolution	-10.6861
▁false	-10.6863
▁Matthew	-10.6863
▁comments	-10.6865
▁dream	-10.6867
▁Apple	-10.6871
fish	-10.6873
▁appropriate	-10.6875
▁Hotel	-10.6875
▁canal	-10.6884
▁churches	-10.6884
▁Country	-10.6888
▁resum	-10.6892
▁triple	-10.6897
▁alternate	-10.6897
▁adjacent	-10.6897
▁Adventure	-10.6899
▁dynasty	-10.6905
▁agents	-10.6909
▁fin	-10.6914
▁Health	-10.6921
▁Return	-10.6927
istic	-10.6929
▁Belgium	-10.6931
▁finance	-10.6932
▁hat	-10.6933
▁Much	-10.6936
▁Ki	-10.6938
▁Flight	-10.6941
▁teacher	-10.6941
▁landscape	-10.6942
▁funeral	-10.6942
▁Christopher	-10.6944
▁Jon	-10.695
▁palace	-10.6953
▁Diego	-10.6953
▁partnership	-10.6953
▁existed	-10.6955
▁der	-10.6956
ade	-10.6956
▁motor	-10.6958
▁prepare	-10.6962
▁Staff	-10.6966
ile	-10.6968
▁descend	-10.697
▁Pan	-10.6973
▁graduate	-10.6976
▁blow	-10.6981
▁Ro	-10.6985
▁Guide	-10.6987
▁changing	-10.6989
▁complain	-10.6992
▁abandon	-10.6993
▁Native	-10.6995
▁instrumental	-10.6995
▁USD	-10.6998
▁Walker	-10.6998
▁Legac	-10.7001
▁Interstate	-10.7007
▁grown	-10.7014
▁Children	-10.7018
▁finale	-10.702
▁PC	-10.7025
▁Ga	-10.7027
▁trouble	-10.7031
▁attendance	-10.7033
▁definition	-10.7036
▁map	-10.7039
▁Let	-10.7041
▁option	-10.7042
▁destroyers	-10.7047
▁Ju	-10.7048
▁windows	-10.7055
▁1905	-10.7055
▁evil	-10.7058
ff	-10.7061
▁1908	-10.7063
▁friendly	-10.7064
▁Benjamin	-10.7066
▁parent	-10.7067
▁stress	-10.707
▁elevation	-10.7071
▁wings	-10.7072
▁disappear	-10.7072
▁victories	-10.7077
▁Seven	-10.7079
▁argument	-10.7079
▁bombers	-10.708
off	-10.708
▁bishop	-10.708
▁Blood	-10.708
▁89	-10.7081
▁Saxon	-10.7082
▁jump	-10.7084
▁th	-10.7085
▁percentage	-10.7087
▁lieutenant	-10.7091
ola	-10.7091
▁originat	-10.7093
▁races	-10.7096
▁1909	-10.7096
qui	-10.7096
▁influences	-10.7099
ward	-10.7101
▁Lu	-10.7101
going	-10.7103
▁Cold	-10.7104
▁elsewhere	-10.7106
▁Hockey	-10.711
power	-10.7114
▁priest	-10.7117
ular	-10.7119
▁Halo	-10.7123
▁Roosevelt	-10.7124
▁opponent	-10.7126
▁statue	-10.7126
gu	-10.7126
▁Raw	-10.7129
▁favorabl	-10.713
ette	-10.7131
▁pitched	-10.7131
▁operational	-10.7135
▁fighters	-10.7141
▁pursue	-10.7143
▁entertainment	-10.7143
▁Edge	-10.7144
ric	-10.7146
▁evolv	-10.7146
▁aggressive	-10.7154
▁handed	-10.7157
▁beam	-10.7162
▁Alfred	-10.7165
▁Chronicle	-10.7166
▁scholar	-10.7178
▁languages	-10.7184
▁Fred	-10.719
▁span	-10.7194
▁Manhattan	-10.7195
▁absorb	-10.7202
▁Franklin	-10.7203
▁pool	-10.7207
▁danger	-10.7208
▁marry	-10.7214
▁construct	-10.722
▁Born	-10.7223
▁starts	-10.7231
mb	-10.7241
▁concrete	-10.7247
sk	-10.7249
▁audition	-10.7251
tra	-10.7252
sburg	-10.7259
▁signing	-10.7259
▁Peninsula	-10.7263
je	-10.7271
▁organizations	-10.7271
▁92	-10.7272
▁1907	-10.7279
▁Hay	-10.728
▁Margaret	-10.7288
▁Digital	-10.7288
ku	-10.729
▁reli	-10.729
▁advisor	-10.7295
ani	-10.7297
8	-10.7298
▁charit	-10.7299
▁regain	-10.7299
▁westward	-10.7301
cha	-10.731
▁thin	-10.7311
▁profit	-10.7312
▁Kansas	-10.7322
idden	-10.7328
▁indicat	-10.7328
▁Miss	-10.7329
▁abilities	-10.7333
▁Del	-10.7334
▁Industry	-10.7337
▁profile	-10.7337
▁accurate	-10.734
▁Pi	-10.7342
▁custom	-10.7344
▁courts	-10.7344
▁listing	-10.7345
▁Run	-10.7346
▁credits	-10.7349
▁Mississippi	-10.7359
▁impossible	-10.7367
▁assembl	-10.737
▁Portland	-10.7374
dale	-10.7375
▁agricultural	-10.7377
▁Brand	-10.7378
▁guide	-10.7379
▁Nash	-10.7379
▁boys	-10.7381
▁survivors	-10.7385
▁situat	-10.7387
▁Ti	-10.7387
▁notice	-10.7391
▁understanding	-10.7393
▁telling	-10.7394
▁investment	-10.7398
pped	-10.7401
▁Roy	-10.7404
gar	-10.7412
▁Saturday	-10.7412
▁Independent	-10.7412
▁escap	-10.7419
van	-10.7422
▁truth	-10.7422
▁Ice	-10.7429
▁orchestra	-10.7432
▁armament	-10.7438
▁Hong	-10.744
▁horror	-10.7442
▁Spring	-10.7444
car	-10.7446
▁Campbell	-10.745
▁dense	-10.7451
▁occasion	-10.7452
▁USS	-10.7454
iv	-10.7459
▁oxygen	-10.7462
▁occasions	-10.7465
isation	-10.7466
▁tests	-10.7467
▁1880	-10.747
▁communist	-10.747
▁restoration	-10.7472
ble	-10.7472
▁fifteen	-10.7474
▁seal	-10.7477
▁mine	-10.7477
▁closing	-10.748
▁distinctive	-10.7493
▁Mad	-10.7498
ative	-10.7499
▁tornado	-10.75
▁sample	-10.7501
ala	-10.7502
▁Hell	-10.7505
▁bombing	-10.7506
▁guy	-10.7509
▁explosion	-10.7509
ach	-10.7512
▁introduce	-10.7513
▁behalf	-10.7515
▁virtual	-10.7515
▁labor	-10.7522
▁truck	-10.7525
ps	-10.7525
▁symptoms	-10.7526
ada	-10.7533
▁rhythm	-10.7536
▁Rick	-10.7541
▁ammunition	-10.7542
▁relationships	-10.7545
▁dancer	-10.7546
▁covering	-10.7552
▁seats	-10.7553
▁Liberal	-10.7554
▁acknowledg	-10.7556
▁context	-10.7557
▁sank	-10.7561
▁execution	-10.7562
▁Sullivan	-10.7569
▁angle	-10.7584
▁burn	-10.7585
▁complet	-10.7587
▁offices	-10.7587
yn	-10.7589
▁lock	-10.7591
▁illness	-10.7595
▁concerts	-10.7596
ix	-10.7602
▁sunk	-10.7607
▁Enterprise	-10.7611
▁del	-10.7611
▁Warren	-10.7612
▁celebration	-10.7617
▁CR	-10.7619
▁philosoph	-10.7623
▁assert	-10.7624
▁resemble	-10.7625
▁Pa	-10.7629
▁fourteen	-10.7631
▁paintings	-10.7633
▁legend	-10.7633
▁organis	-10.7643
▁Historic	-10.7649
▁Graham	-10.765
▁explore	-10.7653
▁faction	-10.7654
▁artistic	-10.7656
▁exile	-10.7657
▁Small	-10.7658
▁Tennessee	-10.7662
▁skull	-10.7662
▁Scout	-10.7664
▁underground	-10.7665
▁scatter	-10.7666
▁Louisiana	-10.767
▁explain	-10.7671
▁cargo	-10.7673
ec	-10.768
ball	-10.7682
▁regulation	-10.7684
▁bonus	-10.769
▁spell	-10.7692
▁dramatic	-10.7693
▁Lucas	-10.7697
her	-10.7698
oft	-10.7703
▁arc	-10.7707
▁Missouri	-10.7712
▁Honor	-10.7719
X	-10.772
▁earthquake	-10.772
▁Kirk	-10.7724
▁1906	-10.7724
▁organ	-10.773
▁bridges	-10.7732
▁feed	-10.7733
▁Montreal	-10.774
▁Labour	-10.774
▁realize	-10.7741
▁360	-10.7743
▁Tamil	-10.7748
▁grey	-10.7752
▁fift	-10.7752
▁bear	-10.7755
▁fantas	-10.7759
▁1904	-10.776
▁communication	-10.7766
▁Depression	-10.7767
▁drum	-10.7776
▁queen	-10.7779
▁bat	-10.778
▁1870	-10.7788
▁Season	-10.7788
▁mayor	-10.779
▁Ali	-10.7791
▁Bros	-10.7797
▁loose	-10.7799
▁wins	-10.7805
▁Are	-10.7806
▁newspapers	-10.7807
▁temporari	-10.781
▁purposes	-10.7813
▁guitarist	-10.7814
▁plus	-10.7814
ena	-10.7818
▁Mitchell	-10.7818
ap	-10.7819
gan	-10.7822
ö	-10.7823
▁Persian	-10.7826
our	-10.7828
▁Harvey	-10.783
▁wicket	-10.7835
▁sing	-10.7836
▁nav	-10.784
▁solution	-10.7843
▁Bus	-10.7845
▁proper	-10.7847
▁expensive	-10.7858
▁Championships	-10.786
shi	-10.7865
▁Week	-10.7869
▁Ridge	-10.7871
itt	-10.7872
▁Bach	-10.7873
▁realiz	-10.7874
▁cult	-10.7876
▁jazz	-10.7878
▁strengthen	-10.788
og	-10.788
▁Marie	-10.7884
▁wreck	-10.7886
▁sees	-10.789
▁administrative	-10.789
▁artwork	-10.79
▁radical	-10.7902
▁interesting	-10.7902
▁brick	-10.7905
▁dis	-10.7908
▁dozen	-10.7911
▁allie	-10.7912
▁bid	-10.7914
▁permitt	-10.7919
▁Philippines	-10.7923
▁drove	-10.7926
▁Report	-10.7933
▁familiar	-10.7935
▁Bra	-10.7938
▁investigate	-10.7939
▁publicly	-10.7945
▁measured	-10.7948
▁Critics	-10.7949
ib	-10.7951
▁Business	-10.7954
▁initiat	-10.7955
▁Cuba	-10.7956
▁degrees	-10.7958
▁Near	-10.796
▁Dragon	-10.7972
▁rebuil	-10.7979
▁Sal	-10.7979
▁08	-10.7989
▁meat	-10.7996
▁bronze	-10.7998
▁stick	-10.8005
▁disorder	-10.8006
▁cancelled	-10.8006
▁halt	-10.8006
▁Ja	-10.8007
▁Cook	-10.8008
▁Take	-10.8009
▁parish	-10.8009
▁strict	-10.801
▁inhabitant	-10.801
▁Wild	-10.801
▁values	-10.8013
▁abuse	-10.8014
▁regime	-10.8015
▁characteriz	-10.8017
▁coverage	-10.8021
▁alcohol	-10.8023
ona	-10.8029
ić	-10.8036
▁revolt	-10.8038
▁runner	-10.804
▁Ya	-10.804
stream	-10.8042
▁helping	-10.8044
▁enabl	-10.8045
▁clock	-10.8049
▁DC	-10.8049
▁Forces	-10.8062
▁monster	-10.8066
▁racing	-10.8067
▁Gun	-10.8068
▁rising	-10.8068
fer	-10.8069
work	-10.8073
▁defender	-10.8075
▁fled	-10.8077
▁minimal	-10.8078
▁mechanism	-10.8087
▁render	-10.8093
▁Files	-10.8094
▁behaviour	-10.8095
▁ownership	-10.8095
▁practical	-10.8099
▁application	-10.81
▁Tar	-10.8101
▁Arizona	-10.8107
▁cousin	-10.8111
▁songwriter	-10.8112
▁repairs	-10.8119
▁exhibition	-10.8119
▁feelings	-10.812
▁associate	-10.8124
▁rebellion	-10.8128
▁organisation	-10.8131
▁Bureau	-10.8132
▁Dylan	-10.8135
▁pointed	-10.8139
▁absolute	-10.8139
▁ruling	-10.8139
▁09	-10.814
▁colonie	-10.814
▁Wars	-10.8141
tion	-10.8145
▁villain	-10.8154
▁Athletic	-10.816
▁Tokyo	-10.816
▁string	-10.8169
▁god	-10.8174
▁waves	-10.8178
▁reward	-10.8179
▁recordings	-10.8179
▁Indies	-10.8184
▁representation	-10.8186
▁typhoon	-10.8201
▁assists	-10.8213
▁Sony	-10.8213
▁conversion	-10.8213
▁vari	-10.8221
▁willing	-10.8222
▁Base	-10.8223
▁bell	-10.8223
ther	-10.8224
▁predecessor	-10.823
▁adventure	-10.823
▁Victor	-10.8234
▁Sp	-10.8235
▁Mint	-10.8236
▁l	-10.8244
▁Nine	-10.8244
▁tribes	-10.8249
▁flagship	-10.8251
ranging	-10.8257
▁respond	-10.8263
▁surger	-10.8263
▁Ram	-10.8264
ella	-10.8278
▁Oklahoma	-10.8283
▁Murphy	-10.8283
▁prize	-10.8285
▁reinforcement	-10.8288
▁Tag	-10.8289
▁prett	-10.8291
▁remnants	-10.8296
▁Delaware	-10.8304
▁shall	-10.8307
▁Album	-10.8308
▁functions	-10.8312
▁Eve	-10.8313
fi	-10.8314
WC	-10.8315
▁legislature	-10.832
▁Such	-10.8321
▁thinking	-10.8325
▁chapel	-10.8326
▁earning	-10.8329
▁83	-10.8329
▁Federation	-10.8333
▁reverse	-10.8334
▁gust	-10.8336
▁flee	-10.8339
lu	-10.8341
▁perceiv	-10.8343
▁marine	-10.8346
▁embark	-10.8349
▁kW	-10.835
▁quiet	-10.8354
▁dominant	-10.8356
▁Switzerland	-10.8358
▁cancel	-10.8362
▁obvious	-10.8362
▁sight	-10.8362
▁console	-10.8363
▁basin	-10.8371
▁Prize	-10.8375
var	-10.8377
▁Pe	-10.8377
▁Glen	-10.8377
▁Rico	-10.8383
▁Broadway	-10.8387
▁musician	-10.8391
▁shield	-10.8391
▁excellent	-10.8391
▁frigate	-10.8395
▁universal	-10.8395
▁panel	-10.8399
ram	-10.8399
ep	-10.84
▁shells	-10.8404
▁Personal	-10.8404
▁manufacture	-10.8408
▁contributions	-10.8412
▁spore	-10.8413
▁1901	-10.8414
▁Call	-10.8415
▁Ward	-10.8415
▁announcement	-10.8417
▁Blues	-10.8417
▁playoffs	-10.8419
bridge	-10.8432
▁Val	-10.8433
▁Juan	-10.8435
▁VII	-10.8437
▁Ta	-10.8441
▁Win	-10.8446
▁quarterback	-10.8446
▁fur	-10.8447
▁subspecies	-10.845
▁Mal	-10.8452
▁Iraq	-10.8458
▁ABC	-10.8458
▁storage	-10.8459
▁battles	-10.8464
▁Soul	-10.8465
rose	-10.8467
▁Dam	-10.8469
▁institutions	-10.8476
▁Baker	-10.8476
▁concentrat	-10.848
▁bann	-10.8484
▁suggestion	-10.8487
▁par	-10.8492
▁impression	-10.8493
▁Hard	-10.8496
▁warship	-10.85
▁1903	-10.8501
▁Baby	-10.8504
▁settler	-10.851
▁Shakespeare	-10.8513
▁Leslie	-10.8513
▁1902	-10.8514
▁striking	-10.8517
▁urge	-10.8517
▁apply	-10.8526
▁Owen	-10.8527
▁Well	-10.8527
▁legac	-10.8532
▁useful	-10.8536
▁compliment	-10.8539
ju	-10.8542
▁neighbor	-10.8543
▁Bull	-10.855
▁riders	-10.855
▁vast	-10.8552
▁Perry	-10.8558
ama	-10.8559
▁theatrical	-10.856
▁Kar	-10.8562
hill	-10.8566
▁stole	-10.8568
▁marks	-10.857
▁baby	-10.8572
▁yield	-10.8573
▁altitude	-10.8574
▁patterns	-10.8576
▁Nixon	-10.8577
pp	-10.8578
ique	-10.858
▁Dick	-10.8585
lock	-10.8587
▁Amy	-10.8593
▁Dar	-10.8594
▁cable	-10.8594
▁feud	-10.8596
▁plate	-10.8598
▁objective	-10.86
▁arts	-10.8602
▁Atlanta	-10.8602
▁biographer	-10.8605
▁liquid	-10.8607
▁Villa	-10.861
▁Kurt	-10.861
▁liberal	-10.8611
▁explains	-10.8612
▁ensu	-10.8613
▁Actor	-10.8619
▁Jonatha	-10.8627
▁Denmark	-10.8628
▁hunt	-10.8631
▁sequences	-10.8632
▁Qu	-10.8633
dding	-10.8635
▁emotion	-10.8636
▁Yo	-10.8641
stein	-10.8651
▁Know	-10.8653
▁portrayal	-10.8653
▁reconnaissance	-10.8654
▁Baseball	-10.8654
▁Rihanna	-10.8658
▁EP	-10.8663
▁Trust	-10.8663
▁farmer	-10.8665
wall	-10.8668
▁dubb	-10.8668
▁circumstances	-10.8669
▁mountains	-10.8675
▁Friday	-10.8676
▁fixed	-10.8677
▁Sar	-10.8678
▁leak	-10.8689
▁ban	-10.8689
if	-10.869
▁Jacob	-10.8691
▁Hudson	-10.8693
▁rounds	-10.8694
▁incorporate	-10.8703
hood	-10.8703
▁Johnny	-10.8704
▁Abbey	-10.8706
▁ritual	-10.8714
▁Rain	-10.8714
▁jet	-10.8715
▁displac	-10.8715
▁Mid	-10.8719
▁Mother	-10.8721
ex	-10.8722
▁Karl	-10.8722
▁Gen	-10.8724
▁expect	-10.8724
▁friendship	-10.8725
▁expression	-10.8725
ane	-10.8731
▁Express	-10.8731
▁tissue	-10.8731
▁conventional	-10.8732
▁customer	-10.8733
▁Campaign	-10.8736
▁holiday	-10.8736
▁Gray	-10.8736
▁offense	-10.875
▁examples	-10.875
▁prepar	-10.8756
▁investigat	-10.8757
▁mature	-10.8765
▁Gate	-10.8769
▁05	-10.877
▁payment	-10.8774
▁cat	-10.8778
▁Communist	-10.8789
ay	-10.879
▁Arnold	-10.8792
▁suitabl	-10.8792
▁subjects	-10.8793
▁alive	-10.8802
▁revis	-10.8804
▁electron	-10.8806
▁refuse	-10.8807
▁Snow	-10.8809
▁Cole	-10.8809
▁net	-10.8812
▁Railroad	-10.8814
▁delegate	-10.8814
▁VI	-10.8818
▁Shaw	-10.8821
▁represents	-10.8823
▁merg	-10.8824
▁Obama	-10.8827
▁remarked	-10.8828
▁rap	-10.8832
▁cinema	-10.8835
ility	-10.8836
▁Keith	-10.8847
▁advis	-10.8848
▁Jimmy	-10.8849
row	-10.885
▁employ	-10.8857
▁Get	-10.8858
▁Potter	-10.8858
▁bases	-10.8859
▁Wayne	-10.886
▁ignor	-10.886
▁105	-10.8861
▁impos	-10.8862
▁warn	-10.8862
▁Reserve	-10.8871
▁punk	-10.8878
▁tune	-10.8883
▁Rachel	-10.8884
▁exposure	-10.8884
▁flights	-10.8885
▁readers	-10.8887
▁Natural	-10.8887
▁Internet	-10.8888
▁pioneer	-10.8888
ated	-10.8893
▁soldier	-10.8898
ivity	-10.8899
▁donat	-10.89
▁hook	-10.8901
▁mainland	-10.8906
▁cutting	-10.8916
▁tight	-10.8916
▁Pearl	-10.8916
▁Bel	-10.8916
qualified	-10.8918
▁goods	-10.892
▁Inc	-10.8922
▁duo	-10.8924
▁Hugh	-10.8924
▁cook	-10.8926
▁external	-10.8928
▁sq	-10.8929
▁poems	-10.8931
▁Tracy	-10.8933
▁Kenne	-10.8935
▁06	-10.8937
▁taste	-10.8937
av	-10.894
▁strain	-10.8943
▁commenc	-10.895
▁meter	-10.8952
▁Eventual	-10.8959
▁empire	-10.8963
▁Ku	-10.8967
▁strengthened	-10.8967
▁Birmingham	-10.8968
▁Impact	-10.8968
▁Ever	-10.8969
▁mines	-10.8969
▁resist	-10.897
▁dancing	-10.8972
▁Peace	-10.8972
▁routine	-10.8977
▁Die	-10.8981
▁Universal	-10.8986
tu	-10.8989
▁Drive	-10.899
▁mobile	-10.899
▁Belgian	-10.899
▁evacuat	-10.8992
▁demolished	-10.8995
▁nominations	-10.8996
▁casting	-10.8996
ement	-10.8998
▁Yankees	-10.8998
▁expense	-10.8999
▁conversation	-10.8999
▁reduction	-10.9
▁experimental	-10.9
▁Je	-10.9001
▁Defence	-10.9008
▁compound	-10.9012
▁Leonard	-10.9013
▁uncle	-10.9013
▁constitutional	-10.9014
▁artificial	-10.9021
▁culminat	-10.9021
▁constitution	-10.9025
▁Ear	-10.9029
▁McCartney	-10.903
min	-10.9032
▁restore	-10.9037
▁Morrison	-10.9043
▁coup	-10.9043
▁Phoenix	-10.9043
▁attraction	-10.9046
of	-10.9059
▁plain	-10.9059
▁Box	-10.9062
▁Type	-10.9063
▁bearing	-10.9066
▁waste	-10.9069
▁Classic	-10.907
ified	-10.907
▁Ph	-10.9071
▁Social	-10.9072
▁harm	-10.9075
ip	-10.9077
▁et	-10.9078
▁researcher	-10.9079
▁Fi	-10.9082
▁factory	-10.9084
ken	-10.9099
▁Boat	-10.9099
▁crest	-10.91
▁deliberate	-10.9102
▁Secret	-10.9105
▁Bobby	-10.9105
▁renew	-10.9106
▁Connecticut	-10.9106
▁sitting	-10.9106
▁oversea	-10.9109
▁depiction	-10.9109
▁Our	-10.9111
▁manga	-10.9112
▁favourite	-10.9113
▁infection	-10.9114
▁Madagascar	-10.9115
▁acoustic	-10.912
▁delivery	-10.912
▁07	-10.9122
▁secretary	-10.9123
▁Lost	-10.9124
worth	-10.9124
▁roots	-10.913
▁Todd	-10.9134
▁electrical	-10.9147
▁shirt	-10.9149
▁knee	-10.9159
▁Lion	-10.9162
▁Ban	-10.9163
▁backing	-10.9165
▁stores	-10.9172
▁inherit	-10.9173
▁Ontario	-10.9174
▁Champion	-10.9178
fallen	-10.9186
▁discussion	-10.919
▁Canterbury	-10.9201
▁neutral	-10.9201
▁aerial	-10.9201
▁withdrawal	-10.9202
▁drugs	-10.9208
▁react	-10.9209
▁placing	-10.921
▁Plan	-10.9211
▁removal	-10.9215
▁guid	-10.9218
▁Stan	-10.9222
▁Jupiter	-10.9224
▁Still	-10.9226
▁Community	-10.9228
▁Fleming	-10.9237
▁magic	-10.9237
▁funn	-10.9238
▁decorat	-10.924
▁kid	-10.9241
▁diamond	-10.9242
▁strategic	-10.9242
▁license	-10.9242
▁imperial	-10.9242
▁Bernard	-10.9245
▁mechanical	-10.925
EFA	-10.9255
▁Convention	-10.9256
▁solar	-10.9258
▁Oak	-10.9262
▁Napoleon	-10.927
▁Israeli	-10.9274
▁Foreign	-10.9274
▁se	-10.9274
▁articles	-10.9275
▁Fu	-10.9279
▁pitcher	-10.9279
che	-10.9281
▁Ultimate	-10.9283
▁specimen	-10.9287
▁Shin	-10.9288
war	-10.9306
▁authoriz	-10.9308
ill	-10.9315
▁tube	-10.9316
▁Mrs	-10.9322
▁translat	-10.9323
▁compil	-10.9327
▁Maya	-10.9327
▁revolution	-10.9332
▁Roll	-10.9338
▁underst	-10.9339
31	-10.9342
▁Windows	-10.9346
▁inhabit	-10.9346
▁Conservative	-10.9347
▁Rights	-10.9352
ag	-10.9355
▁gray	-10.9356
▁Dor	-10.9359
▁Vi	-10.9359
▁grass	-10.9359
▁undergo	-10.9359
▁amateur	-10.9365
▁decay	-10.9366
▁Tan	-10.9367
▁Victorian	-10.9373
▁Greg	-10.9379
▁aftermath	-10.9379
▁garner	-10.9379
▁bone	-10.9382
▁translation	-10.9383
▁explor	-10.9386
▁jurisdiction	-10.9389
▁Titan	-10.9389
▁battalions	-10.939
▁parliament	-10.9391
▁Vancouver	-10.9398
▁Hi	-10.9398
▁covers	-10.9401
▁fame	-10.941
▁membership	-10.9411
▁Par	-10.9414
▁cave	-10.9415
▁publishing	-10.9419
▁rivers	-10.9419
player	-10.9419
▁imp	-10.9422
▁wheel	-10.9437
▁Boe	-10.9439
▁Portugues	-10.9439
sha	-10.9441
▁da	-10.9446
▁Marvel	-10.9451
▁lover	-10.9451
▁suppress	-10.9458
▁anchor	-10.9464
▁trailer	-10.9465
▁Administration	-10.9467
▁proportion	-10.9471
▁TNA	-10.9471
▁planets	-10.9471
tes	-10.9479
▁Works	-10.9486
▁Gary	-10.9489
▁tenure	-10.9489
ture	-10.9492
▁encourage	-10.9495
▁Triple	-10.9497
▁Village	-10.9499
▁Grove	-10.9502
▁racial	-10.9503
ged	-10.9505
mat	-10.9509
▁Sub	-10.9509
▁μ	-10.9514
▁dam	-10.9516
ily	-10.9518
▁listen	-10.9519
▁compounds	-10.9519
▁Hardy	-10.9523
▁steps	-10.9526
▁Alice	-10.9527
▁petition	-10.9533
▁bombs	-10.9536
▁battlecruiser	-10.9537
▁Local	-10.9538
▁blocks	-10.9538
▁exceed	-10.9544
▁Dog	-10.9545
▁Fe	-10.9545
▁pages	-10.9546
▁Trophy	-10.9547
era	-10.9547
▁bond	-10.9548
▁characteristic	-10.9549
▁sang	-10.9549
▁invad	-10.955
▁125	-10.9552
▁examin	-10.9555
▁intercept	-10.9557
▁collaps	-10.9557
▁Carr	-10.9563
nt	-10.9563
▁Fish	-10.9564
▁mill	-10.9564
▁Trail	-10.9564
▁watershed	-10.9566
▁exploit	-10.9568
▁Dwight	-10.957
▁putting	-10.9571
mm	-10.9572
▁1893	-10.9572
▁sisters	-10.9572
▁sky	-10.9573
▁competitive	-10.9574
▁1860	-10.9576
▁upgrade	-10.9577
▁accomplish	-10.9579
▁trans	-10.9579
▁substitute	-10.9584
▁improvements	-10.9587
▁Off	-10.9587
▁Penn	-10.9589
▁mushroom	-10.9594
▁architectural	-10.9594
▁vs	-10.9595
▁wine	-10.9601
▁Rand	-10.9602
▁Hampshire	-10.9603
▁relocat	-10.9607
▁Deep	-10.961
▁intervention	-10.9613
▁matters	-10.9613
▁sum	-10.9614
▁1896	-10.9617
▁trigger	-10.9617
▁Oliver	-10.9619
▁supplement	-10.9622
▁Bal	-10.9622
▁birthday	-10.9625
af	-10.9626
ft	-10.9626
▁intellectual	-10.9627
▁provincial	-10.9627
ize	-10.963
▁guarantee	-10.9632
▁fault	-10.9632
▁disturbance	-10.9632
▁density	-10.9634
▁Sha	-10.9635
▁insects	-10.9636
▁chas	-10.9638
▁Edinburgh	-10.9641
▁hydrogen	-10.9646
ries	-10.9646
ich	-10.9647
▁Professor	-10.9651
▁Collins	-10.9653
▁Alaska	-10.9655
▁NCAA	-10.9656
▁Marge	-10.9656
▁dispatch	-10.966
▁explosive	-10.966
▁Mer	-10.9664
▁identical	-10.9665
▁educational	-10.9666
▁Ber	-10.9669
▁Armenian	-10.9672
▁Pakistan	-10.9676
▁pleas	-10.9679
▁shallow	-10.968
▁anticipat	-10.968
▁Grey	-10.9692
▁feeding	-10.9695
▁banks	-10.9698
▁sung	-10.9698
▁ratio	-10.9706
▁creek	-10.9708
▁voyage	-10.9708
▁muscle	-10.9708
▁heading	-10.9708
▁chase	-10.9713
▁walking	-10.9713
▁examination	-10.9714
ano	-10.9716
▁parody	-10.9722
▁cannon	-10.9722
▁1898	-10.9724
▁neighbour	-10.9727
ware	-10.9727
▁Pen	-10.9729
▁duration	-10.9733
▁Lang	-10.9737
▁Trade	-10.974
▁expert	-10.974
▁terrain	-10.9742
▁bay	-10.975
▁Province	-10.9756
▁seized	-10.9758
▁automatic	-10.9762
▁List	-10.9763
▁condemn	-10.9763
▁sav	-10.9767
▁Stock	-10.9768
▁promis	-10.977
▁streak	-10.977
▁photograph	-10.9773
utstanding	-10.9777
▁bones	-10.9777
▁medicine	-10.978
▁cartoon	-10.978
▁bare	-10.9781
▁Champions	-10.9784
▁assembly	-10.9786
▁Historical	-10.9786
▁export	-10.979
▁Thos	-10.9799
▁trough	-10.98
▁promotional	-10.98
▁rifle	-10.9804
▁elaborate	-10.9806
▁Ve	-10.9806
▁Argentina	-10.9808
▁Virgin	-10.9812
▁exclusive	-10.9813
▁trend	-10.9817
▁Yorkshire	-10.9828
▁Wii	-10.983
▁accidental	-10.9835
▁inde	-10.9835
▁Beck	-10.9837
▁JT	-10.9837
▁jury	-10.9838
▁mistake	-10.9839
▁advertising	-10.9842
▁cup	-10.9842
▁requires	-10.9842
▁repeat	-10.9843
▁Performance	-10.9847
vin	-10.9849
▁ceased	-10.9851
▁assess	-10.9853
▁Lloyd	-10.9857
▁flower	-10.9857
▁unclear	-10.9858
qu	-10.9861
▁350	-10.9861
▁tubes	-10.9863
▁magnitude	-10.9866
▁fortification	-10.9867
▁Craig	-10.9867
27	-10.9867
▁Sel	-10.9869
▁sp	-10.9869
and	-10.9873
▁Mur	-10.9874
▁output	-10.9874
ón	-10.9875
▁software	-10.9888
▁float	-10.9888
▁x	-10.9901
▁Jerry	-10.9905
▁employment	-10.9906
▁Overall	-10.9907
▁progressive	-10.9908
▁Rio	-10.991
illa	-10.9915
▁arrangements	-10.9917
▁recall	-10.9918
▁swimm	-10.9918
▁distant	-10.992
▁Globe	-10.992
▁drummer	-10.992
▁succession	-10.9921
▁repli	-10.9923
▁wake	-10.9923
▁Side	-10.9924
ring	-10.9926
▁Johnston	-10.9928
▁Turner	-10.993
▁predominant	-10.993
▁arch	-10.9931
▁Mission	-10.9933
▁blind	-10.9935
▁1899	-10.9936
hitting	-10.9937
▁explanation	-10.994
▁origins	-10.9941
▁defences	-10.9943
bar	-10.9943
▁Ste	-10.9946
▁contribution	-10.9946
▁commitment	-10.995
▁jobs	-10.9955
▁phrase	-10.9961
▁Anti	-10.9962
▁Subsequent	-10.9964
▁worship	-10.9964
enberg	-10.9965
▁Steven	-10.9965
▁approaching	-10.9965
▁qualit	-10.997
▁Bennett	-10.997
▁con	-10.997
rum	-10.9971
▁biograph	-10.9973
▁mirror	-10.9974
▁Boys	-10.9974
▁commentary	-10.9978
ock	-10.9978
▁Celtic	-10.9979
tt	-10.9979
▁proclaim	-10.9979
▁mate	-10.9981
▁preserve	-10.9983
▁photo	-10.9985
▁remark	-10.9985
▁reluctant	-10.9987
▁drinking	-10.9987
▁imagery	-10.9988
▁Swift	-10.9988
▁hole	-10.999
▁Ab	-10.9992
▁Finland	-10.9994
▁prohibit	-10.9994
⁄	-10.9998
▁directors	-11.0002
▁lawsuit	-11.0003
▁liner	-11.0003
▁improvement	-11.0003
ó	-11.0006
▁vary	-11.0012
▁ruler	-11.0014
▁hid	-11.0016
▁monaster	-11.0018
▁electricity	-11.002
▁Brothers	-11.0023
ü	-11.0023
▁Kate	-11.0024
▁dynamic	-11.0024
▁structural	-11.0024
▁le	-11.0029
▁Howe	-11.0033
▁Voice	-11.0034
▁Bird	-11.0039
▁Den	-11.004
▁destroyer	-11.0042
▁Norfolk	-11.0042
ef	-11.0046
▁sending	-11.0049
▁Mountains	-11.0054
bra	-11.0059
▁releases	-11.0059
▁Grace	-11.0059
▁Mayor	-11.0063
▁Che	-11.0063
nautical	-11.0064
▁wire	-11.0064
▁burial	-11.0066
▁cabinet	-11.0068
▁branches	-11.0069
▁Burton	-11.0071
▁Judge	-11.0072
▁prospect	-11.0074
▁publications	-11.0076
▁Queensland	-11.0078
▁Heritage	-11.0082
▁activist	-11.0091
yan	-11.0091
▁presentation	-11.0092
▁Blu	-11.0093
▁Jam	-11.0094
▁Helen	-11.0095
▁Euro	-11.01
▁Hills	-11.0101
▁radiation	-11.0108
tro	-11.0112
▁Hawaii	-11.0115
▁failing	-11.0116
▁turbine	-11.0117
▁Nicholas	-11.0117
▁immun	-11.0117
▁divorce	-11.0117
▁mask	-11.0122
aki	-11.0123
▁Barry	-11.0124
▁Sen	-11.0127
▁pale	-11.0129
▁tip	-11.0132
▁instrument	-11.0132
▁Mason	-11.0132
tre	-11.0133
▁Girls	-11.0136
▁dive	-11.0137
▁Brazilian	-11.0139
▁atomic	-11.0143
▁precipitation	-11.0147
ula	-11.0149
▁pump	-11.0151
▁heir	-11.0151
▁eagle	-11.0156
▁leads	-11.0157
tte	-11.0161
▁orient	-11.0161
▁essay	-11.0167
▁1850	-11.0168
▁Cor	-11.0168
ora	-11.017
▁Vincent	-11.0172
▁demonstrate	-11.0175
▁Catherine	-11.0176
▁athletic	-11.0176
▁pen	-11.0177
▁Davies	-11.0179
▁Syria	-11.018
▁gender	-11.0182
▁pursuit	-11.0182
▁Medical	-11.0183
▁Guinea	-11.0183
▁Mil	-11.0183
▁reinforc	-11.0184
▁grave	-11.0186
▁eastward	-11.0189
▁Emmy	-11.0191
▁attending	-11.0197
OK	-11.0199
▁exclusively	-11.0199
▁photographs	-11.0201
▁04	-11.0202
▁Harbor	-11.0205
▁root	-11.0206
▁Bur	-11.0206
▁Hor	-11.0209
▁videos	-11.0209
▁inscription	-11.0217
bert	-11.0217
▁loved	-11.0218
ire	-11.0223
▁signature	-11.0226
▁eligib	-11.0232
▁Hal	-11.0234
▁Cho	-11.0237
▁Kan	-11.0238
▁Sega	-11.0241
▁Next	-11.0242
ator	-11.0244
▁accommodate	-11.0248
▁Abu	-11.0251
▁Transportation	-11.0254
▁Rangers	-11.0256
▁rent	-11.026
▁virus	-11.0264
▁Common	-11.0268
idae	-11.0273
▁Hughes	-11.0277
▁Darwin	-11.0277
▁Sweet	-11.0277
▁beaut	-11.0279
burn	-11.028
▁Prix	-11.0283
▁sheet	-11.0284
▁Bu	-11.0288
cation	-11.0291
▁Credits	-11.0292
fe	-11.0292
▁contribute	-11.0292
▁1897	-11.0294
▁volumes	-11.0297
36	-11.0298
▁serial	-11.03
▁dogs	-11.0301
▁Yellow	-11.0302
▁Beginning	-11.0302
▁champions	-11.0304
say	-11.0305
▁crystal	-11.0307
▁lyrical	-11.0308
▁Farm	-11.0309
anime	-11.0311
▁Kane	-11.0311
▁crews	-11.0311
down	-11.0312
▁Oslo	-11.0313
▁Magic	-11.0314
▁survival	-11.0314
▁Rap	-11.0322
▁copper	-11.0323
cu	-11.0324
▁frequency	-11.0324
▁Training	-11.0327
▁Harvard	-11.0328
▁Hans	-11.033
oid	-11.0332
eb	-11.0338
▁Cameron	-11.0338
▁discipline	-11.0339
▁celebrate	-11.0342
▁legislative	-11.0343
▁conquer	-11.0348
▁Edwards	-11.0356
▁demo	-11.0356
▁collective	-11.0357
▁anger	-11.0359
▁valuable	-11.0362
▁shut	-11.0362
▁Swiss	-11.0365
▁smoke	-11.0367
aj	-11.0367
▁sixteen	-11.0368
▁sugar	-11.0368
▁Brit	-11.0371
▁respective	-11.0373
▁Moscow	-11.0378
▁conceived	-11.0378
▁Lin	-11.038
▁volunteer	-11.0383
▁Micros	-11.0383
wick	-11.0387
▁Officer	-11.0389
aw	-11.0391
▁Susan	-11.0396
▁initiative	-11.0396
▁Indonesia	-11.0396
▁Pittsburgh	-11.0399
▁commentator	-11.0399
uck	-11.04
▁Child	-11.0402
▁Gallery	-11.0404
▁ports	-11.0407
▁airfield	-11.0408
▁representatives	-11.0408
▁voting	-11.0409
▁chord	-11.0409
▁Eight	-11.0413
▁Protestant	-11.0424
▁scar	-11.0427
▁Luke	-11.0428
▁Antonio	-11.043
▁summit	-11.0431
cal	-11.0432
▁Ly	-11.0433
▁recognize	-11.0439
▁Female	-11.044
▁steep	-11.044
▁servant	-11.045
96	-11.0451
ftermath	-11.0456
▁dealing	-11.0458
▁Orange	-11.0461
▁spoken	-11.0463
▁confidence	-11.0471
▁Junior	-11.0471
▁slaver	-11.0473
▁Indonesian	-11.0473
ith	-11.0474
kar	-11.0476
▁Neil	-11.0479
▁celebrit	-11.0481
▁autumn	-11.0481
▁Terry	-11.0482
18	-11.0484
▁shaft	-11.0486
▁Tree	-11.049
▁lists	-11.0491
▁laborator	-11.0493
▁photography	-11.0499
▁boss	-11.0501
burg	-11.0502
▁recommendation	-11.0507
▁Wallace	-11.0507
▁sacrifice	-11.0508
▁victim	-11.051
▁Ruth	-11.0511
▁humor	-11.0516
▁fate	-11.0517
ible	-11.052
▁attorney	-11.0522
▁scout	-11.0522
▁urani	-11.0522
▁Upper	-11.0526
▁Bath	-11.0527
▁stuff	-11.0528
▁Section	-11.0528
▁presum	-11.0528
▁Edition	-11.0528
led	-11.0539
▁Bryan	-11.054
▁tactics	-11.0546
zi	-11.0549
▁evacuation	-11.0552
▁Cro	-11.0553
▁explicit	-11.0553
▁Formation	-11.056
▁flowers	-11.0561
▁melody	-11.0564
▁institution	-11.0567
▁roadway	-11.0569
▁inclusion	-11.0569
▁None	-11.0572
▁burned	-11.0575
uri	-11.0575
▁ca	-11.0579
osaurus	-11.0582
▁Hope	-11.0583
▁Defense	-11.0585
▁Jefferson	-11.059
▁patron	-11.0599
▁jaw	-11.06
▁careful	-11.0602
▁Books	-11.0602
▁minority	-11.0604
▁Description	-11.0605
▁revolutionar	-11.0607
▁Mon	-11.0611
▁Liz	-11.0612
▁Transport	-11.0614
▁Pink	-11.0614
▁Tang	-11.0615
chemistry	-11.0618
▁Studio	-11.0623
▁assume	-11.0628
▁occupy	-11.0632
▁sweet	-11.0634
▁170	-11.0636
▁programming	-11.0637
▁steal	-11.0638
▁forecast	-11.0639
▁conservation	-11.064
▁tag	-11.0642
▁harbour	-11.0647
▁Sheffield	-11.0652
▁demonstration	-11.0655
▁fossil	-11.0656
▁Charts	-11.0658
MA	-11.0658
▁opt	-11.0661
▁Ralph	-11.0662
▁Nova	-11.0664
▁fundamental	-11.0668
▁Larry	-11.0669
▁j	-11.0675
▁burning	-11.0678
▁Allie	-11.068
▁Gil	-11.0683
▁devices	-11.0684
▁Thing	-11.0688
sey	-11.0691
tis	-11.0691
ros	-11.0693
▁Dun	-11.0695
▁1895	-11.0696
▁collaborat	-11.0697
▁Pu	-11.0698
▁Security	-11.0699
▁mini	-11.0699
▁sat	-11.07
▁users	-11.0701
▁fold	-11.0706
▁Son	-11.0706
▁Mont	-11.0714
ogether	-11.0714
▁volcano	-11.0715
▁package	-11.0717
▁puzzle	-11.0718
▁recurr	-11.0723
▁compromise	-11.0726
▁riding	-11.0727
▁Cyrus	-11.0732
▁Work	-11.0734
▁Dallas	-11.0737
▁Clay	-11.0738
▁quit	-11.0738
▁mail	-11.074
▁wage	-11.0747
▁Zero	-11.0747
▁warfare	-11.0747
▁Herald	-11.0747
▁warrior	-11.0753
play	-11.0756
▁uncertain	-11.0758
CE	-11.0762
▁airline	-11.0764
▁fortress	-11.0764
▁fisher	-11.0764
▁admir	-11.0769
▁bombardment	-11.0769
▁gear	-11.077
▁Unit	-11.077
▁rivalry	-11.0772
▁convey	-11.0774
▁Collection	-11.0774
▁Malaysia	-11.0777
▁Sin	-11.0777
▁consult	-11.0778
▁administer	-11.0779
▁participation	-11.0782
▁samples	-11.0782
▁Amendment	-11.0784
▁modification	-11.079
▁Hunt	-11.0794
▁Austin	-11.0795
▁fung	-11.0799
▁Room	-11.0799
rus	-11.0804
▁inflict	-11.0806
▁Com	-11.0806
▁Picture	-11.0808
▁fatal	-11.0815
▁scandal	-11.0816
▁Musical	-11.0817
▁girlfriend	-11.0822
▁remote	-11.0822
▁Mor	-11.0823
▁tape	-11.0826
ight	-11.0826
▁Vol	-11.0828
▁Clarke	-11.083
▁bi	-11.083
▁tempo	-11.0831
▁FBI	-11.0833
mont	-11.0836
▁cruise	-11.0837
▁transportation	-11.0847
▁imprison	-11.0847
▁papers	-11.0852
▁tale	-11.0856
▁Sk	-11.0857
▁Fund	-11.0857
▁kiss	-11.0859
▁Chelsea	-11.0859
▁Parsons	-11.0861
▁brilliant	-11.0864
▁Woman	-11.0866
▁widow	-11.087
▁Wilhelm	-11.0873
▁disband	-11.0874
9	-11.0884
tha	-11.0884
▁salary	-11.0891
▁Danish	-11.0894
▁Mix	-11.0898
▁03	-11.0901
▁Armstrong	-11.0902
▁grandfather	-11.0902
▁educat	-11.0905
▁principle	-11.0907
▁persuad	-11.0909
▁expectation	-11.091
▁onward	-11.0911
ris	-11.0916
20	-11.0921
▁para	-11.0922
▁Quebec	-11.0923
▁Cathedral	-11.0924
▁noise	-11.0933
▁advocate	-11.0935
▁significan	-11.0935
ä	-11.0937
▁habit	-11.0937
▁Metro	-11.0944
▁dinosaur	-11.095
▁web	-11.0951
▁Fisher	-11.0953
ito	-11.0956
▁playoff	-11.0961
▁Apollo	-11.0966
▁Cast	-11.0966
▁Cultural	-11.0967
▁diverse	-11.0968
▁Fighter	-11.097
▁Place	-11.0971
▁wrestler	-11.0979
▁Fourth	-11.0981
▁revival	-11.0983
▁deteriorat	-11.0983
▁mytholog	-11.0986
▁vulnerable	-11.0988
▁Ivan	-11.0989
▁Vo	-11.0994
▁principles	-11.0994
▁dinner	-11.0994
▁carrie	-11.0995
▁recovery	-11.0995
▁sculpture	-11.0996
itis	-11.0998
▁advertisement	-11.1
▁instruct	-11.1
▁Half	-11.1003
▁Spider	-11.1005
▁orange	-11.1012
▁curv	-11.1012
▁Kaiser	-11.1016
▁Serbian	-11.1017
▁platforms	-11.1017
▁Authority	-11.1018
Z	-11.1022
fo	-11.1026
▁01	-11.1026
▁confirm	-11.1026
▁Male	-11.1026
lon	-11.1026
▁beating	-11.1028
OC	-11.1031
▁Movie	-11.1031
▁conquest	-11.1032
▁Buffalo	-11.1032
ua	-11.1036
19	-11.1039
▁mixture	-11.1043
▁Tyler	-11.1043
▁Meta	-11.1047
▁exclud	-11.1047
▁variable	-11.1047
▁Pictures	-11.1051
▁statistics	-11.1053
▁Orleans	-11.1054
▁Pam	-11.1054
▁descent	-11.1059
▁trick	-11.1059
▁Agency	-11.1061
▁Salt	-11.1062
▁Reform	-11.1071
▁Cricket	-11.1074
▁efficient	-11.1075
▁terminal	-11.1076
▁conclude	-11.1078
▁Mass	-11.1079
▁Got	-11.108
sch	-11.108
▁Utah	-11.1081
▁connections	-11.1082
▁rebels	-11.1083
▁Guitar	-11.1084
▁unexpected	-11.1086
▁opin	-11.1089
▁Sc	-11.109
▁115	-11.1091
▁Stuart	-11.1092
▁beats	-11.1093
▁Minor	-11.1096
▁outcome	-11.1098
▁error	-11.1098
tter	-11.11
▁chest	-11.1102
▁clothes	-11.1103
▁steer	-11.1103
▁requir	-11.1107
▁cathedral	-11.1108
▁Mega	-11.111
▁tribe	-11.1112
▁upset	-11.1121
tan	-11.1128
▁Constantine	-11.1129
▁FIFA	-11.113
▁1861	-11.1133
▁Charlotte	-11.1136
▁Der	-11.1137
▁myth	-11.114
▁Pine	-11.1141
▁Regional	-11.1141
▁aft	-11.1145
▁drift	-11.1145
▁moon	-11.1147
▁descendant	-11.1148
▁CBS	-11.1148
ology	-11.1149
▁installation	-11.1152
▁Richmond	-11.1152
▁Past	-11.1153
▁1889	-11.1155
▁Justin	-11.1155
▁Stevens	-11.1156
▁HD	-11.1157
28	-11.1157
▁mood	-11.1158
▁southeaster	-11.1159
▁Years	-11.1162
▁Spirit	-11.1163
▁kilometer	-11.1163
SA	-11.1165
▁Metropolitan	-11.1169
▁Oh	-11.1173
maker	-11.1175
val	-11.1178
▁experiments	-11.1181
idi	-11.1183
▁theories	-11.1184
▁Hunter	-11.1184
▁Sri	-11.1186
▁Newton	-11.1195
▁Muhammad	-11.1196
▁1894	-11.1198
▁pm	-11.1202
▁trapp	-11.1203
iness	-11.1204
▁Bulgarian	-11.1205
▁Stand	-11.1206
▁Want	-11.1213
▁killer	-11.1213
▁Bat	-11.1214
ore	-11.1219
▁illustrat	-11.1225
▁screenplay	-11.1225
▁scholarship	-11.1225
▁texts	-11.1229
▁resolv	-11.1229
▁Executive	-11.123
▁Scientology	-11.1235
▁dual	-11.1238
▁physic	-11.1239
▁destination	-11.1242
▁lifetime	-11.1242
▁elite	-11.1247
HL	-11.1248
▁1891	-11.1248
▁heritage	-11.1252
▁rug	-11.1252
▁diplomatic	-11.1254
▁surge	-11.1254
▁Bible	-11.1258
▁saving	-11.1259
▁Pin	-11.1261
uc	-11.1266
▁competitor	-11.1269
▁empty	-11.1269
▁formula	-11.1274
▁decisive	-11.1274
▁enable	-11.1275
rie	-11.1276
▁accord	-11.1279
▁Las	-11.1279
▁Rhodes	-11.128
▁Pete	-11.1282
▁rejoin	-11.1291
▁YouTube	-11.1297
▁Freedom	-11.1297
▁processes	-11.1299
▁variation	-11.13
▁nice	-11.1302
▁widen	-11.1308
gon	-11.1308
▁magazines	-11.1311
▁taxe	-11.1312
world	-11.1313
dom	-11.1316
▁Spin	-11.1319
▁Rod	-11.1326
▁1000	-11.1334
▁movies	-11.1334
▁agriculture	-11.1336
▁Hand	-11.1338
▁coordinate	-11.1339
long	-11.1341
master	-11.1341
▁millimeter	-11.1341
du	-11.1342
▁batt	-11.1343
▁markets	-11.1346
▁seventeen	-11.1347
▁confusion	-11.1347
▁pregnan	-11.1348
▁Horn	-11.1349
cast	-11.1349
▁Ring	-11.1351
▁tough	-11.1355
▁sings	-11.1357
▁biological	-11.1359
▁Code	-11.1359
▁1892	-11.136
ide	-11.136
▁dwarf	-11.1364
▁telephone	-11.1364
▁disrupt	-11.1365
▁golden	-11.1365
▁Cardiff	-11.137
▁Ana	-11.1371
▁sword	-11.1372
▁Em	-11.1375
▁Typhoon	-11.1375
▁evident	-11.1375
▁Register	-11.1375
▁barrier	-11.1376
▁devoted	-11.1378
igan	-11.1378
▁grain	-11.1378
▁Symphony	-11.1381
▁Come	-11.1381
▁Zone	-11.1386
▁talks	-11.1387
▁disabl	-11.1392
▁scenario	-11.1392
▁measurement	-11.1394
har	-11.1397
▁Wells	-11.1398
gh	-11.1401
▁bulk	-11.1403
▁bowler	-11.1404
▁skill	-11.1408
▁Conservation	-11.1409
▁proof	-11.1415
▁Kyle	-11.1415
▁Grade	-11.1416
▁lie	-11.1417
▁reliev	-11.1419
rmies	-11.142
▁Electric	-11.1421
▁MP	-11.1422
▁precise	-11.1426
▁Control	-11.1431
▁Isle	-11.1432
▁extinct	-11.1434
▁Mc	-11.1435
▁Nature	-11.1438
▁pin	-11.1443
▁timber	-11.1443
▁Danny	-11.1444
▁asset	-11.1446
▁Burns	-11.1446
▁lion	-11.1449
Y	-11.1455
ei	-11.1459
▁Orchestra	-11.146
▁nose	-11.1461
▁infrastructure	-11.1462
▁communications	-11.1463
▁dimension	-11.1463
▁applications	-11.1465
▁Cavalry	-11.1466
▁Until	-11.1466
▁Services	-11.1469
▁Sox	-11.1469
▁tooth	-11.147
▁followers	-11.1472
▁1800	-11.1472
▁pink	-11.1473
▁noble	-11.1476
▁Ground	-11.1482
ean	-11.1483
▁highways	-11.1484
▁rebuild	-11.1486
▁pound	-11.1487
▁refugee	-11.1492
▁Marc	-11.1494
▁prince	-11.1498
48	-11.1503
▁possess	-11.1507
▁poison	-11.151
▁Actress	-11.1513
▁Say	-11.1517
▁Oscar	-11.1517
▁manuscript	-11.152
rin	-11.1521
▁Leo	-11.1522
▁observer	-11.1522
▁02	-11.1527
▁sailing	-11.1528
▁arena	-11.1528
▁Shi	-11.153
▁Record	-11.1531
₹	-11.1534
▁Watch	-11.1537
▁Jerusalem	-11.154
▁literal	-11.1546
▁ordinar	-11.1547
▁resort	-11.1552
▁Airlines	-11.1552
▁peninsula	-11.1557
▁Shiva	-11.1558
▁impressive	-11.1559
fire	-11.1559
▁Start	-11.1562
▁tonne	-11.1563
ida	-11.1568
▁Brooks	-11.1569
▁retail	-11.157
▁commenting	-11.1573
▁tru	-11.1574
▁Montgomery	-11.1574
▁Wisconsin	-11.1574
▁Father	-11.1575
▁gang	-11.1577
▁census	-11.158
▁bats	-11.1584
▁Ol	-11.1588
▁Sonic	-11.1588
▁CE	-11.1591
▁afford	-11.1591
▁absent	-11.1592
▁cash	-11.1594
bin	-11.1597
az	-11.16
▁disappoint	-11.1601
▁240	-11.1602
▁crack	-11.1603
lam	-11.1604
lis	-11.1613
▁pupil	-11.1616
ose	-11.1618
▁Barnes	-11.162
▁clan	-11.1621
▁manufacturer	-11.1621
▁Pierre	-11.1622
▁ma	-11.1622
▁inning	-11.1626
wich	-11.1627
▁realistic	-11.1629
▁Bow	-11.1634
▁Yu	-11.1634
07	-11.1635
▁Donald	-11.1636
▁portrait	-11.1638
▁fortune	-11.1639
▁hide	-11.1639
▁lesson	-11.164
ika	-11.164
▁Then	-11.1641
naming	-11.1645
▁Rat	-11.1646
▁alert	-11.1655
▁overlook	-11.1655
▁Independence	-11.1655
▁Chapel	-11.1664
ew	-11.1666
▁Walt	-11.1666
wan	-11.1667
▁prototype	-11.1668
▁tea	-11.1669
▁parliamentar	-11.167
▁Falls	-11.1671
▁spark	-11.1672
▁mineral	-11.1674
08	-11.1674
▁Turkey	-11.1675
▁autobiograph	-11.1676
▁Attorney	-11.1678
▁blast	-11.1679
▁1888	-11.1681
kh	-11.1683
ode	-11.1683
35	-11.1684
▁Scots	-11.1685
etic	-11.1685
▁Bri	-11.1686
▁ear	-11.1686
▁exhaust	-11.1688
▁tomb	-11.169
▁MacArthur	-11.169
▁Sherman	-11.1693
▁Century	-11.1696
▁spawn	-11.1696
▁hostile	-11.1697
▁drain	-11.1701
▁traditions	-11.1702
▁Gill	-11.1702
▁Baltic	-11.1702
▁pictures	-11.1704
▁speculation	-11.1704
oll	-11.1708
▁Evil	-11.171
▁Panzer	-11.1714
▁nucle	-11.1716
▁censor	-11.1718
▁oversee	-11.1719
▁hang	-11.1721
▁remov	-11.1723
▁Str	-11.1723
▁Cemetery	-11.1725
▁reforms	-11.1727
▁1885	-11.1728
▁equally	-11.1728
▁Branch	-11.1729
▁metric	-11.173
▁relation	-11.173
▁Saturn	-11.1731
▁rescu	-11.1736
▁Draft	-11.1737
mus	-11.1737
▁epic	-11.174
▁Sean	-11.174
▁ski	-11.1741
▁strand	-11.1743
▁captur	-11.1743
▁dependent	-11.1744
▁proceeding	-11.1747
▁Czech	-11.1748
▁vital	-11.1749
▁amendment	-11.1749
▁Joan	-11.1751
▁Resident	-11.1754
▁wet	-11.1757
▁infant	-11.1771
▁Ag	-11.1776
▁swing	-11.1787
▁airing	-11.179
▁dying	-11.1791
▁explaining	-11.1792
▁closure	-11.1801
▁rumor	-11.1801
▁galax	-11.1802
rat	-11.1806
▁twist	-11.1807
▁hurt	-11.1807
▁comprise	-11.181
▁daughters	-11.1811
▁laps	-11.1822
▁Stra	-11.1824
▁104	-11.1826
89	-11.183
▁concurrent	-11.1831
iz	-11.1832
▁drink	-11.1833
▁Plant	-11.1833
▁bull	-11.1834
▁Rear	-11.1836
▁Reagan	-11.1837
▁comment	-11.1837
mbar	-11.1838
▁Management	-11.1848
▁Tribune	-11.1848
▁Article	-11.1848
▁romance	-11.1851
▁Nanc	-11.1854
▁Thames	-11.1854
▁circular	-11.1855
▁Mind	-11.1857
▁Ros	-11.1858
▁scrap	-11.1858
dium	-11.186
▁Romney	-11.186
▁Glee	-11.1862
▁Ur	-11.1864
▁separation	-11.1865
▁suspension	-11.1866
▁persons	-11.1867
▁111	-11.1867
▁Rogers	-11.1869
▁Athens	-11.1872
▁Barbara	-11.1874
▁Organization	-11.1878
▁distinction	-11.188
▁rider	-11.188
▁intent	-11.1882
▁disagree	-11.1883
▁Mag	-11.1885
▁1865	-11.1885
▁bitter	-11.1887
elle	-11.1889
▁Baron	-11.1892
▁Program	-11.1895
▁109	-11.1899
▁columns	-11.19
▁doctrine	-11.1902
ban	-11.1905
▁Set	-11.1907
▁bomber	-11.1909
▁Op	-11.1912
wept	-11.1915
▁invest	-11.1918
nna	-11.1924
ox	-11.1925
▁homosexual	-11.1925
▁manufacturing	-11.1925
▁generate	-11.1926
▁el	-11.1927
▁calculat	-11.193
▁enhanc	-11.1931
▁NATO	-11.1931
▁Comedy	-11.1933
▁Legend	-11.1935
ila	-11.1936
▁handling	-11.1937
▁abroad	-11.1937
▁blend	-11.1939
yne	-11.194
▁Miles	-11.1944
▁myster	-11.1947
▁pav	-11.1948
▁velocity	-11.1953
▁enroll	-11.1955
▁harsh	-11.1955
▁Burn	-11.1957
ids	-11.1958
▁viewer	-11.1959
▁continent	-11.196
▁shortage	-11.196
▁volcanic	-11.1962
85	-11.1963
▁segments	-11.1964
▁Action	-11.1965
where	-11.197
▁Des	-11.1971
16	-11.198
▁universities	-11.1983
▁Cyclone	-11.1985
▁stroke	-11.1986
▁Kill	-11.199
▁Ex	-11.1991
▁sinking	-11.1994
ducted	-11.2001
▁Robin	-11.2002
▁unveil	-11.2003
▁interrupt	-11.2004
▁egg	-11.2005
▁Fur	-11.2008
▁dust	-11.2011
▁Walk	-11.2014
▁client	-11.2015
▁Portugal	-11.2021
▁Sho	-11.2026
▁cattle	-11.2028
▁bears	-11.2028
▁physician	-11.2029
▁Chan	-11.2031
▁belonging	-11.2032
▁cards	-11.2032
ives	-11.2034
▁usage	-11.2036
▁approache	-11.2041
▁vi	-11.2044
▁Count	-11.2045
lla	-11.2046
▁Ernest	-11.2048
▁Newcastle	-11.2051
▁mock	-11.2062
▁licens	-11.2065
▁marking	-11.2067
▁Constantinople	-11.2069
▁kings	-11.2072
▁Bor	-11.2073
▁corps	-11.2073
ā	-11.2075
▁Had	-11.2079
▁participants	-11.2081
hall	-11.2084
▁Shadow	-11.2088
21	-11.2094
▁assessment	-11.2095
▁Representatives	-11.2096
▁sentenc	-11.21
tle	-11.2101
critic	-11.2101
▁Drake	-11.2101
68	-11.2102
▁Personnel	-11.2112
▁Heavyweight	-11.2112
▁Dal	-11.2113
▁advocat	-11.2114
▁loyal	-11.2117
▁José	-11.2118
▁Sur	-11.2119
▁450	-11.2125
▁studying	-11.2126
▁strange	-11.2128
▁companion	-11.2128
▁organisms	-11.2129
▁commanders	-11.213
▁massacre	-11.213
▁Continental	-11.2131
dar	-11.2131
▁Joint	-11.2133
▁trait	-11.2134
▁pole	-11.2136
▁enzyme	-11.2136
nor	-11.2143
▁Shah	-11.2147
▁demographic	-11.2148
▁Sport	-11.215
▁cheap	-11.2154
▁admit	-11.2155
lot	-11.2156
▁reache	-11.2156
▁boyfriend	-11.216
▁millimetre	-11.216
38	-11.2161
▁Laboratory	-11.2162
▁1864	-11.2162
▁Cornwall	-11.2167
▁101	-11.2169
▁lighter	-11.2171
▁Liberty	-11.2172
▁Ancient	-11.2173
▁ceiling	-11.2173
▁goddess	-11.2173
▁Sue	-11.2175
▁debri	-11.2176
▁Rama	-11.2181
ob	-11.2181
▁Future	-11.2181
▁blam	-11.2183
▁Tournament	-11.2185
▁choir	-11.2185
▁operates	-11.2186
▁gods	-11.2186
▁batteries	-11.219
▁volunteers	-11.2192
▁reactions	-11.2192
▁quot	-11.2196
▁ambassador	-11.2197
▁Standard	-11.2198
▁Marshal	-11.2199
▁genuine	-11.22
owing	-11.2204
▁visits	-11.2205
▁settle	-11.2206
▁inquir	-11.221
▁Ri	-11.2216
Tune	-11.2216
▁persist	-11.222
▁Ellis	-11.2222
▁Affairs	-11.2223
▁Nam	-11.2227
▁squadrons	-11.223
▁Cena	-11.223
▁extract	-11.2233
▁corporate	-11.2234
▁cameo	-11.2235
▁ballot	-11.2236
▁Leon	-11.2242
▁Gal	-11.2243
▁remake	-11.2246
▁transmission	-11.2246
▁navigation	-11.2246
▁Tre	-11.2247
▁lit	-11.2247
▁options	-11.2249
▁li	-11.225
▁Dis	-11.225
▁occurr	-11.2252
▁indigenous	-11.2261
▁Alberta	-11.2263
▁Leicester	-11.2265
▁Strait	-11.2265
▁cyclones	-11.2267
▁easier	-11.2267
▁logo	-11.2267
▁Link	-11.2269
▁Char	-11.2271
▁definite	-11.2272
▁blues	-11.2273
▁ramp	-11.2275
▁random	-11.2278
▁Fo	-11.2282
▁measur	-11.2283
▁deputy	-11.2289
▁consumption	-11.2289
▁Normand	-11.229
▁Isaac	-11.2294
▁Career	-11.2295
ré	-11.2296
▁dies	-11.2298
▁Min	-11.23
▁Meyer	-11.2303
▁Commissioner	-11.2308
▁Boulevard	-11.2308
▁integrat	-11.231
▁helicopter	-11.2311
▁Malcolm	-11.2314
▁resignation	-11.2316
15	-11.232
▁scrapp	-11.2322
▁fulfill	-11.2324
▁Auto	-11.2326
▁Capital	-11.2326
▁ties	-11.2328
▁campaigns	-11.233
▁fat	-11.2331
▁transit	-11.2331
▁metre	-11.2332
▁Energy	-11.2333
▁Chamberlain	-11.2339
▁Dublin	-11.2339
▁Pedro	-11.2339
gy	-11.2343
▁wash	-11.2343
▁referee	-11.2344
▁Lower	-11.2346
▁micro	-11.2347
▁flash	-11.2347
▁vocalist	-11.2349
▁excess	-11.235
▁flesh	-11.2351
▁Gi	-11.2354
▁allocat	-11.2354
adi	-11.2357
▁challenges	-11.2357
▁dreadnought	-11.2357
▁shadow	-11.2358
▁punishment	-11.2364
q	-11.2368
▁Monte	-11.2374
▁Meteorologica	-11.2375
▁Wi	-11.2376
▁Archbishop	-11.2378
▁parks	-11.2379
oli	-11.2385
▁Yugoslavia	-11.2386
▁restrictions	-11.2386
▁Friends	-11.2387
▁ERA	-11.2391
▁statements	-11.2391
▁accessibl	-11.2391
▁relat	-11.2392
▁tr	-11.2392
▁Thor	-11.2393
ria	-11.2396
▁hills	-11.2399
ira	-11.2399
▁Opera	-11.24
▁1862	-11.2403
▁benefits	-11.2407
▁Electronic	-11.2407
▁Roberts	-11.2412
▁polar	-11.2414
partially	-11.2415
▁Julian	-11.2418
▁collision	-11.242
uma	-11.242
▁Rub	-11.2422
▁breast	-11.2423
▁DJ	-11.2425
▁Angelo	-11.2429
▁Yard	-11.2434
▁Hawk	-11.2434
▁angr	-11.2435
▁Hearts	-11.2438
▁corresponding	-11.2438
▁nephew	-11.2439
▁Var	-11.244
▁judges	-11.2441
▁territorial	-11.2441
▁Wonder	-11.2442
▁Romanian	-11.2447
▁doors	-11.2453
polis	-11.2456
gle	-11.2462
end	-11.2462
▁attribute	-11.2463
▁Eddie	-11.2464
ological	-11.2464
▁Machine	-11.2464
▁Bradley	-11.2467
▁speculat	-11.2469
▁shipment	-11.247
▁industrie	-11.247
▁organic	-11.2475
Hg	-11.2475
▁Dale	-11.2476
▁Sh	-11.2478
▁rapper	-11.2481
▁bore	-11.2481
▁Guild	-11.2484
▁Dennis	-11.2484
▁beliefs	-11.2486
▁Origin	-11.2489
▁kilogram	-11.2489
▁Mat	-11.2489
▁Where	-11.2493
▁Fer	-11.2499
▁municipal	-11.2499
▁averag	-11.2499
▁sack	-11.2501
▁vicinit	-11.2501
▁Number	-11.2504
une	-11.2504
▁variations	-11.2506
▁corridor	-11.2508
▁Serbia	-11.2509
▁mixing	-11.251
▁Hol	-11.2511
pur	-11.2511
▁Pr	-11.2512
▁particles	-11.2515
ug	-11.2518
▁Sex	-11.2518
▁valid	-11.2522
▁Historian	-11.2524
▁Make	-11.2524
▁Rush	-11.2526
▁Political	-11.2527
pl	-11.2529
rk	-11.2531
▁observe	-11.2532
▁Crystal	-11.2533
▁thunderstorm	-11.2533
▁loud	-11.2533
▁infect	-11.2535
▁decid	-11.2536
▁pounder	-11.2536
▁specializ	-11.2537
45	-11.2537
▁Dakota	-11.2539
▁Morning	-11.254
▁stall	-11.2547
▁complicated	-11.255
▁Youth	-11.2551
▁Nor	-11.2552
▁inaugura	-11.2558
▁Jake	-11.2559
▁rely	-11.256
▁burst	-11.256
▁Reich	-11.2561
▁Bears	-11.2565
49	-11.2568
▁consumer	-11.2569
▁roster	-11.2577
▁Tommy	-11.2577
▁Springfield	-11.2578
▁screening	-11.2581
DOT	-11.2584
▁Serb	-11.2586
▁Angle	-11.2586
▁stern	-11.2586
▁prayer	-11.2589
▁Beth	-11.2591
▁humanity	-11.2591
▁barrel	-11.2593
▁Beat	-11.2595
▁Alliance	-11.26
▁hail	-11.2603
rich	-11.2604
▁hybrid	-11.2606
▁fluid	-11.261
▁Range	-11.2617
sson	-11.2618
▁Gibraltar	-11.2622
▁honest	-11.2622
▁mysterious	-11.2622
▁troop	-11.2624
▁reconstruction	-11.2624
▁Burke	-11.2627
▁Gre	-11.2628
▁Wagner	-11.2628
▁breach	-11.2629
▁Low	-11.2629
▁ferry	-11.2629
▁domain	-11.2635
▁Ages	-11.2636
▁mansion	-11.2636
▁Studies	-11.2643
▁convicted	-11.2647
▁Cincinnati	-11.2648
▁combine	-11.265
▁sharks	-11.2652
▁Montana	-11.2654
▁Yan	-11.2655
▁Scar	-11.2655
▁silent	-11.2661
▁1840	-11.2662
▁Blake	-11.2662
▁maps	-11.2663
▁Maine	-11.2665
▁steadi	-11.2665
▁Schuma	-11.2667
▁sheep	-11.2667
▁colours	-11.2668
▁Malta	-11.2668
▁AA	-11.2669
▁labour	-11.2671
▁user	-11.2672
▁sentiment	-11.2673
▁exterior	-11.2673
▁publish	-11.2677
rated	-11.2681
▁wonder	-11.2689
▁Bud	-11.2693
▁rotation	-11.2701
▁Eli	-11.2703
ii	-11.2706
▁Taiwan	-11.2712
▁medals	-11.2716
▁Inside	-11.2719
ort	-11.2722
PA	-11.2723
▁sad	-11.2723
▁Friedrich	-11.2725
▁knight	-11.2725
▁Nation	-11.2725
▁stain	-11.2725
▁Fear	-11.2727
▁sick	-11.2729
▁mammals	-11.2731
▁gunner	-11.2731
▁prestig	-11.2731
iff	-11.2734
worthy	-11.2734
▁permit	-11.2735
▁voters	-11.2737
▁abolish	-11.2738
▁Hull	-11.2739
▁congregation	-11.2743
▁Hop	-11.2743
▁gathering	-11.2746
▁220	-11.2746
▁mutual	-11.275
▁spider	-11.275
▁ensur	-11.2752
▁Mann	-11.2754
▁dock	-11.2755
▁reporter	-11.2763
bel	-11.2764
▁Olivia	-11.2764
ret	-11.2765
mouth	-11.2765
▁invent	-11.2768
▁compar	-11.277
▁stunt	-11.277
▁outdoor	-11.2772
▁elevat	-11.2776
▁stepp	-11.2781
▁quarters	-11.2785
eau	-11.2786
▁Break	-11.2789
▁gam	-11.2791
▁threatening	-11.2792
▁sphere	-11.2794
▁feathers	-11.2795
▁1887	-11.2798
▁Yugoslav	-11.2799
▁Shield	-11.2802
▁Antarctic	-11.2802
▁Devil	-11.2803
wi	-11.2805
▁log	-11.2805
▁installment	-11.2812
▁patent	-11.2815
▁Curtis	-11.2816
▁camps	-11.2816
▁remarkabl	-11.2819
▁Th	-11.2822
▁prosper	-11.2822
▁Arena	-11.2823
▁Afghanistan	-11.2828
bro	-11.2832
ori	-11.2834
▁varie	-11.2835
▁Ty	-11.2838
▁filmmaker	-11.2841
▁Madison	-11.2842
▁VIII	-11.2842
▁Kh	-11.2843
▁1863	-11.2843
▁outstanding	-11.2845
▁Twitter	-11.2848
▁Circle	-11.2848
▁Bang	-11.2848
zy	-11.285
▁Edmund	-11.2861
reby	-11.2862
▁1886	-11.2864
och	-11.2865
▁readi	-11.2865
ero	-11.2866
▁Technology	-11.2868
set	-11.287
ray	-11.2874
▁Orton	-11.2874
▁borrow	-11.2878
▁Vegas	-11.288
▁propagand	-11.2881
▁enact	-11.2886
▁skeleton	-11.2887
▁Former	-11.2892
▁courses	-11.2892
▁migration	-11.2892
▁trio	-11.2893
▁Gregory	-11.29
▁Rosa	-11.2901
und	-11.2903
▁gauge	-11.2907
▁cuts	-11.2908
ali	-11.2909
therapy	-11.291
▁mild	-11.2914
▁dropping	-11.2919
▁Tin	-11.2919
▁Poké	-11.292
▁tools	-11.2921
ope	-11.2924
▁plates	-11.2925
lie	-11.2927
▁Buck	-11.2927
▁Millenni	-11.2927
tal	-11.293
qua	-11.2936
à	-11.294
▁teenager	-11.294
▁102	-11.2941
▁Brooklyn	-11.2946
▁judicial	-11.2947
▁exploration	-11.2949
▁varying	-11.2952
▁Mercury	-11.2953
▁lasting	-11.2953
▁Carol	-11.2955
▁conspiracy	-11.2957
▁nurse	-11.2958
▁assassination	-11.2961
▁Too	-11.2964
▁Comics	-11.2964
form	-11.2968
▁Ter	-11.297
▁Princeton	-11.297
▁vers	-11.2971
▁McKinley	-11.2973
▁faculty	-11.2973
978	-11.2976
▁Austro	-11.2979
▁Josh	-11.2985
▁harbor	-11.2986
▁Tor	-11.2988
tur	-11.2989
▁Veni	-11.2992
▁Banks	-11.2993
▁emission	-11.2993
▁grid	-11.2995
▁carv	-11.2997
▁Tell	-11.2997
▁Nar	-11.3001
▁Hubbard	-11.3006
▁submerg	-11.3006
▁conced	-11.3006
dra	-11.3006
▁anthem	-11.3007
▁Herbert	-11.3008
art	-11.3008
▁complement	-11.301
▁intermediate	-11.3013
▁Marines	-11.3016
▁Milan	-11.3017
▁Fat	-11.3017
▁witnesses	-11.3017
night	-11.303
▁voices	-11.3033
▁pet	-11.3034
▁Ge	-11.3035
▁comics	-11.3036
▁Za	-11.3038
▁enormous	-11.3039
▁psychological	-11.3039
▁zero	-11.3039
▁blockade	-11.304
▁MLB	-11.304
▁Iran	-11.3042
▁Buddhist	-11.3046
▁milk	-11.3046
▁Urban	-11.3046
▁bombard	-11.3047
▁str	-11.3047
▁Holland	-11.3047
ves	-11.3048
▁Brook	-11.3049
▁corporation	-11.3052
▁Eagle	-11.3054
▁sketch	-11.3056
▁routing	-11.3059
▁Large	-11.3062
▁Hood	-11.3065
▁NASA	-11.3066
▁magnetic	-11.3068
air	-11.3069
▁Solar	-11.3071
▁Rich	-11.3072
▁commend	-11.3072
▁gene	-11.3074
▁declaration	-11.3081
▁Month	-11.3082
▁1884	-11.3082
▁coastline	-11.3086
▁Kra	-11.3088
▁Glasgow	-11.3092
▁Official	-11.3095
▁Talk	-11.3096
zo	-11.3101
▁Tigers	-11.3103
▁Hit	-11.3103
▁sin	-11.3104
▁acquisition	-11.3106
▁locomotives	-11.3107
▁detect	-11.3113
▁Sultan	-11.3119
▁Canucks	-11.3119
▁holes	-11.312
▁Les	-11.3122
én	-11.3128
▁stability	-11.313
▁boost	-11.313
▁harvest	-11.3133
▁excessive	-11.3134
▁atop	-11.3135
▁Gay	-11.3135
▁consequence	-11.3137
▁Mile	-11.314
▁Petr	-11.3141
▁decoration	-11.3141
▁insurance	-11.3141
▁Computer	-11.3142
▁confused	-11.3146
▁martial	-11.3146
▁allegation	-11.3147
▁Theater	-11.3148
▁Lev	-11.3148
▁murdered	-11.3149
▁rebel	-11.315
sbury	-11.315
88	-11.3152
▁Smack	-11.3153
▁Jacque	-11.316
24	-11.3162
▁flown	-11.3169
▁uprising	-11.317
▁violation	-11.317
saw	-11.3171
▁tender	-11.3171
▁Phillies	-11.3173
▁ambush	-11.3173
▁Fifth	-11.3174
▁torpedoes	-11.3178
kovic	-11.3179
▁Ghost	-11.318
▁echo	-11.318
▁Train	-11.3182
ux	-11.3182
▁Lauren	-11.3184
▁worse	-11.3184
▁spur	-11.3184
nix	-11.3193
▁resembl	-11.3195
▁Theodore	-11.3196
▁adjust	-11.3203
▁Ottawa	-11.3207
▁Round	-11.3208
naissance	-11.3213
oma	-11.3214
aire	-11.3215
▁Percy	-11.3215
▁diversity	-11.3221
▁remind	-11.3223
▁rice	-11.3229
▁Mercede	-11.323
▁cotton	-11.3234
▁Kings	-11.3234
▁Planet	-11.3235
▁Westminster	-11.3235
lia	-11.324
▁calm	-11.3243
▁rains	-11.3243
▁quest	-11.3244
▁Total	-11.325
▁1877	-11.325
▁diminish	-11.3254
▁Tintin	-11.3254
▁exceptional	-11.3255
▁collector	-11.3256
44	-11.3261
awa	-11.3264
fin	-11.3266
▁CEO	-11.3268
▁Denver	-11.3268
▁Revolutionar	-11.327
▁Br	-11.3273
▁engineers	-11.3274
▁jersey	-11.3275
▁emphasiz	-11.3277
▁Pal	-11.3278
▁Trans	-11.3279
▁touchdowns	-11.328
oon	-11.328
▁myself	-11.3289
gel	-11.3289
▁DS	-11.3289
▁collections	-11.3289
▁outfit	-11.3292
▁Basketball	-11.3295
▁Gang	-11.3297
▁1876	-11.3298
▁Name	-11.3299
▁Current	-11.3302
Q	-11.3303
▁conviction	-11.3304
▁dissolv	-11.3308
atory	-11.3308
▁compris	-11.331
▁Manuel	-11.3316
▁donation	-11.3322
▁Nevada	-11.3323
▁hypothesis	-11.3323
▁Sword	-11.3324
▁battlefield	-11.3324
▁deployment	-11.3325
uff	-11.3326
onic	-11.3328
▁Gothic	-11.333
▁jail	-11.333
oni	-11.333
▁Chuck	-11.3334
▁rebounds	-11.3334
▁aesthetic	-11.3336
▁aggregate	-11.3336
ato	-11.3343
▁Albany	-11.3343
▁Bon	-11.3345
rac	-11.3346
▁intelligent	-11.335
▁finals	-11.335
▁nationalist	-11.3354
▁hint	-11.3357
▁Otto	-11.3361
▁viewing	-11.3362
lay	-11.3362
▁Gloucester	-11.3364
▁detected	-11.3364
▁Ronald	-11.3364
▁Strong	-11.3364
ami	-11.3369
▁eliminate	-11.3372
▁Colin	-11.3375
▁agencies	-11.3378
▁scores	-11.338
▁Æthel	-11.3381
▁Days	-11.3381
▁Kid	-11.3383
▁ghost	-11.3384
▁motif	-11.3384
nic	-11.3387
▁consideration	-11.3387
▁relate	-11.3389
▁fl	-11.3391
▁revenge	-11.3391
Brien	-11.3392
▁sensitive	-11.3398
▁Franco	-11.34
▁radius	-11.34
▁assignment	-11.3406
▁Emma	-11.3408
▁Ellen	-11.3409
▁Sol	-11.341
cia	-11.3411
39	-11.3411
▁beside	-11.3411
▁threats	-11.3415
cat	-11.3423
▁file	-11.3425
▁Stage	-11.3425
▁CO	-11.3427
▁reviv	-11.3427
▁Shu	-11.3429
▁Anton	-11.3432
▁hatch	-11.3433
▁cemetery	-11.3437
▁Barcelona	-11.344
▁Economic	-11.344
▁Territory	-11.344
▁Composition	-11.344
▁Cox	-11.3443
een	-11.3445
hold	-11.3446
▁Churchill	-11.3448
▁declare	-11.3448
▁Belle	-11.3452
▁guests	-11.3453
▁Chester	-11.3454
▁enthusiastic	-11.3455
Down	-11.3457
▁venture	-11.3461
▁editions	-11.3462
▁indirect	-11.3462
▁mad	-11.3462
▁1830	-11.3463
lf	-11.3468
▁specialist	-11.347
▁Canyon	-11.3474
▁Devon	-11.3483
▁1875	-11.3483
▁punt	-11.3486
▁width	-11.3488
▁Foster	-11.3489
▁odd	-11.349
▁Sy	-11.3491
33	-11.3492
▁crush	-11.3492
▁prompting	-11.351
▁Turn	-11.3511
▁emerge	-11.3512
lor	-11.3514
▁abundant	-11.3516
▁consequent	-11.3516
▁resign	-11.3516
▁resolve	-11.3517
pen	-11.3521
▁Reed	-11.3524
tus	-11.3526
stage	-11.353
▁fossils	-11.3534
ulu	-11.3535
▁notic	-11.3536
▁manag	-11.3536
▁competitions	-11.3538
▁Bosnia	-11.3539
ain	-11.354
▁strikes	-11.3542
▁Mak	-11.3543
▁Parkway	-11.3544
▁Marsh	-11.3545
▁Delta	-11.3546
▁Carlos	-11.3546
▁cubic	-11.3546
brook	-11.3549
▁Duncan	-11.3551
▁Raymond	-11.3551
▁notion	-11.3558
▁lava	-11.356
▁Leigh	-11.3561
ky	-11.3563
▁1883	-11.3567
▁Derby	-11.3567
▁functional	-11.3569
▁linear	-11.3569
tar	-11.3571
11	-11.3573
▁RBI	-11.3573
▁Lamb	-11.3573
▁weakness	-11.3578
▁links	-11.3579
▁Weather	-11.3579
▁southwestern	-11.3579
eng	-11.358
▁Gene	-11.3583
▁LP	-11.3585
ase	-11.3585
net	-11.3592
▁Gra	-11.3594
▁harmon	-11.3597
▁successive	-11.3598
▁Calgar	-11.3601
▁1881	-11.3603
▁laugh	-11.3604
gal	-11.3606
79	-11.3608
▁procedure	-11.3612
▁detach	-11.3614
▁memoir	-11.3615
▁aside	-11.3617
▁blame	-11.3617
heim	-11.362
▁Northwest	-11.3621
▁Professional	-11.3621
shaw	-11.3622
▁properly	-11.3623
▁tier	-11.3626
▁Starr	-11.363
▁Blair	-11.3631
▁hence	-11.3633
▁proxim	-11.3636
▁Labor	-11.3636
▁instant	-11.3637
▁vegetation	-11.3643
84	-11.3643
ensis	-11.3643
▁Jamaica	-11.3644
▁presidenc	-11.3648
▁invitation	-11.3649
▁leaf	-11.3653
▁archaeological	-11.3654
▁Stein	-11.3658
▁acquire	-11.3661
▁Richardson	-11.3663
▁orchestral	-11.3663
▁Lancashire	-11.3664
▁Powell	-11.3665
ologist	-11.3666
▁prefer	-11.3668
▁coaches	-11.3668
▁crucial	-11.3668
feld	-11.367
mura	-11.367
▁Henderson	-11.3671
some	-11.3672
▁Rad	-11.3672
▁consciousness	-11.3672
▁True	-11.3676
lar	-11.3678
▁update	-11.3678
▁delegation	-11.3678
▁Cardinals	-11.3679
▁continental	-11.3681
▁mast	-11.3683
▁encounters	-11.3685
▁RNA	-11.3685
▁Desert	-11.3685
▁hunter	-11.3686
▁borough	-11.3687
una	-11.3687
▁1869	-11.3687
hr	-11.3694
▁Kal	-11.37
▁verses	-11.3703
30	-11.3704
gé	-11.3709
▁dri	-11.3709
▁tendenc	-11.3709
▁190	-11.3714
▁Pitt	-11.3716
▁230	-11.3722
▁Author	-11.3722
▁rocks	-11.3725
▁Chad	-11.3726
▁Christin	-11.3726
▁1866	-11.3731
▁northeastern	-11.3732
refore	-11.3733
▁prevail	-11.3735
ole	-11.3736
▁Steam	-11.3736
hl	-11.3737
ibility	-11.3738
▁127	-11.3739
▁Store	-11.3739
▁Ferdinand	-11.3742
▁electro	-11.3748
▁Er	-11.3748
▁nervous	-11.3749
▁Veronica	-11.3749
▁Floyd	-11.3749
▁detachment	-11.375
▁woodland	-11.3754
▁updat	-11.3754
mic	-11.3756
▁Hendri	-11.3758
▁AC	-11.3763
▁mono	-11.3768
▁larva	-11.3772
▁bag	-11.3772
▁forth	-11.3778
▁boom	-11.3778
▁horn	-11.3789
▁genres	-11.3791
▁Wellington	-11.3793
34	-11.3793
▁consensu	-11.3799
▁phenomenon	-11.3799
▁corruption	-11.3801
▁Crawford	-11.3814
▁authentic	-11.3814
ima	-11.3814
avi	-11.3818
▁Malay	-11.382
▁modest	-11.3824
▁Sid	-11.3826
▁whale	-11.3827
▁Palestin	-11.3827
▁Geoffr	-11.3835
▁induc	-11.3838
56	-11.384
▁Was	-11.3841
▁Episode	-11.3842
▁consent	-11.3843
▁yd	-11.3845
del	-11.3848
▁Non	-11.3851
▁golf	-11.3851
▁championships	-11.3852
99	-11.3855
▁Using	-11.3856
▁instructions	-11.3856
▁hamlet	-11.3857
▁Aaron	-11.3857
▁Culture	-11.3857
▁sortie	-11.3857
lium	-11.3859
▁Lock	-11.3861
41	-11.3861
▁sailors	-11.3863
▁throat	-11.3864
▁populat	-11.3865
par	-11.3866
▁Market	-11.387
▁surprising	-11.3871
▁Poe	-11.3872
▁Viet	-11.3873
▁Truman	-11.3874
▁750	-11.3875
▁Tucker	-11.3875
▁bottle	-11.3879
▁Members	-11.3882
▁XI	-11.3883
▁Mir	-11.3883
▁eighteen	-11.3885
▁philosopher	-11.3885
▁poverty	-11.3886
▁comfortabl	-11.3888
▁Colt	-11.3889
▁possessed	-11.3889
stock	-11.3892
▁kitchen	-11.3893
▁arcade	-11.3894
▁lifestyle	-11.3894
▁eruption	-11.3895
▁Site	-11.3899
▁fix	-11.39
▁Fischer	-11.39
▁Telegraph	-11.39
▁fatalit	-11.3903
▁rehearsal	-11.3903
▁input	-11.3905
▁Headquarters	-11.3908
CS	-11.391
▁stripp	-11.3912
▁thanks	-11.3913
▁printing	-11.3914
▁ambition	-11.3915
▁innovation	-11.3915
▁Solomon	-11.3915
▁Cher	-11.3917
▁1873	-11.3918
▁dimensional	-11.3918
▁frontier	-11.3923
▁Why	-11.3923
gue	-11.3928
▁1882	-11.393
▁variant	-11.3931
▁Single	-11.3932
▁insert	-11.3932
▁Mall	-11.3933
▁seeming	-11.3934
▁1871	-11.3939
▁Lead	-11.3943
▁ensemble	-11.3944
▁175	-11.3945
▁molecular	-11.3945
▁worker	-11.3949
▁Beij	-11.3954
▁silk	-11.3957
▁pleasure	-11.3959
oul	-11.396
▁Monster	-11.3961
▁Punk	-11.3961
▁filter	-11.3962
▁listening	-11.3964
▁Flanders	-11.3966
▁Heavy	-11.3966
▁Cloud	-11.3966
▁1867	-11.3969
sfield	-11.397
osa	-11.397
▁Steel	-11.3973
bal	-11.3974
pan	-11.3975
▁Chile	-11.3976
▁Food	-11.3976
▁rocket	-11.3979
▁Ser	-11.3979
▁button	-11.3979
▁Adrian	-11.3981
▁overcome	-11.3981
▁Mail	-11.3985
▁Michel	-11.3985
▁persuade	-11.3986
▁Mine	-11.3986
pin	-11.3989
▁acceptance	-11.399
▁tactical	-11.399
▁realm	-11.3991
▁interact	-11.3992
▁Mos	-11.3993
▁Jet	-11.3994
▁Kepler	-11.3995
▁reopen	-11.3995
▁Tir	-11.3997
kan	-11.4002
▁Quest	-11.4003
▁fierce	-11.4003
▁Watson	-11.4004
▁shopp	-11.4005
▁135	-11.4009
▁Alpha	-11.4012
▁Metal	-11.4014
uch	-11.4015
▁Bengal	-11.4017
ath	-11.4017
▁peasant	-11.4017
▁relay	-11.402
▁bio	-11.4028
▁clip	-11.403
▁mechanics	-11.4031
▁arguments	-11.4033
▁canon	-11.4033
▁1878	-11.4034
▁tributar	-11.4039
▁Dudley	-11.4039
▁Heaven	-11.4039
eri	-11.4042
▁erupt	-11.4044
37	-11.4044
▁realis	-11.4046
▁Travel	-11.4047
▁Gabriel	-11.405
▁Deputy	-11.4053
▁unanimous	-11.4054
▁reminiscen	-11.4055
▁lo	-11.4057
▁performers	-11.4058
▁memori	-11.4061
▁thorough	-11.4061
▁syndrome	-11.4061
▁Cre	-11.4065
zer	-11.4065
▁overwhelming	-11.4065
▁Clement	-11.4068
▁clash	-11.4069
▁Chase	-11.4071
▁Rath	-11.4072
▁winners	-11.4076
▁McCarthy	-11.4076
▁Kin	-11.4079
itch	-11.408
oi	-11.4081
▁graphic	-11.4082
aten	-11.4086
▁Trinity	-11.4091
▁Damage	-11.4094
▁Gibson	-11.4098
▁surpassed	-11.4098
▁Movement	-11.4099
▁Norse	-11.41
▁revealing	-11.4103
▁ease	-11.4105
▁pocket	-11.4106
▁fitting	-11.4106
▁conducting	-11.4107
▁headline	-11.4111
▁elephant	-11.4113
▁Commercial	-11.4113
▁Wa	-11.4114
▁divine	-11.4114
▁Hawaiian	-11.4117
▁Hale	-11.4121
▁Region	-11.4122
▁Mov	-11.4125
▁Luftwaffe	-11.4128
▁privilege	-11.4131
▁irregular	-11.4136
▁Cry	-11.4137
▁regiments	-11.4141
14	-11.4141
▁genera	-11.4142
000	-11.4142
▁dirt	-11.4143
far	-11.4149
▁Isles	-11.4151
erson	-11.4153
pop	-11.4153
47	-11.4156
▁statute	-11.4158
▁UB	-11.4164
▁Expedition	-11.4165
67	-11.4168
▁Burger	-11.4178
ado	-11.4183
▁feminist	-11.4187
▁Choice	-11.4187
▁Mobile	-11.4188
hart	-11.4188
▁Cu	-11.4193
▁missile	-11.4198
moto	-11.4199
ante	-11.4199
OS	-11.4199
▁reader	-11.42
▁Bermuda	-11.4202
▁legitimate	-11.4203
▁Leader	-11.4205
▁bacteria	-11.4207
oh	-11.4208
▁Adult	-11.421
▁raw	-11.4211
▁reinforce	-11.4212
▁lesbian	-11.4217
▁dome	-11.4222
▁Notable	-11.4222
▁plantation	-11.4222
lum	-11.4224
▁Fa	-11.4225
▁qualification	-11.4225
▁bowled	-11.4233
▁Shelley	-11.4233
▁Pet	-11.4233
ification	-11.4236
▁conductor	-11.4238
▁Monroe	-11.424
▁Kerr	-11.4245
▁Newman	-11.4246
rick	-11.4252
▁declar	-11.4253
▁immigrants	-11.4255
▁loyalty	-11.4256
▁Manager	-11.4263
▁oak	-11.4266
▁Monument	-11.427
▁caution	-11.427
▁Spencer	-11.4272
▁perception	-11.4272
book	-11.4273
▁adequate	-11.4285
▁intact	-11.4285
▁Leed	-11.4287
▁Combat	-11.4288
▁teach	-11.4291
▁Logan	-11.4293
▁1872	-11.4296
▁whales	-11.4298
▁Aguilera	-11.43
▁Selena	-11.43
▁elde	-11.4302
▁Ye	-11.4302
▁1868	-11.4304
▁Pra	-11.4304
iya	-11.4305
▁Various	-11.4308
▁fragments	-11.4309
zu	-11.4311
▁Tra	-11.4313
▁caliber	-11.4315
▁duck	-11.4317
▁ants	-11.4321
▁Chandler	-11.4323
▁coalition	-11.4323
▁manual	-11.4323
cus	-11.4324
▁Lone	-11.4324
rom	-11.4325
▁sic	-11.4326
▁RPG	-11.4327
▁locomotive	-11.4329
▁desperate	-11.4329
▁telescope	-11.433
▁flame	-11.4337
▁appreciat	-11.4338
▁Body	-11.4338
▁ash	-11.4338
▁tow	-11.434
▁Cool	-11.4344
▁astronomer	-11.4345
▁Cabinet	-11.4346
▁Gor	-11.4346
▁detective	-11.4348
13	-11.4349
▁comprised	-11.435
▁Right	-11.435
▁batsman	-11.4351
▁Ci	-11.4353
▁Nu	-11.4353
▁receiver	-11.4354
▁trademark	-11.4354
▁twentieth	-11.4355
▁instrumentation	-11.4356
▁propeller	-11.4356
▁Marcus	-11.4361
▁greet	-11.4361
▁horizontal	-11.4361
▁songwriting	-11.4361
cho	-11.4361
▁Price	-11.4364
▁complaints	-11.4366
▁synthesis	-11.4368
▁pine	-11.437
▁stake	-11.4373
▁peaceful	-11.4378
ground	-11.438
▁Butler	-11.438
▁knowing	-11.4384
▁objection	-11.4391
▁Generation	-11.4391
▁Il	-11.4391
▁slot	-11.4392
▁Bro	-11.4395
86	-11.4397
▁Engineering	-11.4397
▁Griffin	-11.4399
▁engaging	-11.4399
▁renovation	-11.4402
▁captive	-11.4406
▁Tam	-11.4408
▁Mari	-11.4413
▁preliminar	-11.4414
▁MVP	-11.4415
▁Barrett	-11.4416
▁cabin	-11.4416
▁Bla	-11.4416
▁rally	-11.4419
▁insufficient	-11.4422
▁Genesis	-11.4422
▁Springs	-11.4422
▁tram	-11.4424
▁spectators	-11.4424
▁motivat	-11.4425
▁confrontation	-11.4426
▁pregnanc	-11.4428
ison	-11.4428
61	-11.4437
▁pos	-11.444
▁155	-11.4442
▁cur	-11.4442
▁Contemporar	-11.4447
▁Money	-11.4447
▁divert	-11.4449
core	-11.445
▁utiliz	-11.4451
▁Ger	-11.4453
▁Ren	-11.4453
▁motorway	-11.4454
▁Reading	-11.4456
▁Commons	-11.4459
▁preference	-11.446
▁judgment	-11.4461
▁Newport	-11.4463
▁Tiger	-11.4466
▁spare	-11.4466
▁WWF	-11.4468
▁Maxwell	-11.4469
98	-11.447
zz	-11.4472
▁Flames	-11.4473
held	-11.4474
▁internationally	-11.4474
▁Adelaide	-11.4475
▁kn	-11.4483
▁homeless	-11.4483
▁focuse	-11.4484
▁Riley	-11.4485
▁subsid	-11.4485
▁maneuver	-11.4486
▁Raven	-11.4487
▁etc	-11.4496
drawn	-11.4496
▁neutron	-11.4498
▁interference	-11.4499
▁texture	-11.4501
▁stance	-11.4501
▁Chamber	-11.4505
▁Parachute	-11.4506
▁objectives	-11.4507
▁meal	-11.4509
stan	-11.4509
▁Motor	-11.4513
▁Surrey	-11.4514
▁attachment	-11.4514
▁lemurs	-11.4516
▁Stars	-11.4517
▁attractive	-11.4518
lim	-11.4519
▁stor	-11.4522
▁circulat	-11.4523
▁cylinder	-11.4526
▁Essex	-11.4531
▁roller	-11.4531
▁Sciences	-11.4531
▁ministers	-11.4533
▁Sara	-11.4535
▁dislik	-11.4537
▁Skinner	-11.4537
▁consequences	-11.454
ien	-11.4542
▁Para	-11.4543
▁mathematics	-11.4545
▁liver	-11.4545
elli	-11.4547
▁alarm	-11.4549
▁riot	-11.455
▁Abraham	-11.4552
▁Chancellor	-11.4552
▁extraordinar	-11.4552
▁unaware	-11.4552
▁Plymouth	-11.4552
▁Baldwin	-11.4552
▁reactor	-11.4555
▁machines	-11.4559
▁Madrid	-11.456
▁Banksia	-11.4562
▁layout	-11.4562
▁depot	-11.4563
29	-11.4564
▁cr	-11.4567
bri	-11.4567
▁gallery	-11.4568
▁Regard	-11.4569
▁Din	-11.4569
▁Legion	-11.457
▁Preston	-11.4577
▁warrant	-11.4577
▁Waters	-11.4578
rian	-11.458
▁Hancock	-11.4584
▁Brigadier	-11.4591
nan	-11.4594
nce	-11.4599
▁passion	-11.4601
▁locate	-11.4601
▁laud	-11.4602
▁Stoke	-11.4602
▁Lancaster	-11.4607
▁endors	-11.4607
▁thickness	-11.4607
▁Edgar	-11.4608
▁Christians	-11.4609
▁Page	-11.4611
▁quote	-11.4612
▁derive	-11.4613
▁Tunnel	-11.4615
▁frog	-11.4615
ij	-11.4618
▁Fan	-11.462
log	-11.462
uro	-11.4623
viation	-11.4625
▁Ark	-11.4629
▁Model	-11.4629
▁civilization	-11.4632
▁und	-11.4634
ect	-11.4634
▁blade	-11.4635
▁enclos	-11.4638
▁pier	-11.464
whil	-11.4642
▁accelerat	-11.4643
▁machinery	-11.4645
▁tap	-11.4646
▁neglect	-11.4646
▁citizen	-11.4646
▁runway	-11.4646
▁configuration	-11.4646
▁Raj	-11.4648
band	-11.465
▁conceal	-11.4654
▁Principal	-11.4659
▁revers	-11.4659
lus	-11.4662
▁instruction	-11.4666
▁Mack	-11.4667
▁Florence	-11.4669
▁parade	-11.4669
▁auction	-11.467
SU	-11.4671
▁Tai	-11.4671
▁Ak	-11.4671
▁rookie	-11.4672
▁weld	-11.4675
77	-11.4676
▁flaw	-11.4676
▁Aviation	-11.4677
66	-11.4677
▁cluster	-11.4679
▁Diamond	-11.4679
▁clay	-11.468
▁merger	-11.468
hen	-11.4681
17	-11.4686
▁wishe	-11.4688
▁Mills	-11.4689
▁165	-11.469
▁loaded	-11.4692
12	-11.4692
▁confident	-11.4692
▁custody	-11.4693
▁depress	-11.4694
▁Lou	-11.4696
▁Senior	-11.4701
▁Foot	-11.4701
▁Jeremy	-11.4708
▁nominee	-11.4708
▁Usher	-11.4709
▁redesign	-11.471
hurst	-11.4712
▁Cuban	-11.4714
▁Publishing	-11.4715
▁Palm	-11.4716
▁Glass	-11.4719
▁progression	-11.4721
▁Harper	-11.4721
▁Heath	-11.4721
▁Admiralty	-11.4722
▁currency	-11.4724
▁Twenty	-11.4724
▁grandson	-11.4728
▁pronounced	-11.4732
▁supervis	-11.4736
fall	-11.4739
▁triumph	-11.4739
▁fertil	-11.474
▁Arkansas	-11.474
▁incomplete	-11.474
▁Jennifer	-11.474
▁Vienna	-11.474
▁dur	-11.474
▁Hank	-11.4741
▁spaces	-11.4745
▁Circuit	-11.4748
▁Poll	-11.4749
hin	-11.4751
▁Nobel	-11.4751
▁mud	-11.4756
▁Flood	-11.4756
▁Romania	-11.4758
ome	-11.4759
named	-11.4759
▁smok	-11.476
oo	-11.4761
▁accommodation	-11.4764
▁Ltd	-11.4767
▁McCain	-11.4767
kov	-11.477
▁fake	-11.4771
▁suburb	-11.4774
▁Stories	-11.4776
▁fed	-11.4777
▁sibling	-11.4779
▁Phillips	-11.478
▁bench	-11.4785
▁divide	-11.4785
▁editorial	-11.4789
▁reef	-11.4791
▁McDonald	-11.4795
▁Mis	-11.4796
▁organize	-11.4801
▁cream	-11.4803
▁Coach	-11.4804
▁molecules	-11.4806
è	-11.4808
▁centered	-11.4811
▁obstacle	-11.4811
▁1879	-11.4814
▁correspond	-11.4818
▁northwestern	-11.4819
▁merit	-11.4819
▁keen	-11.482
▁Monday	-11.4821
▁Bowie	-11.4822
▁Panama	-11.4823
▁ascend	-11.4826
▁Minogue	-11.4827
▁platoon	-11.4827
▁Caroline	-11.4828
ert	-11.483
▁Arch	-11.4831
▁southward	-11.4832
▁atmospheric	-11.4838
▁funk	-11.4839
▁bra	-11.484
▁Capitol	-11.4843
▁rings	-11.4845
▁Lithuanian	-11.4846
▁Manning	-11.485
▁proud	-11.4852
▁Tales	-11.4853
▁clergy	-11.4855
▁Orthodox	-11.4859
▁dawn	-11.4859
away	-11.4862
▁Newfoundland	-11.4875
▁sediment	-11.4875
▁Sierra	-11.4875
▁array	-11.4875
▁Allmusic	-11.4875
ress	-11.4876
▁drill	-11.4876
▁batter	-11.4879
▁scorer	-11.488
▁subtropic	-11.4887
▁nineteenth	-11.4889
▁Edmonton	-11.4893
▁productions	-11.4894
▁113	-11.4898
ati	-11.4898
▁deny	-11.4899
▁postpon	-11.49
hand	-11.49
▁photographer	-11.4901
▁pose	-11.4901
▁Palmer	-11.4902
die	-11.4905
▁operator	-11.4905
▁Perth	-11.4905
▁Beautiful	-11.4907
▁Mirror	-11.4907
▁admission	-11.4907
▁Lynch	-11.4908
▁soap	-11.4909
▁Motion	-11.4909
▁Cala	-11.4914
▁Industrial	-11.4915
▁thrust	-11.4915
▁Rail	-11.4915
▁duet	-11.4925
▁Drama	-11.4926
▁discontinued	-11.4928
▁gravity	-11.4931
▁northwestward	-11.4932
stra	-11.4932
▁Kil	-11.4936
▁Arabian	-11.4937
▁pan	-11.4939
▁Task	-11.494
▁Found	-11.4941
▁guards	-11.4942
ue	-11.4944
▁bout	-11.4945
▁theoretical	-11.4947
▁besieg	-11.4947
▁prosecution	-11.4949
▁Janet	-11.4949
▁Hammer	-11.495
▁Nothing	-11.495
cut	-11.4952
▁accumulat	-11.4953
▁Continu	-11.4955
▁ambitious	-11.4955
▁spann	-11.4958
▁processing	-11.4958
▁steady	-11.4962
▁Wu	-11.4964
▁recount	-11.4971
▁cooperation	-11.4972
▁corn	-11.4974
▁teachers	-11.4976
▁auto	-11.4977
▁employer	-11.4981
erman	-11.4984
▁Zoo	-11.4986
ER	-11.4987
▁memorabl	-11.4988
▁Nad	-11.499
▁Operations	-11.4991
▁masse	-11.4995
▁punish	-11.4995
▁necessari	-11.5004
▁Double	-11.5004
▁Bass	-11.5005
▁patch	-11.5008
▁conjunction	-11.5012
▁Spartan	-11.5012
▁106	-11.5016
▁Berkel	-11.5016
▁captivity	-11.502
▁latitude	-11.502
cc	-11.502
nes	-11.5022
bank	-11.5022
26	-11.5024
▁substance	-11.5024
▁pinn	-11.5025
▁pot	-11.5026
▁partners	-11.5026
▁commit	-11.5026
▁Artist	-11.503
▁Ze	-11.5031
aga	-11.5034
how	-11.5034
▁Consequent	-11.5036
▁Intelligence	-11.5037
▁Eye	-11.5039
▁strings	-11.5042
▁synth	-11.5044
▁busy	-11.5051
▁ibn	-11.5053
▁Dai	-11.5053
▁JG	-11.5054
▁Ru	-11.5055
berry	-11.5056
▁cl	-11.5057
▁commemorate	-11.506
▁clerk	-11.5061
▁muzzle	-11.5061
iki	-11.5064
ave	-11.5065
▁magical	-11.5066
▁reconstruct	-11.5066
▁directing	-11.5067
▁Plaza	-11.5069
ites	-11.5071
▁priorit	-11.5072
▁extinction	-11.5073
▁Edwin	-11.5077
▁Has	-11.508
▁Armenia	-11.5081
hal	-11.5082
▁Protection	-11.5086
▁bath	-11.5087
▁discharge	-11.5087
mond	-11.5087
▁slip	-11.5088
▁editing	-11.5093
▁Berg	-11.5095
▁testimon	-11.5096
▁mentions	-11.5098
▁wonderful	-11.5102
▁chess	-11.5105
▁finger	-11.5105
▁antagonist	-11.5106
▁flu	-11.5109
▁Gas	-11.511
▁certification	-11.511
▁Caesar	-11.5111
▁honors	-11.5111
▁gambl	-11.5114
▁percussion	-11.5114
▁Zo	-11.5121
▁examine	-11.5121
aging	-11.5123
ović	-11.5123
▁Thunder	-11.5126
▁Survey	-11.5126
▁terrorist	-11.5133
▁membrane	-11.5134
▁confin	-11.5144
▁welcome	-11.5144
wo	-11.5145
▁sporting	-11.5147
▁Chairman	-11.5148
▁Cong	-11.5148
▁topic	-11.5149
▁honorar	-11.515
▁AllMusic	-11.5151
▁disappointment	-11.5152
▁refit	-11.5152
tel	-11.5155
▁Busch	-11.5156
▁Masters	-11.5156
▁offshor	-11.5158
▁Crew	-11.5159
▁Panther	-11.516
▁trophy	-11.5163
▁270	-11.5164
ichi	-11.5173
ã	-11.5175
▁copyright	-11.5176
▁152	-11.5177
▁Emily	-11.5179
cla	-11.5179
▁retire	-11.5184
▁Luis	-11.5185
▁anonymous	-11.5187
char	-11.5194
▁Rhine	-11.5194
hil	-11.5195
▁NL	-11.5198
▁108	-11.5198
▁delet	-11.5199
▁enlarg	-11.52
▁transformation	-11.5205
▁Paramount	-11.5208
▁subordinate	-11.5211
▁icon	-11.5213
▁Online	-11.5213
▁Cad	-11.5214
▁Garfield	-11.5219
▁Fl	-11.5219
▁Hat	-11.522
▁trap	-11.5221
▁112	-11.5221
▁Bear	-11.5221
▁jumping	-11.5223
▁Ven	-11.5225
tti	-11.5232
▁Maurice	-11.5234
25	-11.5237
▁mall	-11.5241
▁ironclad	-11.5241
▁rumour	-11.5241
augh	-11.5242
▁Bos	-11.5242
pol	-11.5243
▁panels	-11.5246
▁tide	-11.5246
▁sh	-11.5252
bach	-11.5253
▁Sim	-11.5254
▁Pit	-11.5256
▁Crane	-11.5257
▁clause	-11.5258
▁relevan	-11.5258
eur	-11.5259
▁thriller	-11.5259
▁backup	-11.5264
phy	-11.5266
▁Junction	-11.5266
▁Arctic	-11.5267
▁compare	-11.5269
CN	-11.527
▁Yet	-11.527
mark	-11.5271
▁Louise	-11.5274
▁balls	-11.5278
FC	-11.5278
▁Wings	-11.5278
▁Laura	-11.528
▁rulers	-11.5281
▁Toy	-11.5283
▁chapters	-11.5283
▁Peak	-11.5284
▁decree	-11.5285
▁Hanna	-11.529
▁Formula	-11.529
▁metropolitan	-11.5291
▁rec	-11.5297
▁shrine	-11.53
▁1874	-11.5302
▁Cop	-11.5302
▁distract	-11.5304
▁Knights	-11.5305
▁erosion	-11.5308
▁intensify	-11.5308
▁Spy	-11.531
▁arise	-11.531
▁Alien	-11.531
▁1848	-11.5312
▁Sta	-11.5315
▁Windsor	-11.5317
▁Care	-11.5319
▁bullet	-11.532
▁drown	-11.5321
▁Mongol	-11.5322
▁align	-11.5324
▁nickel	-11.5325
ute	-11.5325
▁speaker	-11.533
▁Nicola	-11.5332
▁undergraduate	-11.5333
▁quantit	-11.5341
▁secular	-11.5342
▁colonel	-11.535
▁Corner	-11.535
▁tennis	-11.535
▁rape	-11.5353
WA	-11.5358
▁decommission	-11.5358
rr	-11.5361
aku	-11.5362
▁reserves	-11.5365
▁Hopkins	-11.5367
▁discussions	-11.5367
▁Irving	-11.5369
hem	-11.5369
▁Holly	-11.5369
▁Hy	-11.5375
▁Michelle	-11.5378
▁riff	-11.5381
▁tasks	-11.5382
▁plutoni	-11.5383
▁reservoir	-11.5383
▁lobby	-11.5384
▁plastic	-11.5384
▁Bru	-11.5384
▁Holmes	-11.5387
▁worried	-11.5391
▁unhapp	-11.5392
▁Woods	-11.5394
▁Form	-11.5394
▁SH	-11.5394
▁specifi	-11.5394
▁Pierce	-11.5395
▁reserved	-11.5395
▁Partisan	-11.54
olo	-11.5401
▁speeds	-11.5404
▁vein	-11.5405
▁FM	-11.5406
▁diving	-11.5409
▁Hour	-11.5411
▁Variet	-11.5412
▁silence	-11.5412
▁gland	-11.5417
▁affirm	-11.5417
▁Stop	-11.542
▁item	-11.5421
▁Tal	-11.5423
▁hyper	-11.5424
▁Martha	-11.5425
▁Argentine	-11.5426
▁Axi	-11.5426
▁disagreement	-11.5427
fr	-11.5427
▁concentrate	-11.5433
▁Turnpike	-11.5434
▁Global	-11.5434
▁PS	-11.5435
▁Stalin	-11.5435
▁investor	-11.5436
mu	-11.5441
▁Case	-11.5441
▁Arabic	-11.5445
▁contestant	-11.5445
▁vampire	-11.5445
▁activat	-11.5446
▁tongue	-11.5451
▁Block	-11.5454
▁Face	-11.5458
▁Manor	-11.546
RA	-11.5465
▁counsel	-11.5466
▁Mina	-11.5468
▁groove	-11.5468
▁Rhodesia	-11.5474
▁geographical	-11.5476
▁luck	-11.5476
▁compact	-11.5477
▁Stanford	-11.5478
▁teenage	-11.5478
▁oxide	-11.5479
▁Spiel	-11.5486
▁identification	-11.5486
▁lease	-11.5486
▁baron	-11.5487
▁AL	-11.5487
▁Rhode	-11.5491
▁writings	-11.5495
ink	-11.5498
▁Moor	-11.55
▁Claire	-11.5501
▁Snake	-11.5502
▁uncover	-11.5504
▁diagnosed	-11.5508
▁lakes	-11.551
▁Gerald	-11.5511
▁Presley	-11.5511
▁210	-11.5511
▁fox	-11.5512
▁Any	-11.5512
ame	-11.5514
nam	-11.5516
ska	-11.5516
vel	-11.5519
▁Iceland	-11.5519
ternet	-11.5521
▁instructor	-11.5522
▁feat	-11.5523
▁Basin	-11.5526
▁SpongeBo	-11.5528
▁Willis	-11.5528
▁electoral	-11.553
▁Row	-11.5531
▁Stefani	-11.5531
▁fusion	-11.5532
▁witch	-11.5534
▁Paper	-11.5536
▁counterattack	-11.5536
unt	-11.554
▁seize	-11.5541
▁hectare	-11.5545
▁pyramid	-11.5545
▁garage	-11.5545
▁naked	-11.5545
▁haul	-11.5547
▁rounded	-11.5548
▁ch	-11.555
▁reflection	-11.5551
▁loading	-11.5556
▁Member	-11.5557
▁funnel	-11.5559
▁lineup	-11.5564
▁Observer	-11.5565
▁Bulgaria	-11.5566
ico	-11.5569
▁Jennings	-11.557
▁pirate	-11.5572
tsu	-11.5574
▁Mas	-11.5574
š	-11.5576
23	-11.5579
▁Recreation	-11.5579
▁Glenn	-11.5581
▁145	-11.5581
▁Cur	-11.5582
▁Soundtrack	-11.5588
▁1851	-11.559
▁woods	-11.5592
▁Ob	-11.5592
lash	-11.5594
▁comprehensive	-11.5596
▁Chapman	-11.5597
ava	-11.5598
▁Cra	-11.56
▁Warwick	-11.5602
▁terribl	-11.5605
▁bedroom	-11.5605
▁Mk	-11.5608
▁Beside	-11.5613
▁Vocal	-11.5614
▁Delhi	-11.5614
▁Bern	-11.5618
▁terror	-11.5618
46	-11.5618
▁Zu	-11.5621
▁lodge	-11.5622
▁Advance	-11.5626
▁waterline	-11.5628
chen	-11.5628
▁bread	-11.563
▁hire	-11.5633
inus	-11.5633
▁Gone	-11.5634
▁violat	-11.5639
▁Kor	-11.5641
▁Others	-11.5641
▁Broadcasting	-11.5642
▁131	-11.5646
▁plead	-11.5647
▁accent	-11.5648
▁coloured	-11.5648
▁Pol	-11.5651
▁landings	-11.5651
▁marsh	-11.5653
▁spite	-11.5653
▁comparabl	-11.5654
▁Living	-11.5655
▁unofficial	-11.5656
▁prop	-11.5658
▁Booth	-11.5661
▁mathematical	-11.5665
▁Universe	-11.5665
▁Bueno	-11.5666
▁solve	-11.5667
▁Castro	-11.5668
▁disk	-11.5669
▁Nichols	-11.5672
▁centimetre	-11.5674
▁Jeffrey	-11.5674
hor	-11.5676
beat	-11.5678
▁Singer	-11.568
▁Southampton	-11.5682
▁await	-11.5682
ways	-11.5684
▁Ac	-11.5686
▁Hipp	-11.5686
▁Outside	-11.5687
▁compensation	-11.5692
▁Chang	-11.5693
▁Bah	-11.5696
71	-11.5699
▁Alternative	-11.57
▁Baptist	-11.5701
▁genes	-11.5702
▁Hayes	-11.5703
▁Dominican	-11.5703
▁tin	-11.5708
▁turtle	-11.5708
▁sacred	-11.5709
▁Pilot	-11.5709
▁Nathan	-11.5711
▁Barr	-11.5711
▁Fletcher	-11.5717
▁Lightning	-11.5718
▁Berry	-11.572
▁Venus	-11.5723
▁resume	-11.5727
▁Prussian	-11.5729
▁Kon	-11.5729
sville	-11.573
▁intersections	-11.5734
▁Cam	-11.5734
▁revision	-11.5735
▁André	-11.5736
54	-11.5737
▁lights	-11.5739
▁Borough	-11.5745
▁Annie	-11.575
▁Shore	-11.575
▁amazing	-11.5754
▁Patton	-11.5757
▁Comic	-11.5758
▁drainage	-11.5762
▁wagon	-11.5763
▁corpse	-11.5765
▁tours	-11.577
▁Kenny	-11.5771
enburg	-11.5771
canal	-11.5771
▁quant	-11.5776
▁Concert	-11.5779
▁freight	-11.5779
▁maker	-11.5779
▁Senators	-11.5783
▁propose	-11.5785
▁Hear	-11.5786
▁Ferrari	-11.5787
▁eleventh	-11.5793
▁mandat	-11.5795
▁denounc	-11.5796
▁dorsal	-11.5796
▁midnight	-11.5797
▁upward	-11.5798
iest	-11.5802
▁Kiss	-11.5805
▁torture	-11.5806
▁Bolton	-11.5809
▁entertaining	-11.5809
▁bars	-11.581
▁em	-11.581
horn	-11.5812
▁mosque	-11.5813
▁Daniels	-11.5814
▁backward	-11.5814
ben	-11.5816
▁comet	-11.5818
▁lemur	-11.5819
▁Porter	-11.5819
▁Eisenhower	-11.5822
▁coffee	-11.5822
▁poly	-11.5824
▁choos	-11.5825
▁zoo	-11.5827
▁mistaken	-11.5828
▁Flag	-11.5828
▁Johann	-11.5829
▁Style	-11.583
▁Retriev	-11.5831
▁bassist	-11.5836
▁Kl	-11.5837
▁Mun	-11.5838
▁Marco	-11.5838
▁Artillery	-11.584
▁collid	-11.584
▁Lords	-11.5842
▁280	-11.5842
▁expell	-11.5844
▁diary	-11.5845
▁sophisticat	-11.5849
▁unpopular	-11.5849
ending	-11.585
▁Pirates	-11.5851
▁nests	-11.5853
▁EU	-11.5857
etta	-11.5858
▁reprint	-11.5858
▁contributor	-11.5859
▁monks	-11.586
▁Syrian	-11.586
▁reunit	-11.5863
▁neo	-11.5863
▁Distinguish	-11.5866
▁Guadal	-11.5866
▁Rugby	-11.5867
▁rotat	-11.5867
▁experts	-11.5868
beit	-11.5868
king	-11.5872
▁placement	-11.5873
▁Sometime	-11.5878
▁Cave	-11.5879
▁103	-11.588
▁Rare	-11.5881
▁painter	-11.5881
▁Truth	-11.5883
game	-11.5883
▁convincing	-11.5884
▁Lea	-11.5884
xtant	-11.5887
chan	-11.5889
▁manor	-11.589
▁Rhodesian	-11.5891
▁punch	-11.5892
▁foul	-11.5894
▁Vince	-11.5895
▁swamp	-11.5895
▁shooter	-11.5898
▁Mana	-11.5898
▁toxic	-11.59
▁mint	-11.5901
lumni	-11.5901
▁Treasury	-11.5902
▁flashback	-11.5902
▁exciting	-11.5906
▁Wat	-11.5906
▁diseases	-11.5908
together	-11.5909
▁leather	-11.591
▁Lodge	-11.5912
▁conscious	-11.5917
▁Jesse	-11.5919
▁accurac	-11.5919
▁capabilit	-11.5922
▁negotiate	-11.5929
▁basement	-11.5929
▁outline	-11.5929
lit	-11.5933
▁promising	-11.5939
▁Warsaw	-11.5942
uring	-11.5947
▁hanging	-11.5947
▁contend	-11.5948
▁VH	-11.5949
▁dragon	-11.5949
▁Ant	-11.595
▁Neptune	-11.5955
▁AIDS	-11.5955
▁Ferguson	-11.5955
▁Dodger	-11.5958
▁affiliate	-11.5959
▁Doug	-11.5963
nu	-11.5963
▁forgot	-11.5964
urism	-11.5966
▁refuge	-11.5967
▁defect	-11.5967
▁intentional	-11.5968
▁limestone	-11.5973
▁Sussex	-11.5973
▁Engineer	-11.5973
▁370	-11.5974
▁demon	-11.5977
▁disturb	-11.5977
▁Laf	-11.5978
▁Nord	-11.5979
▁Bangladesh	-11.5982
▁hazard	-11.5982
▁coaster	-11.5985
▁fever	-11.5986
aba	-11.5989
▁evacuate	-11.5989
▁homage	-11.5991
▁Ode	-11.5991
▁barrack	-11.5991
onso	-11.5991
▁socialist	-11.5991
▁Gaza	-11.5992
▁errors	-11.5999
▁Hispanic	-11.5999
grad	-11.6
64	-11.6001
▁Lucy	-11.6002
▁ages	-11.6004
borough	-11.6005
▁Source	-11.6009
▁tribal	-11.6009
▁Columbus	-11.601
ometric	-11.6012
▁Serbs	-11.6014
▁Easter	-11.6016
▁Reynolds	-11.6017
▁stomach	-11.6017
▁negotiated	-11.6019
atic	-11.6022
▁cultivat	-11.6023
▁Taxonom	-11.6026
▁marble	-11.6026
▁administrator	-11.6026
▁Rice	-11.6027
▁goalkeeper	-11.6027
▁invention	-11.6032
▁Close	-11.6032
▁Morton	-11.6033
▁sanction	-11.6037
▁cu	-11.604
▁robot	-11.6041
▁cantata	-11.6044
ema	-11.6046
▁Hip	-11.6048
▁Pas	-11.605
▁expir	-11.6051
▁Vic	-11.6051
▁vault	-11.6054
arm	-11.6058
▁presid	-11.6059
▁mob	-11.606
▁planes	-11.6062
▁Ship	-11.6066
▁Scotia	-11.6069
▁suburban	-11.6074
▁consumed	-11.6075
▁Jin	-11.6076
▁hate	-11.6077
court	-11.6078
▁Franz	-11.6078
▁nobility	-11.6081
▁evolutionar	-11.6083
▁utter	-11.6084
▁Lex	-11.6086
ception	-11.6089
▁seizure	-11.6089
▁Munich	-11.609
mel	-11.6092
▁overlap	-11.6094
ges	-11.6095
▁Lithuania	-11.6095
kie	-11.6095
▁incorrect	-11.6098
▁Raja	-11.61
née	-11.6102
▁blown	-11.6103
bit	-11.6104
▁mentor	-11.6105
ott	-11.6107
▁constituenc	-11.6107
▁enforcement	-11.6108
▁shipyard	-11.6109
can	-11.6111
▁Beyond	-11.6111
fold	-11.6112
season	-11.6112
▁storey	-11.6113
▁innovative	-11.6116
▁imprisonment	-11.6118
▁Dart	-11.6119
▁twelfth	-11.6126
▁Swan	-11.6126
87	-11.6127
▁poster	-11.6133
▁referendum	-11.6135
▁shale	-11.6135
ene	-11.6135
▁Siege	-11.6136
pper	-11.6139
▁hostage	-11.6144
▁informal	-11.6147
▁suspicion	-11.6153
▁incorporat	-11.6153
▁Tall	-11.6154
▁Nebraska	-11.6162
▁Hebrew	-11.6162
▁Popular	-11.6163
▁analog	-11.6163
▁crater	-11.6164
▁refin	-11.6164
▁honours	-11.6165
▁imagin	-11.6165
ating	-11.6169
▁Costa	-11.617
▁Card	-11.6172
▁limitations	-11.6173
▁cow	-11.6175
▁Salis	-11.6176
▁scope	-11.618
▁farms	-11.6181
▁proven	-11.6184
▁maneuvers	-11.6185
▁Ski	-11.6186
wine	-11.6187
▁260	-11.6189
€	-11.6189
▁parasite	-11.6189
▁chronicle	-11.6191
▁seasonal	-11.6192
▁Dawn	-11.6193
BA	-11.6194
▁bonds	-11.6194
▁desir	-11.6196
▁rectang	-11.6198
▁Hammond	-11.6199
▁maturity	-11.62
▁bold	-11.62
rez	-11.62
▁Lar	-11.6202
▁Kn	-11.6202
▁missiles	-11.6205
▁commerce	-11.6207
▁renown	-11.6207
▁Lois	-11.6208
▁municipality	-11.621
▁Plann	-11.6213
smith	-11.6214
▁Linda	-11.6216
▁Rhys	-11.6218
▁guitars	-11.622
▁Southeast	-11.6222
nia	-11.6223
▁comfort	-11.6224
▁Volt	-11.6224
▁Sunderland	-11.6226
▁Attack	-11.6226
▁Chapter	-11.6226
50	-11.6226
▁Derek	-11.6227
▁orbital	-11.6227
▁Pier	-11.6228
▁Blaine	-11.623
▁Eugene	-11.623
▁Apart	-11.6232
▁Athenian	-11.6235
▁Volume	-11.6235
▁democrac	-11.6235
▁MS	-11.6235
bol	-11.6235
room	-11.6236
▁determin	-11.6238
58	-11.6242
▁Cle	-11.6243
▁illustrations	-11.6244
▁Java	-11.6245
▁happi	-11.6246
▁1859	-11.6247
ela	-11.6248
▁Beast	-11.6253
▁communicate	-11.6255
▁amino	-11.6256
▁chicken	-11.6256
▁fortifi	-11.6259
▁adaptations	-11.626
DS	-11.6267
EF	-11.627
▁Pot	-11.6271
▁Robertson	-11.6273
take	-11.6273
matic	-11.6278
hn	-11.6278
sex	-11.6278
ér	-11.6278
▁Blo	-11.6279
▁welcom	-11.6279
▁genius	-11.6281
▁Maple	-11.6282
72	-11.6287
▁virtue	-11.629
▁balloon	-11.6291
▁bin	-11.6298
▁miner	-11.6299
▁rendition	-11.6299
▁diagnosi	-11.6299
▁vector	-11.6299
▁AP	-11.63
▁Midland	-11.6302
▁organs	-11.6305
▁subsidiary	-11.6308
▁reliabl	-11.6312
▁Wei	-11.6312
▁efficiency	-11.6319
▁sink	-11.6322
▁tool	-11.6322
▁Wide	-11.6326
▁protective	-11.6327
▁Fraser	-11.6327
▁preview	-11.6328
▁Hugo	-11.6329
▁Joyce	-11.6329
▁topics	-11.6329
▁Canberra	-11.6336
▁triangle	-11.6336
▁Cecil	-11.6336
▁decease	-11.6336
▁Rapid	-11.6337
▁Palestinian	-11.6338
▁explod	-11.6338
▁Primar	-11.634
uda	-11.6341
▁preservation	-11.6342
▁Im	-11.6344
▁invite	-11.6344
æ	-11.6345
chu	-11.6346
mas	-11.6347
▁torn	-11.6348
▁deficit	-11.6355
▁Winchester	-11.6355
▁correspondence	-11.6355
▁cement	-11.6358
▁Lesser	-11.6359
▁animator	-11.6361
▁Hamburg	-11.6362
▁pigeon	-11.6364
▁screens	-11.6367
▁1845	-11.6368
▁Guards	-11.6369
▁tyre	-11.6374
▁societies	-11.6375
▁117	-11.6375
▁procedures	-11.6376
croft	-11.6379
▁binding	-11.6379
nell	-11.6379
▁variet	-11.6382
▁acute	-11.6383
▁Danub	-11.6384
right	-11.6385
▁adoption	-11.6391
▁senator	-11.6391
▁Krishna	-11.6392
▁mouse	-11.6392
▁summary	-11.6393
▁powder	-11.6393
▁Willie	-11.6402
CI	-11.6402
▁Jenna	-11.6402
▁Brighton	-11.6404
▁relieve	-11.6405
▁dig	-11.6406
▁axis	-11.6406
▁Calvin	-11.6409
▁Pont	-11.641
č	-11.6412
▁sprint	-11.6413
▁Joel	-11.6414
▁thank	-11.6415
▁Quinn	-11.6417
▁sweep	-11.6418
▁safely	-11.642
▁Minne	-11.6422
▁Philippine	-11.6426
▁findings	-11.6426
94	-11.6426
▁Have	-11.6427
▁disco	-11.6427
LL	-11.6429
▁indication	-11.643
▁collaborator	-11.6432
▁operas	-11.6435
▁Films	-11.6436
▁fraud	-11.6438
▁contrary	-11.6439
lly	-11.6439
▁amend	-11.644
win	-11.6445
are	-11.6446
▁Alexandria	-11.6447
▁keyboard	-11.6447
▁Timberlake	-11.6448
▁sexuality	-11.6448
▁breakdown	-11.645
▁speakers	-11.645
▁plug	-11.6453
ction	-11.6453
▁Evan	-11.6454
81	-11.6456
▁HIV	-11.6457
▁Holocaust	-11.6457
▁interface	-11.6457
gram	-11.6461
‘	-11.6467
▁relax	-11.6467
▁Assistant	-11.6467
▁Rip	-11.6467
▁trunk	-11.6476
▁sympath	-11.6477
▁modes	-11.6478
▁adviser	-11.6479
▁Lenin	-11.648
▁cats	-11.6482
10	-11.6483
▁fears	-11.6483
▁Omaha	-11.6485
▁Racing	-11.6486
▁Karen	-11.6486
▁heaven	-11.6495
▁Woll	-11.6496
▁Petersburg	-11.6499
97	-11.6499
arch	-11.65
ister	-11.65
▁subtle	-11.6501
▁utilit	-11.6502
▁saint	-11.6503
▁Kemp	-11.651
▁excavat	-11.6511
▁juvenile	-11.6512
▁Portsmouth	-11.6514
▁atoms	-11.6514
▁brass	-11.6516
▁Norton	-11.6517
▁dispers	-11.6517
▁Put	-11.6518
▁scream	-11.6523
boy	-11.6524
▁Bailey	-11.6524
uf	-11.6526
▁availability	-11.6526
▁Bun	-11.6527
▁Tank	-11.6528
▁Giant	-11.6529
▁Bil	-11.6534
▁Bert	-11.6534
▁1200	-11.6535
▁App	-11.6535
gin	-11.6539
ú	-11.6539
cl	-11.654
▁emigrat	-11.6541
▁Information	-11.6542
▁Destin	-11.6543
▁Toward	-11.6547
▁Witch	-11.6548
▁constitute	-11.655
cht	-11.655
▁nominal	-11.6551
▁Wolverine	-11.6552
▁striker	-11.6552
pot	-11.6556
▁tackle	-11.6558
▁emphasize	-11.6558
▁contaminat	-11.6561
arrow	-11.6562
▁excited	-11.6562
▁calendar	-11.657
▁fantastic	-11.6571
73	-11.6574
▁Singh	-11.6574
▁Aircraft	-11.6576
lag	-11.6578
▁Chen	-11.658
IAA	-11.6581
▁keyboards	-11.6583
▁dose	-11.6587
▁Elliott	-11.6588
▁hymn	-11.6589
nik	-11.6589
▁Dayton	-11.6591
NC	-11.6592
▁Change	-11.6594
▁Torres	-11.6598
star	-11.6599
▁Forbes	-11.6599
▁veto	-11.6599
RS	-11.6604
▁dominate	-11.6608
▁Sicily	-11.6608
▁Duchess	-11.6608
▁citizenship	-11.6609
▁Webber	-11.661
▁rode	-11.6614
▁Places	-11.6615
▁Given	-11.6615
▁relegat	-11.6615
▁studios	-11.662
▁determination	-11.662
▁profits	-11.662
78	-11.6621
▁Associat	-11.6626
▁Saw	-11.6626
▁puppet	-11.6627
▁mann	-11.6627
▁concluding	-11.6627
lli	-11.6627
▁poisoning	-11.663
▁Ran	-11.6633
▁Gamepla	-11.6633
▁comedian	-11.6635
▁Luc	-11.6635
▁plaque	-11.6637
▁ESPN	-11.6637
▁Ny	-11.6642
▁generations	-11.6643
oka	-11.6644
▁define	-11.6645
▁Hoffman	-11.6646
▁Austen	-11.6646
▁Fiction	-11.6647
▁controll	-11.665
▁1820	-11.6651
▁gentle	-11.6652
▁generator	-11.6653
▁televis	-11.6654
▁predecessors	-11.6654
▁Durham	-11.6655
▁gospel	-11.6656
▁endangered	-11.6657
▁Lynn	-11.6658
▁114	-11.6658
▁SMS	-11.6661
▁Productions	-11.6664
▁Wick	-11.6667
▁Neu	-11.6668
▁countryside	-11.667
▁performer	-11.6674
▁sympathetic	-11.6675
▁Pepper	-11.6675
burgh	-11.6679
▁Gardner	-11.6685
stuck	-11.6686
▁oral	-11.669
▁Leg	-11.669
▁tear	-11.6691
▁pub	-11.6691
▁Mumbai	-11.6694
▁floors	-11.6698
▁alteration	-11.6701
▁....	-11.6702
▁terrestrial	-11.6704
▁Peru	-11.6706
▁Direct	-11.6707
eaten	-11.671
▁chances	-11.6712
▁primitive	-11.6713
▁maritime	-11.6714
▁workshop	-11.6715
▁Gardens	-11.6717
ingham	-11.6723
▁121	-11.6723
▁ceremonial	-11.6726
oque	-11.6727
▁dominan	-11.6729
▁eject	-11.673
graph	-11.6733
▁retir	-11.6734
▁starter	-11.6735
▁wrapp	-11.6736
▁Crash	-11.6736
▁Cri	-11.6737
▁Speed	-11.6737
wy	-11.6738
RC	-11.6738
ides	-11.6741
▁trilog	-11.6742
▁reservation	-11.6742
▁Bran	-11.6742
▁bills	-11.6743
▁Jazz	-11.6743
▁Data	-11.6744
▁Step	-11.6744
▁Nas	-11.6747
▁implementation	-11.6748
▁conn	-11.6748
▁Bahamas	-11.6752
▁coral	-11.6752
▁Wang	-11.6753
▁enforc	-11.6754
posed	-11.6754
▁skiing	-11.6757
rant	-11.6757
aya	-11.6759
view	-11.6759
▁announce	-11.6761
▁superstructure	-11.6762
▁dump	-11.6762
ui	-11.6768
▁Prussia	-11.6768
agh	-11.6769
▁Crow	-11.677
▁Monica	-11.6772
aker	-11.6774
▁draws	-11.6775
lle	-11.6778
▁Savage	-11.6782
▁Commodore	-11.6782
▁melt	-11.6782
rop	-11.6786
69	-11.6789
▁Pearson	-11.6791
▁northeastward	-11.6792
▁narrator	-11.6793
▁Distribution	-11.6801
▁Rise	-11.6801
▁oppose	-11.6801
▁Tampa	-11.6801
▁badge	-11.6803
▁characteris	-11.6803
▁1854	-11.6804
▁Cruz	-11.6805
▁lunch	-11.681
▁Lopez	-11.681
▁consultant	-11.6811
▁IX	-11.6811
▁Bomb	-11.6812
▁Guest	-11.6813
▁slide	-11.6813
▁Maxim	-11.6814
57	-11.6818
▁Jose	-11.6819
▁Wend	-11.6819
▁jewel	-11.682
▁coincid	-11.6821
▁Angela	-11.6822
▁1857	-11.6823
▁clever	-11.6827
▁Que	-11.6829
▁frustrated	-11.6832
▁oz	-11.6832
▁ancestors	-11.6835
▁symbolic	-11.6837
▁advertise	-11.6838
▁distress	-11.684
▁Iraqi	-11.684
▁motivation	-11.6845
▁satisfied	-11.6846
▁Bee	-11.6847
▁submission	-11.6849
▁NME	-11.685
▁brutal	-11.685
▁Cut	-11.6853
▁Producer	-11.6854
TV	-11.6856
▁Need	-11.6857
▁prominence	-11.6859
▁augment	-11.6859
▁Newark	-11.6859
▁Private	-11.6859
oke	-11.6863
elda	-11.6866
▁precursor	-11.6868
▁Wong	-11.6869
nar	-11.6874
▁businessman	-11.6876
93	-11.688
▁Diana	-11.6882
▁Rovers	-11.6884
▁Jar	-11.6884
▁Denis	-11.6884
TS	-11.6885
mun	-11.6886
▁encompass	-11.6886
▁tar	-11.6886
▁Kay	-11.6887
▁McMahon	-11.6888
▁overthrow	-11.6888
▁thermal	-11.6888
▁democratic	-11.6889
▁Tha	-11.6889
▁Tel	-11.6891
▁Mick	-11.6891
via	-11.6891
▁merge	-11.6893
uli	-11.6896
▁contingent	-11.6898
▁flourish	-11.6898
▁kit	-11.6901
▁helicopters	-11.6902
▁Ré	-11.6905
▁Georgian	-11.6906
BC	-11.6908
▁immigration	-11.6908
▁smart	-11.6909
▁suite	-11.691
Spot	-11.6916
▁Dana	-11.6923
▁buses	-11.6925
▁lung	-11.6927
▁Joshua	-11.6927
▁prediction	-11.6929
▁chant	-11.693
▁flie	-11.693
▁Holden	-11.693
onia	-11.6936
▁Methodist	-11.6938
▁imagination	-11.6939
▁Environmental	-11.6942
▁farmland	-11.6944
▁Diệm	-11.6947
uit	-11.6951
▁shortened	-11.6952
vy	-11.6953
▁Mah	-11.6956
▁burden	-11.6957
▁commemorat	-11.6963
▁Barber	-11.6964
▁tracking	-11.6965
▁SA	-11.6968
▁gu	-11.6969
▁Lie	-11.6969
▁inspection	-11.697
▁Dame	-11.6977
▁banner	-11.6977
▁suburbs	-11.698
▁median	-11.6981
tory	-11.6982
▁Lyon	-11.6982
▁displacement	-11.6987
▁derivative	-11.6987
▁worsen	-11.6987
izing	-11.6988
▁stopping	-11.6988
ash	-11.6988
▁systematic	-11.6989
get	-11.6991
▁Mach	-11.6992
▁morale	-11.6997
▁Net	-11.6998
▁Elder	-11.7
▁recreational	-11.7
▁graduation	-11.7003
▁superhero	-11.7006
▁Claude	-11.7006
▁Engineers	-11.7007
▁restart	-11.7008
▁Ivy	-11.7008
▁Inn	-11.701
▁contradict	-11.701
▁owl	-11.7017
▁Rev	-11.7021
▁Phantom	-11.7026
▁compartment	-11.7026
▁overhaul	-11.7026
chester	-11.7033
▁illustrate	-11.7038
40	-11.704
dor	-11.7041
hra	-11.7042
▁Ot	-11.7042
▁Spitfire	-11.7046
▁Gospel	-11.7046
▁Meg	-11.7049
▁Table	-11.7049
▁landmark	-11.7054
▁isotopes	-11.7055
▁Knowles	-11.7056
▁Persona	-11.7057
ST	-11.7061
▁surf	-11.7064
▁Sergeant	-11.7066
▁Ashley	-11.7069
▁replica	-11.707
▁Kingston	-11.7073
ywhere	-11.7073
▁Immediate	-11.7075
▁enthusiasm	-11.7075
AC	-11.7076
▁glider	-11.7079
▁unlock	-11.7079
▁observ	-11.7082
▁Hannah	-11.7083
▁185	-11.7084
throp	-11.7085
▁Tur	-11.7086
▁Cow	-11.7088
born	-11.7089
▁bite	-11.709
▁profession	-11.709
▁Look	-11.709
▁vent	-11.7094
ritten	-11.7094
▁ideolog	-11.7096
▁brake	-11.7097
▁Zi	-11.7098
▁mat	-11.7101
▁transmitt	-11.7105
▁Adriatic	-11.7105
▁cancellation	-11.7105
▁breakthrough	-11.7106
rock	-11.7106
▁registration	-11.7107
▁acids	-11.7108
xi	-11.7111
▁hub	-11.7113
leigh	-11.7113
▁Yang	-11.7115
▁landslide	-11.7116
terim	-11.7116
iel	-11.7118
NT	-11.7118
▁1858	-11.7119
▁Allan	-11.712
icken	-11.7125
▁Dover	-11.7126
▁Browns	-11.7127
▁outlets	-11.7127
▁liken	-11.7128
▁dull	-11.7128
ă	-11.7129
▁dedication	-11.7129
FR	-11.713
▁isolation	-11.7132
▁Reid	-11.7134
odi	-11.7135
▁treasure	-11.7137
▁Antille	-11.7137
AT	-11.7138
▁charm	-11.7139
▁orientation	-11.7139
▁bias	-11.7142
▁Haven	-11.7142
▁spectrum	-11.7145
▁Sugar	-11.7147
▁ballet	-11.7149
▁Dot	-11.7151
▁patroll	-11.7153
idge	-11.7154
▁brush	-11.7155
▁Avon	-11.7155
▁abrupt	-11.7156
▁vol	-11.7157
▁Interior	-11.7158
zen	-11.7161
▁rational	-11.7161
▁Lat	-11.7161
▁ears	-11.7162
▁antibod	-11.7164
▁Broad	-11.7165
▁Individual	-11.7166
▁MI	-11.7167
▁gase	-11.7168
osis	-11.7169
▁Patriot	-11.717
▁corrupt	-11.7173
▁Broke	-11.7174
▁innocent	-11.7175
▁contemporari	-11.7176
▁Medicine	-11.7176
▁Wheeler	-11.7179
▁Fringe	-11.7187
▁Cru	-11.7188
▁Literar	-11.7189
▁Def	-11.7192
PC	-11.7195
▁Betty	-11.7196
▁vow	-11.7196
▁Hollow	-11.7197
esque	-11.7199
▁View	-11.7199
▁Pike	-11.7199
ayette	-11.72
▁alloy	-11.72
▁Amazon	-11.7206
▁swift	-11.7206
▁persona	-11.7207
▁sandstone	-11.7207
▁kidney	-11.7207
▁stripe	-11.7207
▁1812	-11.7211
▁favourabl	-11.7213
stable	-11.7216
▁Powers	-11.7216
▁spiral	-11.7216
▁Balkan	-11.7216
▁spy	-11.7218
ín	-11.7218
▁320	-11.7221
▁Event	-11.7223
▁hell	-11.7226
▁constellation	-11.7226
▁unwilling	-11.7226
▁entries	-11.7226
▁dissent	-11.7226
▁ministr	-11.7227
▁intimate	-11.7227
▁Left	-11.7228
▁Lyn	-11.7228
▁Presidential	-11.7231
▁slopes	-11.7231
53	-11.7231
guel	-11.7235
▁Julia	-11.7239
▁refusal	-11.7246
▁technologies	-11.7246
▁550	-11.7247
▁compose	-11.7248
▁bred	-11.7251
ovich	-11.7255
▁consolidat	-11.7257
▁Speaker	-11.7258
▁Agent	-11.7259
▁drag	-11.7264
▁provok	-11.7266
▁Rutherford	-11.7267
▁Gwen	-11.7267
▁plumage	-11.7267
▁doubled	-11.7269
bla	-11.727
▁Reg	-11.7273
▁Barn	-11.7274
rah	-11.7274
▁nitrogen	-11.7277
▁grandmother	-11.7277
▁climax	-11.7277
▁107	-11.7278
mor	-11.728
▁quantity	-11.728
▁devis	-11.7282
eh	-11.7283
▁XIII	-11.7284
hole	-11.7284
▁Donna	-11.7284
▁umpire	-11.7284
▁solutions	-11.7285
▁Complete	-11.7288
▁medley	-11.7288
self	-11.7289
▁Shar	-11.729
▁1849	-11.7292
▁insight	-11.7296
▁reasonable	-11.7297
▁Visual	-11.7297
▁plaza	-11.7297
▁demolition	-11.7297
▁jacket	-11.7298
▁Sebastian	-11.7298
▁sovereignt	-11.7299
▁rubber	-11.7301
▁explorer	-11.7301
▁Brock	-11.7305
▁Jain	-11.7305
▁Rican	-11.7305
▁Maj	-11.7307
ridge	-11.7307
▁Underground	-11.7308
▁digit	-11.7309
list	-11.7312
▁Limited	-11.7313
hel	-11.7314
▁Halifax	-11.7318
▁Oppenheim	-11.7318
▁Hutton	-11.7318
▁Crazy	-11.7318
▁Writers	-11.7319
▁undertake	-11.7324
▁Carte	-11.7325
▁showcase	-11.7326
▁opener	-11.7326
▁Horror	-11.7328
▁assumption	-11.7328
▁swallow	-11.7328
▁generic	-11.7328
▁gale	-11.7328
▁photos	-11.7329
▁Metroid	-11.733
▁offence	-11.733
▁violin	-11.7336
▁ho	-11.7337
▁inadequate	-11.7338
▁Disc	-11.7338
▁continual	-11.7338
▁Sharon	-11.7341
hom	-11.7342
box	-11.7342
▁assign	-11.7346
▁variants	-11.7347
59	-11.7349
▁occurrence	-11.7349
▁casemate	-11.7349
▁Dynasty	-11.7354
▁Chu	-11.7356
▁Screen	-11.7358
▁inferior	-11.7358
▁enhance	-11.7359
▁freestyle	-11.7359
▁Thailand	-11.7359
▁philosophical	-11.7359
▁Cod	-11.736
▁projection	-11.7362
wing	-11.7362
▁Arms	-11.7362
▁Away	-11.7364
▁siz	-11.7365
nant	-11.7369
sistence	-11.737
▁sitcom	-11.7371
▁Drew	-11.7371
▁Archer	-11.7372
▁retrieve	-11.7373
▁Level	-11.7374
▁hamper	-11.7379
▁Gran	-11.738
▁Freeway	-11.7381
▁penn	-11.7382
▁Vaugh	-11.7384
▁controller	-11.7385
▁seas	-11.7385
▁118	-11.7385
▁flags	-11.7387
elfare	-11.7388
▁Mori	-11.7389
▁WrestleMania	-11.7389
▁Leaf	-11.7394
▁dwelling	-11.7398
▁embass	-11.74
▁Trafford	-11.74
▁Wizard	-11.74
▁Saudi	-11.74
▁acknowledge	-11.7401
▁Qui	-11.7404
▁ni	-11.7405
▁Thorp	-11.7407
▁revelation	-11.741
▁Erie	-11.7413
equality	-11.7415
▁tract	-11.7417
▁drawings	-11.7417
▁Soviets	-11.742
▁ARIA	-11.742
▁NA	-11.7421
▁timing	-11.7421
▁computers	-11.7423
▁discard	-11.7423
95	-11.7423
▁submit	-11.7425
▁Discovery	-11.7426
▁leap	-11.7431
▁prolong	-11.7431
▁criteria	-11.7433
▁practic	-11.7437
▁Reviewer	-11.7438
▁slope	-11.7438
▁supervisor	-11.7442
▁Bradford	-11.7444
ender	-11.7446
▁digest	-11.7447
▁Idol	-11.7447
▁Az	-11.7449
▁mortar	-11.7449
ili	-11.745
▁McG	-11.7452
▁Afterwards	-11.7455
▁Thi	-11.7456
▁SAS	-11.7458
▁motive	-11.7459
▁Tina	-11.7459
▁Wake	-11.746
▁premise	-11.746
▁Norwich	-11.7462
▁Wade	-11.7462
▁clinical	-11.7463
▁boarding	-11.7465
▁sued	-11.7467
▁organisations	-11.7468
▁Title	-11.7468
▁improvis	-11.747
▁uncertaint	-11.7472
▁deplet	-11.7472
▁trumpet	-11.7472
▁disput	-11.7473
▁Twin	-11.7474
aka	-11.7475
▁Sei	-11.748
▁hometown	-11.7482
▁warehouse	-11.7482
▁Jessica	-11.7482
▁helmet	-11.7483
▁Mini	-11.7484
cum	-11.7485
▁faithful	-11.7485
▁Jamie	-11.7487
▁Spect	-11.7489
▁Penguin	-11.7493
▁Stewie	-11.7493
▁Gould	-11.7493
▁330	-11.7495
▁judg	-11.7497
▁exceeding	-11.7499
AR	-11.7501
▁robber	-11.7505
oda	-11.751
▁cage	-11.7512
hara	-11.7514
▁Brittan	-11.7514
▁Student	-11.7514
▁Spa	-11.7519
▁calci	-11.7519
▁Pur	-11.7521
▁recipient	-11.7525
▁freed	-11.7525
▁tired	-11.7526
▁Combin	-11.7529
▁combin	-11.7532
▁Negro	-11.7536
▁Eu	-11.7537
DF	-11.7542
▁Cope	-11.7542
▁Rochester	-11.7545
▁discrimination	-11.7546
▁eager	-11.7556
achi	-11.7557
etti	-11.7558
▁Oil	-11.756
▁sparse	-11.756
▁Jen	-11.7561
▁flex	-11.7564
▁Brother	-11.7566
like	-11.7566
▁Ap	-11.7569
▁hitter	-11.757
▁Lan	-11.7573
kel	-11.7575
▁Gustav	-11.7576
▁pretend	-11.7576
lund	-11.7578
▁spar	-11.7583
▁128	-11.7584
poli	-11.7584
▁Liu	-11.7585
vision	-11.7586
asaki	-11.7588
▁Mul	-11.7588
▁Joker	-11.7589
▁É	-11.7591
▁Weber	-11.7591
▁AM	-11.7595
▁Bio	-11.7597
▁Canadiens	-11.7597
▁202	-11.7602
▁Fun	-11.7604
▁enforce	-11.7606
▁escalat	-11.7606
▁Farmer	-11.7607
▁Emine	-11.7608
▁Dev	-11.761
▁Qa	-11.7611
▁Prison	-11.7614
▁Hick	-11.7614
▁bush	-11.7616
▁dolphin	-11.7618
▁automobile	-11.7618
▁mess	-11.7619
▁cease	-11.7619
▁highlights	-11.7624
front	-11.7627
▁Carpenter	-11.7629
▁Full	-11.7629
▁Brunswick	-11.7629
▁Romans	-11.7632
▁ward	-11.7632
▁archaeologist	-11.7632
▁Myster	-11.7633
▁ancestor	-11.7633
▁iconic	-11.7633
cellular	-11.7635
▁650	-11.7637
▁Met	-11.7637
▁Must	-11.7639
▁Sleep	-11.7639
▁jungle	-11.7639
▁Happy	-11.7639
aur	-11.764
▁lecture	-11.7641
▁Height	-11.7643
▁stamp	-11.7644
▁Giro	-11.7644
▁abstract	-11.765
▁marker	-11.7651
▁Hokie	-11.7654
▁gills	-11.7654
▁Anders	-11.7654
cision	-11.7655
uous	-11.7658
top	-11.7658
▁physicist	-11.7659
pole	-11.7659
▁Lions	-11.766
▁Cornell	-11.7661
▁Behind	-11.7662
▁CIA	-11.7664
▁posts	-11.7664
▁encouraging	-11.7665
▁manuscripts	-11.7666
▁132	-11.7668
▁choices	-11.767
▁Structure	-11.7671
▁gesture	-11.7671
▁nationwide	-11.7671
▁fence	-11.7673
▁1852	-11.7673
▁mortality	-11.7673
▁AU	-11.7673
▁annex	-11.768
▁Wyatt	-11.7681
▁Cohen	-11.7682
▁Preparation	-11.7683
▁amid	-11.7685
▁Birds	-11.7688
▁pipe	-11.7688
▁Color	-11.7688
▁Hindi	-11.7692
▁Clear	-11.7693
aged	-11.7694
▁Gates	-11.7696
▁Boyd	-11.7697
▁regret	-11.7697
ffer	-11.7697
▁purple	-11.7697
▁tales	-11.7699
▁Len	-11.77
▁Eagles	-11.7701
▁unrest	-11.7702
▁spontaneous	-11.7703
▁medication	-11.7703
▁tiger	-11.7703
▁cheer	-11.7703
▁radioactive	-11.7703
▁Rey	-11.7705
▁Shakir	-11.7706
▁destin	-11.7708
bon	-11.7708
▁nerve	-11.7709
▁Evening	-11.7709
▁Lance	-11.7711
▁pi	-11.7712
▁humid	-11.7713
▁deadline	-11.7719
▁lament	-11.7719
▁Hyde	-11.7722
▁Anglican	-11.7724
▁Thursday	-11.7724
▁stereotype	-11.7728
▁reads	-11.7729
▁Julie	-11.773
▁Shan	-11.7731
▁cricketer	-11.7732
▁chick	-11.7732
▁Von	-11.7734
▁Perfect	-11.7734
not	-11.7735
▁Jun	-11.7738
▁Hon	-11.7739
▁gravel	-11.7739
▁colonist	-11.774
▁devastat	-11.7741
▁Wait	-11.7745
▁forbidd	-11.7745
▁Better	-11.7745
▁revert	-11.7746
▁Darre	-11.7747
▁Made	-11.7748
▁poetic	-11.7748
▁1847	-11.7749
▁polish	-11.7756
▁perimeter	-11.7756
Reilly	-11.7758
▁gig	-11.7759
▁mutation	-11.7759
▁lab	-11.776
▁Inde	-11.7761
rna	-11.7763
cene	-11.7763
▁Kara	-11.7764
▁fog	-11.7765
▁Mou	-11.7766
▁Annual	-11.7766
▁reproduction	-11.7767
▁facilitate	-11.7767
▁confess	-11.7768
▁accomplishment	-11.7769
▁goaltender	-11.7769
▁pap	-11.7772
▁Volunteer	-11.7777
▁Pack	-11.7779
▁Pick	-11.7779
▁Nolan	-11.7781
▁capability	-11.7786
▁remnant	-11.7786
▁ACC	-11.7787
rim	-11.7787
▁Parks	-11.7788
▁Harbour	-11.7788
▁monsoon	-11.7788
▁foster	-11.7788
▁indoor	-11.7789
▁Kre	-11.7789
▁Lars	-11.7791
▁Flash	-11.7792
▁Kir	-11.7792
▁announc	-11.7792
▁betray	-11.7793
▁particle	-11.7797
▁Fellow	-11.7798
▁Technical	-11.7799
▁denomination	-11.7799
UP	-11.7803
▁Milton	-11.7803
▁AI	-11.7803
▁clearing	-11.7805
▁Verde	-11.7808
▁Roth	-11.7816
▁Louisville	-11.7816
▁adventures	-11.7817
▁sovereign	-11.7818
▁Recent	-11.782
▁Tr	-11.7823
ES	-11.7824
▁melodi	-11.7825
▁Heat	-11.7826
▁sensor	-11.7829
▁breath	-11.7829
▁Concern	-11.7831
▁Lexington	-11.7831
▁barn	-11.7834
▁Match	-11.7835
▁Greene	-11.7842
CA	-11.7842
▁Less	-11.7843
orial	-11.7843
▁1855	-11.7845
▁drunk	-11.7849
▁hollow	-11.7852
▁lady	-11.7853
▁Lebanon	-11.7854
▁Gro	-11.7855
▁122	-11.7855
▁Fil	-11.7856
▁1846	-11.7856
▁CM	-11.7857
▁lord	-11.7859
▁Fight	-11.7862
▁labell	-11.7863
▁abundance	-11.7863
▁lyric	-11.7863
▁Exe	-11.7864
▁Gris	-11.7864
▁Forever	-11.7864
▁Fine	-11.787
▁chains	-11.787
▁insect	-11.7871
esh	-11.7872
▁Damascus	-11.7874
▁Fernand	-11.7874
▁hung	-11.7877
▁Cover	-11.7877
▁Nan	-11.7879
▁analyst	-11.788
▁pac	-11.7884
▁Corn	-11.7884
▁cottage	-11.7885
▁coronation	-11.7885
▁Vita	-11.7889
▁testifie	-11.7892
▁116	-11.7894
▁Falcon	-11.7895
▁Mai	-11.7895
▁Humphrey	-11.7895
apoli	-11.7897
▁reply	-11.7897
▁cite	-11.7898
▁Vera	-11.7899
▁viral	-11.7903
▁alternat	-11.7903
▁Rupert	-11.7906
▁humour	-11.7906
▁offspring	-11.7906
▁stump	-11.7906
▁Brett	-11.7907
▁bail	-11.7908
▁Strike	-11.7909
▁exhibits	-11.7909
▁Core	-11.7909
▁ethic	-11.791
▁concurrenc	-11.7911
▁developments	-11.7913
▁barge	-11.7914
▁enterprise	-11.7917
▁Hastings	-11.7918
ugg	-11.7926
▁luxur	-11.7928
▁Hundred	-11.7928
▁jam	-11.7928
dia	-11.793
sworth	-11.7931
▁Ober	-11.7932
▁orbits	-11.7934
▁palm	-11.7935
▁nesting	-11.7936
▁unconscious	-11.7939
▁devil	-11.7942
▁beds	-11.7942
▁assured	-11.7943
▁Kiel	-11.7947
▁Sud	-11.7949
▁miniature	-11.795
▁Stockholm	-11.795
▁FC	-11.795
▁contractor	-11.7951
▁deer	-11.7952
▁Speak	-11.7952
▁resource	-11.7955
TC	-11.7955
▁swim	-11.7956
PS	-11.7957
▁IU	-11.7958
▁dreams	-11.7958
▁cure	-11.796
22	-11.796
▁ingredient	-11.7961
cio	-11.7961
▁victorious	-11.7961
▁Hampton	-11.7961
▁dioxide	-11.7961
▁imply	-11.7961
▁resemblance	-11.7962
▁rib	-11.7963
▁Viking	-11.7966
▁Socialist	-11.7967
tia	-11.7967
wal	-11.7969
▁Use	-11.797
▁Cl	-11.7971
▁Chetnik	-11.7971
▁Dy	-11.7972
▁diesel	-11.7974
mir	-11.7974
▁blog	-11.7974
▁1832	-11.7976
▁grants	-11.7976
▁periodical	-11.7978
▁broadside	-11.7978
▁pa	-11.7979
amp	-11.798
▁Hir	-11.7981
▁definitive	-11.7982
shot	-11.7983
▁crowds	-11.7988
▁Michaels	-11.7999
▁Halloween	-11.8004
pon	-11.8005
▁Jets	-11.8012
bia	-11.8014
nie	-11.8015
▁Safety	-11.8015
▁colleges	-11.8016
▁dismissal	-11.8024
ł	-11.8024
▁Albanian	-11.8026
▁Sanskrit	-11.8026
▁reddish	-11.8026
▁Covenant	-11.8026
▁Specie	-11.8026
▁feedback	-11.8027
▁ankle	-11.8028
▁doll	-11.803
▁Kind	-11.8031
▁mourn	-11.8037
▁Language	-11.8037
▁pagan	-11.8038
▁forget	-11.8038
▁oath	-11.8038
▁persistent	-11.8038
▁Lim	-11.8039
▁Đ	-11.8041
▁crossover	-11.8041
▁princess	-11.8041
▁Ern	-11.8047
met	-11.8047
▁Thirty	-11.8048
▁dramatical	-11.805
32	-11.8051
▁Lac	-11.8051
ht	-11.8057
▁cod	-11.806
▁cooler	-11.8065
▁bicycle	-11.8066
▁courage	-11.8069
▁livestock	-11.8073
▁Fuller	-11.8075
▁Gear	-11.8078
▁intensive	-11.8081
▁Grande	-11.8081
▁Ut	-11.8082
rb	-11.8083
▁humorous	-11.8084
pha	-11.8084
▁Luck	-11.8085
▁prose	-11.8089
▁Lanka	-11.8092
▁Worcester	-11.8092
ele	-11.8093
▁conven	-11.8095
ecology	-11.8096
▁Sul	-11.81
▁fragment	-11.8101
▁Brisbane	-11.8103
▁abbey	-11.8103
▁hiatus	-11.8103
▁Cedar	-11.8105
09	-11.8108
▁Yoshi	-11.8109
▁inevitabl	-11.8111
▁Henri	-11.8111
hang	-11.8112
▁surpass	-11.8114
▁empower	-11.8114
▁Give	-11.8115
ota	-11.8115
▁Saints	-11.8115
▁Galli	-11.8116
▁mari	-11.8116
▁eighteenth	-11.8119
▁Path	-11.8121
bul	-11.8122
▁Aside	-11.8124
▁Approximate	-11.8125
▁Scientific	-11.8125
▁cheek	-11.8125
▁Animation	-11.8129
▁murders	-11.813
lip	-11.8132
▁mo	-11.8134
▁Andre	-11.8135
ova	-11.8136
▁smash	-11.8136
▁camouflage	-11.8136
oco	-11.8138
▁Election	-11.8138
▁drops	-11.8138
▁138	-11.8139
ache	-11.8139
▁remaster	-11.8141
▁omitt	-11.8141
01	-11.8143
▁peers	-11.8143
anu	-11.8143
▁posthumously	-11.8144
▁elimination	-11.8145
▁gr	-11.8145
▁Cardinal	-11.8146
▁backdrop	-11.8147
▁pride	-11.8148
▁Tara	-11.8149
▁EMI	-11.8149
▁Yoko	-11.8153
atus	-11.8153
▁bike	-11.8156
eck	-11.8158
▁sleeve	-11.8158
▁accusations	-11.8161
▁frontal	-11.8163
▁fires	-11.8164
▁Joy	-11.8166
▁charting	-11.8168
▁Academic	-11.817
▁Adolf	-11.817
▁degenerat	-11.817
å	-11.817
▁Wildlife	-11.817
▁Gott	-11.817
▁Animal	-11.8175
▁Select	-11.8175
▁mating	-11.8175
▁arche	-11.8177
▁Raider	-11.8177
▁Beatty	-11.8183
▁metaphor	-11.8191
▁Shackleton	-11.8192
▁profound	-11.8192
▁boxes	-11.8196
▁Charter	-11.82
▁heroine	-11.8202
▁1853	-11.8207
▁replay	-11.8212
▁constitut	-11.8214
▁guerrilla	-11.8214
▁Mau	-11.8214
gna	-11.8215
▁recipe	-11.8215
▁intervene	-11.8215
▁cri	-11.8217
▁penalt	-11.8218
oggett	-11.8219
▁Winston	-11.8221
▁Yale	-11.8222
▁Cinema	-11.8224
▁calculation	-11.8226
▁Wilm	-11.8228
▁elevator	-11.8228
▁141	-11.823
▁rope	-11.8231
▁renovat	-11.8232
jan	-11.8232
▁Kai	-11.8232
▁operators	-11.8236
▁counterpart	-11.8238
▁tenant	-11.8238
▁skilled	-11.8238
▁Conan	-11.8239
▁Seas	-11.8243
olithic	-11.8244
ace	-11.8244
▁temper	-11.8245
▁intern	-11.8246
▁stanza	-11.8248
▁Stern	-11.8249
▁ancestr	-11.8251
▁Sad	-11.8254
▁Clan	-11.8257
▁Cubs	-11.8259
beck	-11.826
▁makeup	-11.8261
▁catalogue	-11.8261
▁melodic	-11.8265
Neill	-11.8265
▁Orlando	-11.827
▁scratch	-11.827
▁Loch	-11.827
▁stalk	-11.827
▁molar	-11.8271
▁var	-11.8271
▁doubles	-11.8273
▁clone	-11.8278
▁surgeon	-11.828
▁pistol	-11.8281
▁lineage	-11.8283
▁statistical	-11.8283
▁Ride	-11.8285
▁Wool	-11.8285
▁trainer	-11.8289
▁Kapoor	-11.8293
▁jealous	-11.8293
▁thread	-11.8293
▁froze	-11.8293
▁Numero	-11.8293
▁abortion	-11.8294
▁Juliet	-11.8295
▁Remix	-11.8296
▁Did	-11.8296
▁Sharp	-11.8299
wel	-11.8299
nk	-11.8302
▁Bent	-11.8302
▁wildlife	-11.8304
tting	-11.8308
▁Supporting	-11.8308
▁polls	-11.8309
▁curricul	-11.8314
▁Investigation	-11.8316
▁Bergen	-11.8321
otta	-11.8323
▁Transit	-11.8325
▁module	-11.8327
credible	-11.8332
▁tent	-11.8332
▁Dexter	-11.8338
▁Seymour	-11.8338
▁adverse	-11.8338
▁periodic	-11.8348
▁Crisi	-11.8351
▁unprecedented	-11.836
▁solitar	-11.836
▁Cherry	-11.8363
▁1841	-11.8365
▁sac	-11.8366
▁complaint	-11.8366
▁namely	-11.8366
playable	-11.8367
▁Being	-11.8367
▁na	-11.8367
▁119	-11.8368
▁Warriors	-11.8368
▁Bir	-11.8371
▁Leopold	-11.8372
▁zinc	-11.8372
▁Armour	-11.8372
▁Oakland	-11.8375
▁Believe	-11.8377
▁sil	-11.8378
74	-11.8381
▁kidnapp	-11.8383
▁grenade	-11.8383
▁framework	-11.8384
▁Dixon	-11.8385
llen	-11.8385
▁Smart	-11.8385
▁shade	-11.8387
▁descriptions	-11.8388
▁Shane	-11.839
▁Coalition	-11.8394
▁Knox	-11.8395
▁comparative	-11.8395
▁NC	-11.8395
▁comeback	-11.84
▁Working	-11.84
▁curse	-11.8402
ucci	-11.8402
▁brood	-11.8406
▁limbs	-11.8409
▁Vin	-11.8414
▁Pac	-11.8417
▁certificate	-11.8417
▁courtyard	-11.8418
▁Albion	-11.8419
▁Wilder	-11.8419
point	-11.8422
▁Wil	-11.8423
Cube	-11.8423
▁Campus	-11.8425
▁republic	-11.8426
▁Hemingway	-11.8429
▁Previous	-11.8429
▁Lau	-11.8429
bat	-11.8429
▁cinematic	-11.843
▁Welles	-11.843
▁novelist	-11.843
▁Yama	-11.8437
nate	-11.8439
▁Belgrade	-11.844
▁Arrow	-11.8441
▁horns	-11.8441
▁Magnus	-11.8442
▁Deal	-11.8443
▁Troop	-11.8443
▁Andrea	-11.8444
FL	-11.8447
▁frames	-11.8448
▁reclaim	-11.8448
▁dragg	-11.8449
▁Baja	-11.8449
▁Arc	-11.845
▁Sinatra	-11.8451
▁Carroll	-11.8452
▁op	-11.8452
▁optical	-11.8452
▁Kur	-11.8453
▁tablet	-11.8453
▁Casting	-11.8454
▁pond	-11.8456
▁1844	-11.8457
TA	-11.8459
▁Quarter	-11.846
▁clusters	-11.8461
▁befriend	-11.8463
▁smell	-11.8463
▁institute	-11.8469
▁bark	-11.8469
woman	-11.8476
▁resid	-11.8476
▁Tsar	-11.8477
pology	-11.8477
▁Erin	-11.8479
▁justifi	-11.8481
▁liberat	-11.8483
▁Harding	-11.8483
continental	-11.8484
▁urging	-11.8487
▁patronage	-11.8488
bell	-11.8488
▁Note	-11.8489
▁balanc	-11.8493
▁fare	-11.8493
▁Spur	-11.8495
vant	-11.8496
▁frustration	-11.8497
▁satire	-11.8498
ois	-11.85
▁confession	-11.8501
▁fr	-11.8503
▁Sto	-11.8504
▁Haiti	-11.8507
▁gallon	-11.8511
▁overnight	-11.8513
▁Blade	-11.8514
▁integration	-11.8515
▁Wheel	-11.8516
cott	-11.8517
PD	-11.852
▁Plain	-11.8521
▁Dre	-11.8524
▁Kannada	-11.8532
▁supernatural	-11.8532
▁pianist	-11.8532
▁weird	-11.8532
kind	-11.8533
▁fins	-11.8536
▁dug	-11.8536
inal	-11.8538
stad	-11.8541
iro	-11.8543
▁binar	-11.8544
▁Dawson	-11.8544
▁cheat	-11.8545
▁Estate	-11.8545
▁maiden	-11.8545
▁Fir	-11.8546
occer	-11.8547
rod	-11.8548
▁integral	-11.8552
▁naturalist	-11.8553
▁gaso	-11.8553
▁roofs	-11.8553
▁synonym	-11.8554
▁Pradesh	-11.8555
▁rubb	-11.8555
▁listeners	-11.8555
▁chao	-11.8556
▁Victory	-11.8556
lt	-11.8557
▁Ferry	-11.8557
▁Angels	-11.8561
▁hinder	-11.8561
▁Kit	-11.8563
force	-11.8563
▁Sandy	-11.8563
▁shower	-11.8564
rina	-11.8566
▁contemplat	-11.8566
▁overturn	-11.8566
▁Kahn	-11.8571
▁altar	-11.8571
▁Troy	-11.8572
▁realism	-11.8573
▁Eyes	-11.8573
▁Barton	-11.8575
▁onset	-11.8575
▁Getty	-11.8576
▁Eleanor	-11.8578
▁turnpike	-11.8578
▁analyz	-11.8578
▁Rosen	-11.8578
▁pile	-11.858
raz	-11.858
▁1790	-11.8581
▁caps	-11.8582
▁Dry	-11.8585
▁Math	-11.8585
gau	-11.8586
42	-11.8588
▁Than	-11.8588
▁Wednesday	-11.859
▁Wisden	-11.859
▁Neo	-11.8592
▁Challenge	-11.8593
▁MGM	-11.8594
▁Gore	-11.8596
▁dealer	-11.8597
▁aunt	-11.8598
peake	-11.8598
▁Self	-11.86
▁facial	-11.8601
▁McLaren	-11.8602
▁Guam	-11.8602
▁supervision	-11.8605
▁Mered	-11.8611
▁keeper	-11.8611
▁crazy	-11.8613
▁Bronze	-11.8613
▁Rem	-11.8616
som	-11.8616
▁Kr	-11.8617
stair	-11.8618
wald	-11.8619
owski	-11.862
put	-11.8623
▁biology	-11.8623
▁dressing	-11.8624
▁Crime	-11.8624
▁congressional	-11.8624
▁maternal	-11.8624
▁catche	-11.8625
▁Colber	-11.8628
▁chronic	-11.8628
▁beer	-11.863
▁overwhelm	-11.863
▁laser	-11.863
▁ditch	-11.8632
▁archbishop	-11.8635
▁Survivor	-11.8637
▁fond	-11.8638
▁Fey	-11.8638
▁tears	-11.8643
▁defining	-11.8643
▁Bede	-11.8645
▁Present	-11.8646
uchov	-11.8646
▁Valentine	-11.8648
gra	-11.8652
▁scales	-11.8652
▁dish	-11.8652
ties	-11.8652
▁receptor	-11.8653
▁investigator	-11.8659
▁Amazing	-11.8659
▁tidal	-11.8659
▁asteroid	-11.8659
▁knife	-11.866
rate	-11.8662
▁1776	-11.8662
▁Rao	-11.8663
▁reside	-11.8668
▁persecution	-11.8672
▁Lay	-11.8673
KO	-11.8681
▁Rou	-11.8682
▁Telugu	-11.8683
75	-11.8683
▁slipp	-11.8684
▁sided	-11.8684
▁fad	-11.8684
▁bust	-11.8687
active	-11.8688
▁Faith	-11.8689
▁Vick	-11.869
▁Wave	-11.8692
▁gag	-11.8693
▁Guerrero	-11.8694
▁Federer	-11.8695
▁Worker	-11.8695
▁correspondent	-11.8695
▁lend	-11.8696
▁afraid	-11.8696
▁Ji	-11.8699
▁Congo	-11.87
▁Arabia	-11.87
▁heroic	-11.87
▁Blackburn	-11.8702
▁Brewer	-11.8707
▁retrospective	-11.8707
fused	-11.8707
▁pillar	-11.8707
mere	-11.8708
▁watche	-11.8711
▁propulsi	-11.8712
▁Cage	-11.8713
▁Memor	-11.8716
▁reus	-11.8716
▁Webb	-11.8716
▁awkward	-11.8718
lunar	-11.8718
obility	-11.8723
▁Cliff	-11.8723
▁gut	-11.8727
▁Wimbledon	-11.873
▁Clyde	-11.873
▁Sr	-11.873
▁Sheriff	-11.8742
▁elongat	-11.8742
▁sculptor	-11.8743
▁Tru	-11.8743
▁reunion	-11.8743
▁1837	-11.8746
▁Solo	-11.8747
▁Shark	-11.875
▁filling	-11.875
▁Traditional	-11.875
▁continuation	-11.8752
▁fungi	-11.8754
▁Kha	-11.8755
▁flock	-11.8756
▁grace	-11.8757
▁fer	-11.8758
▁affiliat	-11.8758
▁beta	-11.8759
DT	-11.8759
▁Touch	-11.8761
meter	-11.8762
▁Kot	-11.8764
▁gravitational	-11.8765
▁ladder	-11.8765
▁drought	-11.8766
▁bulb	-11.8766
▁swor	-11.8766
▁inspect	-11.8771
60	-11.8772
▁till	-11.8773
▁Nin	-11.8774
▁sulfur	-11.8777
▁vacant	-11.8777
▁moor	-11.8777
▁Vel	-11.8782
▁Support	-11.8782
▁Zagreb	-11.8789
▁pad	-11.8789
▁masterpiece	-11.8789
ander	-11.8791
▁Maggi	-11.8793
▁prosecutor	-11.8793
▁deity	-11.8794
▁unbeat	-11.8795
▁prone	-11.8795
▁Representative	-11.8796
▁Broadcast	-11.8797
▁Element	-11.8798
▁Vishnu	-11.8801
HA	-11.8801
▁hangar	-11.8803
▁Chain	-11.8803
▁mimic	-11.8807
▁menu	-11.8807
▁summoned	-11.8809
▁dismantl	-11.8812
▁Webster	-11.8813
▁Sci	-11.8817
boat	-11.882
uburn	-11.8822
▁summon	-11.8822
▁Era	-11.8823
anus	-11.8824
▁Gazette	-11.8824
▁partisan	-11.8824
▁Conrad	-11.8825
▁drives	-11.8827
▁ATP	-11.8828
▁Sales	-11.8829
▁Flower	-11.883
▁Monk	-11.8831
▁handful	-11.8832
▁shutout	-11.8835
▁discourage	-11.8836
▁incumbent	-11.8836
mur	-11.8837
▁Seth	-11.8837
owed	-11.8839
breaking	-11.884
att	-11.884
▁Gla	-11.8842
▁Fen	-11.8843
▁Fast	-11.8843
▁Trent	-11.8844
▁recreation	-11.8844
▁Communications	-11.8847
▁Students	-11.8848
▁Sparta	-11.8848
▁fraction	-11.8848
▁Abdul	-11.8849
▁textile	-11.8849
rov	-11.885
screen	-11.8852
▁detection	-11.8852
▁Guatemala	-11.8859
▁Matilda	-11.886
▁vigorous	-11.886
▁mound	-11.886
▁Biography	-11.886
AM	-11.8868
▁Juda	-11.8869
▁flavor	-11.8872
▁collar	-11.8872
▁bunker	-11.8872
▁Fork	-11.8875
▁bug	-11.8876
▁lectures	-11.8881
▁catalog	-11.8881
▁commence	-11.8883
▁Orkney	-11.8884
▁affection	-11.8885
▁Hai	-11.8886
▁Sn	-11.889
▁Legal	-11.8892
▁snake	-11.8894
▁Brig	-11.8894
▁Milne	-11.8894
▁Tolkien	-11.8896
▁Trinidad	-11.8896
▁ineffective	-11.8896
▁envision	-11.8897
▁trenche	-11.8899
▁scarce	-11.8902
▁Gat	-11.8903
▁hik	-11.8906
▁Dorothy	-11.8908
▁energetic	-11.8908
▁nutrient	-11.8908
▁breathing	-11.8909
▁Locke	-11.891
▁repuls	-11.8911
▁embrac	-11.8912
▁Voyager	-11.8912
▁translate	-11.8912
▁diplomat	-11.8918
▁portraits	-11.8919
rell	-11.8919
▁fuselage	-11.892
▁immense	-11.892
▁verdict	-11.892
▁Crosby	-11.892
▁reproductive	-11.892
▁revolve	-11.8922
▁cry	-11.8923
▁1839	-11.8926
▁tables	-11.8927
▁remixes	-11.8927
▁Rec	-11.8927
▁embrace	-11.8928
▁plott	-11.8928
cin	-11.8928
▁hypha	-11.8928
▁Spot	-11.8929
nnes	-11.893
▁ecological	-11.8932
▁endemic	-11.8932
lob	-11.8936
▁MC	-11.8938
illo	-11.8939
rill	-11.8942
▁Sinclair	-11.8944
▁technological	-11.8944
▁tragedy	-11.8944
▁Heinrich	-11.8944
▁bankruptc	-11.8947
▁Pole	-11.8948
CL	-11.8949
vert	-11.8952
parts	-11.8953
▁Priv	-11.8954
▁Syracus	-11.8956
▁Gaelic	-11.8956
▁embryo	-11.8956
▁spectacular	-11.8957
▁steamer	-11.8957
▁boil	-11.8966
▁Miz	-11.8967
▁Expressway	-11.8969
▁Chesa	-11.897
▁Rh	-11.897
▁vacation	-11.897
▁strikeout	-11.8971
▁debat	-11.8974
▁Jill	-11.8977
▁Shawn	-11.8979
▁Legislative	-11.898
▁Diane	-11.8981
▁dialect	-11.8981
▁clade	-11.8981
▁Airways	-11.8982
▁Classical	-11.8986
▁Pri	-11.8986
▁Hutchinson	-11.8992
▁Architecture	-11.8992
▁Expo	-11.8993
▁devastating	-11.8994
▁viruses	-11.9001
▁Ono	-11.9001
▁mantle	-11.9001
▁obscure	-11.9002
▁Khrushchev	-11.9004
▁iPhone	-11.9004
sham	-11.9006
▁reporters	-11.9006
▁evaluation	-11.9007
▁happening	-11.9008
▁Sesam	-11.9011
MG	-11.9012
hir	-11.9014
crosse	-11.9015
▁Felix	-11.9016
▁Flow	-11.9022
▁rendering	-11.9022
▁Pel	-11.9023
▁counterparts	-11.9027
▁faint	-11.9028
▁pipeline	-11.9029
▁Ok	-11.9029
▁Providenc	-11.9033
▁460	-11.9033
▁hydro	-11.9035
ashi	-11.9041
▁195	-11.9041
▁cord	-11.9042
▁terminated	-11.9042
▁beache	-11.9043
▁Vision	-11.9044
▁sketche	-11.9045
▁mon	-11.9047
▁notorious	-11.9047
uka	-11.9049
▁realise	-11.9049
▁137	-11.9049
▁motorcycle	-11.9052
▁suck	-11.9052
▁Warrior	-11.9056
▁consume	-11.906
▁Pay	-11.9064
▁practis	-11.9064
▁valve	-11.9065
▁Ah	-11.9066
▁Lambert	-11.9067
▁Dorset	-11.9069
▁rebound	-11.9069
▁unnecessary	-11.9072
▁168	-11.9072
76	-11.9074
▁Finals	-11.9075
▁merchandise	-11.9075
▁barr	-11.9076
▁Herzegovina	-11.9077
▁Wembley	-11.9077
▁pedestrian	-11.9077
▁Avenger	-11.9077
▁cavit	-11.9077
▁awaken	-11.9081
▁traffick	-11.9083
▁keeps	-11.9084
▁Ara	-11.9085
yama	-11.9087
▁Ir	-11.9088
TO	-11.9088
▁Krusty	-11.9089
▁tobacco	-11.9089
▁Bois	-11.9089
▁173	-11.909
zh	-11.9092
wind	-11.9096
▁spray	-11.91
itchfork	-11.9101
▁stack	-11.9102
▁Midway	-11.9102
▁Bf	-11.9106
▁stealing	-11.9109
▁Galve	-11.9111
▁Southwest	-11.9112
wyn	-11.9113
sdale	-11.9114
▁monopol	-11.9117
▁conception	-11.9121
▁Fel	-11.9121
▁depos	-11.9122
▁Stor	-11.9122
▁Wyoming	-11.9125
▁uncommon	-11.9125
▁Squad	-11.9125
▁Dom	-11.9126
ø	-11.9126
▁airplane	-11.9127
▁1835	-11.9132
▁Duch	-11.9134
▁Leipzig	-11.9138
▁curtain	-11.9138
▁subplot	-11.9138
▁Fra	-11.9139
▁Border	-11.9139
▁pardon	-11.9139
▁Pla	-11.9139
▁Tsu	-11.9146
▁detain	-11.9149
▁surfaces	-11.915
▁congress	-11.915
▁repeal	-11.915
▁Kat	-11.9152
▁equit	-11.9152
pu	-11.9153
▁Hep	-11.9157
▁Sixth	-11.9159
▁Aid	-11.9161
▁126	-11.9161
▁Vernon	-11.9162
▁riots	-11.9164
▁joy	-11.9164
▁Honey	-11.9166
▁Agreement	-11.9174
▁François	-11.9174
▁prostitute	-11.9174
▁imagine	-11.9177
▁fu	-11.9178
▁nobles	-11.9179
▁compelling	-11.9179
▁trench	-11.9183
piece	-11.9187
▁NWA	-11.9187
▁fi	-11.9192
igh	-11.9194
▁royalt	-11.9196
▁Declaration	-11.9199
▁vinyl	-11.9199
▁protester	-11.9201
▁Keys	-11.9201
▁Hun	-11.9207
▁recognise	-11.9209
▁exam	-11.9209
finish	-11.9211
▁militant	-11.9211
▁Wanderers	-11.9213
▁verb	-11.9214
▁relegation	-11.9214
▁marginal	-11.9215
▁Mortal	-11.922
▁Eva	-11.9222
▁Ett	-11.9223
▁Journey	-11.9224
▁amphibio	-11.9224
▁Shanghai	-11.9224
▁treason	-11.9224
▁Warning	-11.923
hop	-11.923
▁Rag	-11.9231
▁probe	-11.9233
▁autonom	-11.9235
▁Empres	-11.9236
▁Randolph	-11.9236
▁Zimbabwe	-11.9236
▁Slayer	-11.9236
▁happens	-11.9237
▁Shannon	-11.9237
▁Clo	-11.9238
▁integr	-11.9239
▁carriage	-11.9244
▁Kids	-11.9245
▁Nazis	-11.9247
▁Spike	-11.9249
▁behave	-11.925
▁Sher	-11.9251
▁1799	-11.9253
▁Fuji	-11.9256
ept	-11.9256
▁Ker	-11.9257
▁Clarkson	-11.9257
▁oblig	-11.9259
powder	-11.9259
▁Bates	-11.9259
▁Parish	-11.9261
▁Persians	-11.9261
▁Achievement	-11.9261
▁Offensive	-11.9261
▁Queens	-11.9261
▁Himm	-11.9261
▁Fighting	-11.9262
▁Croat	-11.9262
▁Ted	-11.9264
▁Est	-11.9265
▁Boo	-11.9268
▁Lana	-11.927
▁invade	-11.9273
▁Tasmania	-11.9273
▁Aberdeen	-11.9273
▁pamphlet	-11.9273
▁Chemical	-11.9273
▁cardinal	-11.9274
▁summ	-11.9278
▁1838	-11.9279
▁regulat	-11.9282
▁Ada	-11.9282
▁metallic	-11.9282
utter	-11.9286
▁repetitive	-11.9286
▁wolf	-11.9286
dez	-11.9288
▁Cobb	-11.9291
92	-11.9291
▁rejection	-11.9295
▁Twilight	-11.9298
▁Smash	-11.9298
▁spill	-11.9299
▁bulkhead	-11.93
eux	-11.9304
▁Crusader	-11.9305
▁Goodman	-11.9307
OR	-11.9308
▁Hits	-11.931
▁Diva	-11.9311
llo	-11.9311
▁visibility	-11.9311
▁Complex	-11.9311
▁Mara	-11.9311
▁Scene	-11.9315
bourne	-11.9316
▁furni	-11.9323
▁parachute	-11.9323
▁tremendous	-11.9323
▁plasma	-11.9323
▁Lab	-11.9324
▁Jump	-11.9324
▁disappointing	-11.9325
▁Tide	-11.9326
▁por	-11.9333
▁divorc	-11.9333
▁Bahrain	-11.9336
▁heated	-11.9338
udi	-11.9339
▁Pil	-11.934
▁Phase	-11.9343
▁Effects	-11.9343
▁Gerr	-11.9343
▁Barrow	-11.9344
ž	-11.9348
▁supernova	-11.9348
▁panic	-11.9349
▁authoris	-11.9352
▁Bayern	-11.9353
▁1829	-11.9354
bird	-11.9355
suke	-11.9355
▁Fla	-11.9359
▁Slant	-11.9361
shima	-11.9361
▁surname	-11.9362
▁isotope	-11.9362
sium	-11.9362
▁precedent	-11.9363
▁124	-11.9364
iva	-11.9364
▁spike	-11.9364
▁infra	-11.9365
▁GameSp	-11.9371
▁Charle	-11.9372
▁Matsu	-11.9375
▁slate	-11.9375
▁insult	-11.9377
▁Belt	-11.938
▁Vir	-11.9385
▁Vladimir	-11.9386
▁Silent	-11.9386
▁rematch	-11.9387
▁Plains	-11.9388
▁cliff	-11.9389
▁legendar	-11.939
assett	-11.9391
wl	-11.9397
▁grape	-11.9397
run	-11.9397
▁Exchange	-11.9398
▁Shepherd	-11.9398
▁intimidat	-11.9398
▁melting	-11.9399
▁Trevor	-11.9399
▁Pha	-11.9399
▁305	-11.94
▁vowel	-11.94
hoe	-11.9402
▁Moreno	-11.9403
▁Rom	-11.9404
▁Watts	-11.9404
▁clinic	-11.9409
▁Mit	-11.9409
▁interfere	-11.9409
▁rag	-11.941
▁analyse	-11.941
▁gram	-11.941
▁Julius	-11.9411
▁LGBT	-11.9411
▁Testament	-11.9411
▁fiscal	-11.9411
▁sparrow	-11.9411
▁economical	-11.9412
▁cheese	-11.9414
NG	-11.9415
PI	-11.9416
▁wheels	-11.9416
▁alpha	-11.9416
▁Something	-11.942
▁Egg	-11.9421
nick	-11.9423
▁stint	-11.9423
▁cockpit	-11.9423
▁trunkline	-11.9424
▁XII	-11.9425
▁summariz	-11.9426
acy	-11.943
▁Davidson	-11.943
▁Erik	-11.9431
▁MCC	-11.9431
▁unifi	-11.9433
▁Duff	-11.9433
▁mills	-11.9435
▁globe	-11.9436
▁Dad	-11.9438
▁Lil	-11.9439
zan	-11.9441
▁Institution	-11.9443
▁olive	-11.9444
▁Carson	-11.9444
▁confiscat	-11.9445
▁corners	-11.9446
▁nave	-11.9448
▁Ukraine	-11.9449
▁scroll	-11.9449
▁unchang	-11.9449
▁Geography	-11.9449
▁Detective	-11.9449
▁Boone	-11.9453
▁Compt	-11.9456
▁odds	-11.9459
▁liberty	-11.9461
▁Glory	-11.9463
▁utilize	-11.9464
▁Booker	-11.9465
▁composing	-11.9465
▁pray	-11.9466
91	-11.9466
▁smuggl	-11.9469
▁shout	-11.947
▁moistur	-11.947
mine	-11.947
asa	-11.9471
▁relic	-11.9473
▁eponymous	-11.9474
▁aquatic	-11.9474
▁pension	-11.9474
▁Emergenc	-11.9475
▁Salford	-11.9476
▁saga	-11.9479
ural	-11.948
▁statues	-11.9482
wig	-11.9486
▁angles	-11.9487
▁Basil	-11.9489
▁Chin	-11.949
▁alike	-11.9491
▁1842	-11.9491
▁disposal	-11.9491
▁potas	-11.9491
eum	-11.9492
▁mut	-11.9494
▁reorganiz	-11.9497
▁Letter	-11.9498
▁Undertaker	-11.9499
▁fountain	-11.9499
▁mercenar	-11.9499
▁inflation	-11.9501
▁neuro	-11.9501
▁litter	-11.9502
cid	-11.9502
▁Germanic	-11.9503
65	-11.9504
▁HV	-11.9505
▁Sing	-11.9506
care	-11.9506
ann	-11.9506
▁sculptures	-11.9508
▁Looking	-11.9509
▁Jesuit	-11.9512
▁Nigel	-11.9513
aria	-11.9513
▁Smok	-11.9516
▁bend	-11.9518
▁outflow	-11.9518
▁Kali	-11.9518
▁formats	-11.9523
▁Battery	-11.9525
▁123	-11.9525
▁admiral	-11.9525
▁exotic	-11.9525
▁anarchist	-11.9527
▁tele	-11.9528
▁Rough	-11.9529
▁Ladies	-11.9531
▁Charit	-11.9531
iac	-11.9534
▁duel	-11.9536
▁Copenhagen	-11.9537
▁Glacier	-11.9537
▁disastrous	-11.9537
▁pigment	-11.9538
▁ODI	-11.9539
63	-11.9544
▁artifacts	-11.9546
▁Northumberland	-11.955
▁pavilion	-11.955
▁destructive	-11.9551
▁amidship	-11.9551
▁Nicole	-11.9554
▁Aston	-11.9555
▁undis	-11.9555
▁denot	-11.9558
▁Killer	-11.9558
▁Dru	-11.9559
▁interfer	-11.9559
▁Sig	-11.9561
▁Presbyterian	-11.9563
▁martin	-11.9563
▁Chess	-11.9564
izz	-11.9564
▁outward	-11.9565
▁dishe	-11.9568
▁Stark	-11.9572
▁Taf	-11.9573
▁boast	-11.9576
▁sheriff	-11.9576
▁Cannon	-11.9576
▁Bombay	-11.9576
▁sandwich	-11.9576
90	-11.9579
▁compatib	-11.9581
▁Alder	-11.9583
▁Artists	-11.9584
▁bubble	-11.9588
▁1⁄2	-11.9589
▁1843	-11.9591
▁480	-11.9592
dong	-11.9593
▁Borg	-11.9599
mani	-11.9599
lop	-11.9599
▁compensate	-11.9601
▁Prinz	-11.9601
▁agenda	-11.9602
▁granite	-11.9602
▁Rating	-11.9602
▁Regular	-11.9602
▁attest	-11.9606
▁appreciation	-11.9608
▁Kenya	-11.9609
▁probable	-11.9613
▁Clare	-11.9614
▁Metallica	-11.9614
▁Religion	-11.9614
▁academy	-11.9614
▁robust	-11.9614
▁storytell	-11.9614
▁Yucat	-11.9615
▁database	-11.9615
▁originate	-11.9617
▁distributor	-11.9622
▁Dock	-11.9625
▁Bend	-11.9627
ð	-11.9627
▁convex	-11.9627
▁township	-11.9629
▁slaughter	-11.9631
▁Ang	-11.9632
▁Chambers	-11.9633
AF	-11.9636
▁Said	-11.9637
▁guardian	-11.9637
▁inscribed	-11.9637
▁synthesiz	-11.9637
▁Eigh	-11.9639
▁unrelat	-11.964
▁Mode	-11.9642
▁sounding	-11.9642
law	-11.9644
▁1815	-11.9646
retace	-11.9646
▁Dee	-11.9646
▁410	-11.9648
▁Gri	-11.965
▁Dunn	-11.9652
▁Advisor	-11.9653
▁Idaho	-11.9653
▁static	-11.9653
▁reprise	-11.9656
▁flora	-11.9656
▁Cairo	-11.9657
▁renumbering	-11.966
▁coinage	-11.966
▁Sign	-11.9661
▁USAF	-11.9662
▁procession	-11.9663
▁Brooke	-11.9663
▁Bosnian	-11.9663
▁cylindric	-11.9666
▁screw	-11.9666
▁Elvis	-11.9666
▁mercur	-11.9666
▁McCa	-11.9667
▁otter	-11.9667
▁pu	-11.9668
▁verbal	-11.9671
jima	-11.9677
▁Galaxy	-11.9679
▁Eleven	-11.9679
▁Converse	-11.9679
ime	-11.9681
▁lightning	-11.9682
▁Middleton	-11.9684
▁Noble	-11.9687
▁Dust	-11.9687
tron	-11.9691
▁Characters	-11.9692
▁Ambassador	-11.9692
fried	-11.9693
▁posting	-11.9696
▁Mani	-11.9701
▁graph	-11.9702
SR	-11.9703
▁Character	-11.9704
▁cuisine	-11.9705
▁Till	-11.9705
▁claw	-11.9706
▁polluti	-11.9709
▁index	-11.9709
▁lighthouse	-11.9716
▁Winnipeg	-11.9718
▁Beta	-11.9718
cri	-11.9718
▁Isabella	-11.9718
▁Sora	-11.972
▁shake	-11.9723
SO	-11.9725
▁AR	-11.9726
▁Rein	-11.9726
▁AIF	-11.9728
▁Styles	-11.9728
▁Echo	-11.9729
▁antenna	-11.9731
▁Search	-11.9732
▁Wan	-11.9732
▁Walsh	-11.9733
▁Roe	-11.9733
▁casual	-11.9736
▁airplay	-11.9736
VA	-11.9738
▁tides	-11.974
▁Economy	-11.9744
▁imminent	-11.9744
▁supreme	-11.9744
▁aristocrat	-11.9744
▁Observatory	-11.9744
▁inherent	-11.9744
▁microphone	-11.9744
▁Diet	-11.9748
LA	-11.9751
▁Nile	-11.9752
▁144	-11.9752
▁stellar	-11.9753
▁shoes	-11.9753
▁tutor	-11.9756
▁Experience	-11.9757
▁substrate	-11.9757
▁Ibn	-11.9757
▁Animals	-11.9757
▁Ace	-11.9757
▁flatten	-11.976
▁columnist	-11.9763
▁Noel	-11.9765
▁Mika	-11.9766
▁Cai	-11.9766
▁Commerc	-11.9769
▁Relations	-11.977
▁rerout	-11.977
cra	-11.9771
▁Bloom	-11.9771
▁wetland	-11.9773
▁stronghold	-11.9773
▁Hag	-11.9775
visible	-11.9777
▁manipulat	-11.978
▁hostilities	-11.9783
▁outskirt	-11.9783
▁Policy	-11.9783
ulation	-11.9783
wicz	-11.9783
▁proto	-11.9785
▁Iranian	-11.9786
▁choreography	-11.9786
▁cruis	-11.9788
▁missionaries	-11.9788
wer	-11.9788
▁Neville	-11.9788
▁dub	-11.9789
city	-11.9792
▁gra	-11.9793
▁interr	-11.9793
▁Enter	-11.9793
▁Vis	-11.9794
fl	-11.9794
▁Tuesday	-11.9796
▁graz	-11.9798
▁baptism	-11.9798
rought	-11.9798
▁Factor	-11.9799
▁starv	-11.9801
▁Elm	-11.9802
▁interception	-11.9804
▁Weston	-11.9807
▁Physical	-11.9809
fjord	-11.9809
▁Casino	-11.9809
pent	-11.9809
▁Gr	-11.9811
▁companions	-11.9813
▁pig	-11.9815
▁initiate	-11.9815
▁Appeals	-11.9818
▁depriv	-11.982
▁Memphi	-11.9822
▁accession	-11.9823
▁passionate	-11.9823
jar	-11.9825
WR	-11.9826
▁beneficia	-11.9826
enne	-11.9826
▁poets	-11.9827
▁nude	-11.9828
▁129	-11.9831
▁wise	-11.9832
▁Herman	-11.9832
▁diocese	-11.9832
▁Gol	-11.9833
▁ignore	-11.9833
▁NES	-11.9833
▁Hel	-11.9833
▁holy	-11.9833
▁Progress	-11.9834
▁Luz	-11.9835
▁Platinum	-11.9835
▁Venetian	-11.9835
▁Einstein	-11.9835
▁mascot	-11.9835
▁interven	-11.9835
▁Sm	-11.9836
hPa	-11.9838
▁Comp	-11.9839
▁Stanton	-11.9841
▁Fri	-11.9843
CU	-11.9845
▁practitioner	-11.9848
▁furious	-11.9849
▁exert	-11.985
▁terrace	-11.985
▁oval	-11.9851
▁Levine	-11.9852
▁Europa	-11.9852
▁1794	-11.9853
▁Malaysian	-11.9853
cro	-11.9853
▁enjoyable	-11.9854
▁Abb	-11.9855
kill	-11.9855
▁entit	-11.9858
▁defendant	-11.9859
▁Nico	-11.986
▁sophomore	-11.9861
▁Shankar	-11.9869
▁rip	-11.987
▁Municipal	-11.9872
▁Vale	-11.9873
▁mac	-11.9873
rad	-11.9874
▁Promotion	-11.9875
▁Revival	-11.9875
▁shin	-11.9875
▁eruptions	-11.9876
▁primate	-11.9877
0	-11.9877
▁quad	-11.9877
ethanol	-11.9882
▁cop	-11.9883
51	-11.9883
▁reissue	-11.9884
▁Micke	-11.9887
▁allegiance	-11.9888
▁crust	-11.9888
▁Madras	-11.9888
▁magnet	-11.9888
▁Randall	-11.9889
▁patche	-11.9891
▁footballer	-11.9893
▁Bard	-11.9895
glades	-11.9898
▁Seventh	-11.9899
▁Influence	-11.9901
▁Financial	-11.9901
▁dissolution	-11.9901
▁dislike	-11.9901
▁reinstat	-11.9902
inae	-11.9903
▁marching	-11.9904
▁Mariah	-11.991
▁infinite	-11.9911
▁revive	-11.9912
▁downward	-11.9912
rup	-11.9912
▁magistrate	-11.9914
▁Tudor	-11.9915
▁Comb	-11.9916
▁Ai	-11.9918
▁1798	-11.9919
▁205	-11.9919
▁Armor	-11.992
▁taxi	-11.992
▁Heroes	-11.9921
▁Alexandra	-11.9921
cover	-11.9924
▁Factory	-11.9925
AD	-11.9926
▁stair	-11.9928
▁Vermont	-11.9928
▁Folk	-11.9929
▁gem	-11.993
▁Smyth	-11.993
▁bind	-11.9933
▁outage	-11.9933
▁Godwin	-11.9936
▁commissioner	-11.9937
▁consoles	-11.9938
▁stallion	-11.9939
▁Ox	-11.994
▁fiber	-11.9941
▁guess	-11.9941
▁geological	-11.9942
▁Whig	-11.995
▁teen	-11.9951
▁Til	-11.9952
▁Cell	-11.9953
▁Agriculture	-11.9954
▁Cartoon	-11.9954
▁Rotten	-11.9954
GC	-11.9955
▁850	-11.9955
▁stemm	-11.9958
▁Strange	-11.996
▁dia	-11.996
62	-11.9962
▁Beau	-11.9966
▁Nickel	-11.9967
▁Bismarck	-11.9967
▁astronaut	-11.9967
▁prolific	-11.9967
▁Illustrated	-11.9967
▁Habsburg	-11.9967
▁anxiet	-11.9968
▁boycott	-11.9968
▁slender	-11.9969
▁Course	-11.997
▁Rivera	-11.9971
▁propell	-11.9971
▁Mala	-11.9972
▁su	-11.9972
litz	-11.9973
▁indie	-11.9974
▁Earp	-11.9975
▁Eg	-11.9981
▁slogan	-11.9981
▁prevalent	-11.9981
▁problematic	-11.9981
▁canyon	-11.9983
▁Gaming	-11.9983
▁classroom	-11.9983
▁acquir	-11.9988
▁Pakistani	-11.9989
▁necessitat	-11.9989
▁penetrate	-11.999
▁chronicler	-11.9991
▁Au	-11.9992
▁Phillip	-11.9993
▁pseudonym	-11.9994
▁Batista	-11.9994
▁psychedelic	-11.9994
▁Shock	-11.9999
▁Greenland	-11.9999
▁Landing	-11.9999
▁entertain	-12.0001
▁235	-12.0003
▁Swa	-12.0004
▁Rus	-12.0004
▁coincide	-12.0005
▁capp	-12.0007
▁coffin	-12.0007
rak	-12.0007
▁Mitch	-12.0013
▁plateau	-12.0014
▁Barker	-12.0017
▁lac	-12.0017
▁Kam	-12.0019
▁Restoration	-12.0021
▁erod	-12.0022
▁Gai	-12.0024
wide	-12.0026
▁Fac	-12.0027
▁Lyrical	-12.003
▁ego	-12.003
▁scal	-12.003
▁monk	-12.0031
▁Nai	-12.0035
▁painful	-12.0036
nthology	-12.0037
▁Marion	-12.0039
ello	-12.0041
▁devotion	-12.0041
▁Ton	-12.0043
▁Locat	-12.0044
escu	-12.0045
▁Brain	-12.0046
▁Massa	-12.0046
±	-12.0047
▁Holiday	-12.0047
▁incarnation	-12.0047
▁Doom	-12.0047
▁Kumar	-12.0048
▁Clarence	-12.0048
▁grammar	-12.0048
▁postseason	-12.005
▁Poly	-12.0052
ddy	-12.0052
▁hotels	-12.0052
▁Ill	-12.0053
▁Lt	-12.0053
dorf	-12.0053
ista	-12.0055
▁cartridge	-12.0061
▁Harald	-12.0061
▁truncat	-12.0061
▁prescrib	-12.0062
nberg	-12.0062
70	-12.0067
amba	-12.0067
titude	-12.0072
▁Erle	-12.0073
▁rabbit	-12.0073
cap	-12.0073
▁critique	-12.0074
▁lizard	-12.0074
▁clue	-12.0075
▁outnumber	-12.0077
▁disappearance	-12.0078
▁boring	-12.0078
▁manifest	-12.0078
key	-12.0079
▁Walton	-12.0082
▁Boot	-12.0083
▁distort	-12.0084
▁cal	-12.0084
▁Moffat	-12.0088
▁Rainbow	-12.0088
▁sperm	-12.0088
▁Albania	-12.0089
▁lone	-12.009
▁repris	-12.0093
rama	-12.0099
▁barrage	-12.0102
kha	-12.0103
gie	-12.0104
▁obscur	-12.0104
CD	-12.0105
▁terminate	-12.0106
▁Highland	-12.0107
▁Lip	-12.0108
▁Lakers	-12.0108
▁1819	-12.0108
▁migrat	-12.011
▁farthe	-12.0112
▁Amsterdam	-12.0115
▁spoil	-12.0115
▁Vulcan	-12.0115
▁earl	-12.0115
▁ecclesiastical	-12.0116
▁Alec	-12.0118
▁fringe	-12.0118
▁Messi	-12.0123
▁temperat	-12.0124
▁Slam	-12.0125
rself	-12.0127
▁civic	-12.0128
▁uncomfortabl	-12.0128
▁clearance	-12.013
opo	-12.0133
▁1814	-12.0134
▁plat	-12.0135
▁Gibbs	-12.0136
▁Kol	-12.014
▁Cunningham	-12.0142
▁tragic	-12.0142
▁Facebook	-12.0142
▁Ronnie	-12.0142
▁archipelago	-12.0145
▁pp	-12.0145
▁Bono	-12.0145
▁Groen	-12.0146
gio	-12.0146
▁Enem	-12.0147
▁rework	-12.015
lé	-12.015
▁Hawke	-12.0154
▁iPad	-12.0155
▁Coke	-12.0155
▁associations	-12.0156
▁oxidation	-12.0156
▁Rita	-12.0157
IA	-12.0159
▁Batt	-12.016
▁justify	-12.0161
tric	-12.0162
▁Fre	-12.0162
▁aims	-12.0163
mill	-12.0165
▁crude	-12.0166
▁Luther	-12.0168
▁vitamin	-12.0169
▁outpost	-12.0169
▁staging	-12.0169
▁Elector	-12.017
uxiliary	-12.017
ozo	-12.017
▁overlapp	-12.0171
reafter	-12.0175
▁Quick	-12.0176
▁Ari	-12.0176
▁Goldman	-12.0176
iri	-12.0178
▁Lam	-12.0179
▁Devils	-12.0183
▁Shirley	-12.0183
▁Describ	-12.0184
chon	-12.0185
bot	-12.0188
▁complications	-12.019
▁Oldham	-12.0191
▁drastic	-12.0196
▁Thomson	-12.0197
▁mammal	-12.0198
matsu	-12.0198
▁screenwriter	-12.0199
nen	-12.0202
▁portal	-12.0207
▁diploma	-12.0208
▁advise	-12.0208
▁retailer	-12.0208
▁Shot	-12.0209
lett	-12.021
▁Congressional	-12.021
▁Cartman	-12.021
▁wheat	-12.021
▁Taunton	-12.0211
▁wit	-12.0213
▁Guin	-12.0214
▁tire	-12.0215
▁Geneva	-12.0215
▁SK	-12.0215
▁380	-12.0215
enau	-12.0222
▁propagat	-12.0223
▁norm	-12.0224
▁Breath	-12.0224
▁beak	-12.0228
▁Bryant	-12.0234
▁swimmer	-12.0234
▁Patricia	-12.0236
▁ge	-12.0236
▁aggression	-12.0237
▁sixteenth	-12.0238
▁underway	-12.024
▁loans	-12.0241
scope	-12.0241
works	-12.0244
▁trustees	-12.0245
▁Cret	-12.0247
▁Peggy	-12.0247
▁Leafs	-12.0248
▁obsolete	-12.0251
▁illusion	-12.0251
▁Landmark	-12.0251
▁idol	-12.0254
▁Moe	-12.0254
▁anticipation	-12.0257
856	-12.0259
gni	-12.0261
▁composite	-12.0264
~	-12.0264
▁Olivier	-12.0264
▁Trouble	-12.0264
tail	-12.0266
▁builder	-12.0268
▁1810	-12.0269
▁flexibl	-12.0269
▁dye	-12.0269
▁Bruno	-12.0271
tim	-12.0273
MT	-12.0274
▁Fitzgerald	-12.0278
▁Rebecca	-12.0278
▁Rodgers	-12.0278
▁Nuclear	-12.0279
▁scripts	-12.0279
▁referenc	-12.0279
▁Dominion	-12.028
▁Frost	-12.0282
▁Rockets	-12.0284
▁Jacobs	-12.0284
tip	-12.0285
▁Kel	-12.0286
▁amass	-12.0287
▁ve	-12.0287
▁throws	-12.0287
▁inhibit	-12.0288
▁NHC	-12.0288
▁fabric	-12.0288
▁158	-12.0289
▁Resolution	-12.0292
▁conscience	-12.0292
▁linguistic	-12.0293
▁den	-12.0294
▁Reporter	-12.0297
phon	-12.0297
GI	-12.0297
▁Extra	-12.0297
▁Colony	-12.0301
▁Mono	-12.0302
▁pend	-12.0302
▁rid	-12.0302
▁contender	-12.0303
▁midfielder	-12.0304
ree	-12.0304
▁Naples	-12.0306
▁Rebellion	-12.0306
▁Salvador	-12.0306
▁Wise	-12.0306
▁Alt	-12.0306
▁endorsement	-12.0306
zar	-12.0307
▁Abd	-12.031
▁Kos	-12.0318
▁Romeo	-12.0318
▁Dickinson	-12.0319
ère	-12.032
▁Everett	-12.0321
▁Imp	-12.0322
oro	-12.0322
▁fixture	-12.0325
▁Sophia	-12.0327
▁Shear	-12.0327
▁fairy	-12.033
▁files	-12.0332
▁algorithm	-12.0333
▁feast	-12.0333
▁Literature	-12.0333
▁bounc	-12.0334
▁redevelopment	-12.0334
▁Gl	-12.0338
▁Coll	-12.0342
omi	-12.0343
employment	-12.0345
▁Sava	-12.0346
▁adjoin	-12.0347
▁Marlborough	-12.0347
▁shatter	-12.0347
▁rallie	-12.0347
▁Tea	-12.035
▁cater	-12.0352
▁Mona	-12.0353
▁execute	-12.0355
▁Operational	-12.0357
bee	-12.0358
▁illuminat	-12.0358
▁wan	-12.036
▁Climate	-12.0361
▁Medieval	-12.0361
▁numerical	-12.0361
▁Jenny	-12.0361
▁Por	-12.0361
fight	-12.0363
▁Image	-12.0364
▁addiction	-12.0366
▁meta	-12.0367
gli	-12.0372
▁axe	-12.0373
▁cope	-12.0373
▁spear	-12.0374
▁Census	-12.0375
▁Pioneer	-12.0375
▁Relief	-12.0375
▁barbette	-12.0375
▁emblem	-12.0375
▁canvas	-12.0376
▁Tomato	-12.0376
▁Wilkinson	-12.0377
▁disguise	-12.0377
▁1775	-12.0379
▁wool	-12.0379
▁Abov	-12.038
aceae	-12.0385
▁Ashe	-12.0387
▁constraints	-12.0389
▁cooperative	-12.0389
▁honey	-12.0389
▁Murder	-12.039
▁rhyme	-12.039
▁Hole	-12.0391
▁necessit	-12.0394
▁bodi	-12.0395
▁truce	-12.0395
▁Wilde	-12.0398
▁eccentric	-12.0399
▁fauna	-12.0402
▁implied	-12.0402
▁refrain	-12.0402
▁staircase	-12.0402
▁keel	-12.0403
▁Majest	-12.0406
▁Hair	-12.0407
▁deepen	-12.0409
satisfied	-12.0409
▁Mort	-12.0411
▁Comet	-12.0411
lsewhere	-12.0412
▁BL	-12.0412
▁McCoy	-12.0413
▁Taking	-12.0413
▁Veteran	-12.0416
▁Period	-12.0416
▁Canning	-12.0417
▁facto	-12.0418
▁146	-12.0419
lith	-12.042
ED	-12.0422
▁Hornet	-12.0425
▁Fortress	-12.0426
▁Cock	-12.0428
▁bribe	-12.0429
806	-12.0429
▁passive	-12.0429
▁Clifton	-12.043
▁vaccine	-12.043
▁suffrage	-12.043
▁Sarawak	-12.043
▁Picard	-12.043
▁proponent	-12.0431
▁guideline	-12.0433
▁Santia	-12.0435
▁broadcaster	-12.0435
▁1792	-12.0435
▁downgrad	-12.0435
▁Coal	-12.0436
▁clips	-12.0437
▁Breed	-12.0438
written	-12.0439
▁conform	-12.0439
▁Flat	-12.044
▁Brussels	-12.0444
▁pivot	-12.0444
▁Timoth	-12.0444
▁Cumberland	-12.0444
▁225	-12.0445
▁Moses	-12.0448
▁Pond	-12.0449
▁endur	-12.0452
▁Driver	-12.0456
▁Certain	-12.0458
▁Milwaukee	-12.0458
▁licence	-12.0458
▁repertoire	-12.0458
▁McClellan	-12.0458
▁casino	-12.0458
▁Payne	-12.046
▁Multi	-12.0466
▁Ain	-12.047
▁PopMatters	-12.0472
▁disadvantage	-12.0472
▁sermon	-12.0472
▁Borneo	-12.0472
▁142	-12.0474
▁offend	-12.0477
▁Creation	-12.0477
▁Satan	-12.0478
▁Royalist	-12.0479
▁chloride	-12.048
▁MW	-12.048
▁Weng	-12.0481
▁redesignat	-12.0483
▁rod	-12.0486
▁crab	-12.0489
▁Flor	-12.0493
▁disruption	-12.0495
▁distribute	-12.0495
▁Pluto	-12.0496
▁Gau	-12.0497
▁approve	-12.0498
▁Fowler	-12.05
▁Legislature	-12.05
▁epidemic	-12.05
▁ITV	-12.0503
▁Freeman	-12.0506
▁Isabel	-12.0506
▁Theme	-12.0508
▁comedic	-12.0511
▁mortal	-12.0511
▁Mean	-12.0512
▁parrot	-12.0514
▁susceptib	-12.0514
▁nurs	-12.0514
▁pope	-12.0516
tica	-12.0518
▁retract	-12.0519
▁mounting	-12.052
▁Ramon	-12.0523
wear	-12.0525
▁Braves	-12.0526
▁Moss	-12.0527
▁hierarch	-12.0528
▁Avatar	-12.0528
alagasy	-12.0529
cystidi	-12.0529
▁Bret	-12.0529
▁Gin	-12.053
▁167	-12.0531
▁Dirt	-12.0534
▁catcher	-12.0535
phone	-12.0536
▁Novel	-12.0536
card	-12.0539
drich	-12.0541
▁scuttl	-12.0542
▁Rule	-12.0543
▁midst	-12.0546
▁1500	-12.0549
▁Jur	-12.0552
▁sighting	-12.0553
▁equation	-12.0556
▁Writer	-12.0556
▁Flotilla	-12.0556
▁embedded	-12.0556
▁sneak	-12.0556
▁shy	-12.0557
▁Parent	-12.0558
▁aspir	-12.0559
istice	-12.056
▁Biden	-12.0562
yard	-12.0563
▁Advanc	-12.0563
▁inhibitor	-12.0565
▁markings	-12.0566
▁Chance	-12.0566
AP	-12.0566
▁explode	-12.0567
▁Jew	-12.0568
▁consort	-12.0569
▁Beaver	-12.0571
▁vague	-12.0571
▁Chopra	-12.0571
▁franc	-12.0571
▁inheritance	-12.0573
▁nineteen	-12.0574
▁pod	-12.0576
▁dash	-12.0576
face	-12.0577
▁Teen	-12.0578
▁Casa	-12.0579
▁heel	-12.058
▁mega	-12.0582
▁pitt	-12.0582
▁epithet	-12.0585
▁Terror	-12.0585
▁psychology	-12.0585
▁Cromwell	-12.0585
▁Chaplin	-12.0585
▁asylum	-12.0585
▁breakaway	-12.0587
grove	-12.0587
▁confirmation	-12.059
▁Marty	-12.0591
▁sew	-12.0591
▁euro	-12.0592
NS	-12.0592
illy	-12.0595
▁dams	-12.0596
▁Tracks	-12.0596
recht	-12.0597
blew	-12.0597
▁Analysi	-12.0597
▁advent	-12.0599
ī	-12.0599
▁Okinawa	-12.0599
▁Av	-12.0599
▁crane	-12.06
▁firearm	-12.0602
▁Pix	-12.0604
▁Das	-12.0607
▁deserve	-12.0608
▁comput	-12.0611
▁Ming	-12.0611
▁Mao	-12.0612
▁reel	-12.0612
55	-12.0616
orium	-12.0617
▁Compar	-12.0619
rff	-12.062
▁1825	-12.0621
lice	-12.0626
▁selective	-12.0627
▁Own	-12.0627
▁piercing	-12.0627
▁Davenport	-12.0627
▁incentive	-12.0627
▁envoy	-12.0627
▁monetar	-12.0627
▁Sale	-12.0627
▁condens	-12.0627
▁skier	-12.0627
▁Nasser	-12.0628
▁Sum	-12.0631
▁Ranch	-12.0631
icus	-12.0632
▁Outer	-12.0633
zzo	-12.0634
mme	-12.0634
▁poles	-12.0635
▁151	-12.0635
▁halls	-12.0638
▁identifie	-12.064
▁pl	-12.064
▁lots	-12.0641
▁congratulat	-12.0641
▁draught	-12.0641
▁demise	-12.0642
eastern	-12.0642
▁Lille	-12.0642
▁Beauty	-12.0643
▁Cambodia	-12.0643
▁Cul	-12.0644
▁stationary	-12.0645
▁Naka	-12.0646
▁Savoy	-12.0648
▁Bench	-12.0648
▁railways	-12.0649
▁healing	-12.0654
▁inmate	-12.0654
▁Saffir	-12.0656
▁restrain	-12.0656
RI	-12.0657
flu	-12.0657
▁container	-12.0662
tun	-12.0668
▁stylistic	-12.067
▁Paradis	-12.067
Ender	-12.0671
weight	-12.0671
▁Systems	-12.0671
▁rehabilitation	-12.0671
akshi	-12.0671
▁Rana	-12.0672
▁feather	-12.0672
▁basal	-12.0675
▁lateral	-12.0676
▁touching	-12.0676
▁1789	-12.0677
▁mates	-12.068
▁1804	-12.068
▁Patter	-12.068
lac	-12.0681
▁Dav	-12.0683
▁Benson	-12.0684
▁Talbot	-12.0684
▁Irene	-12.0685
▁suspicious	-12.0686
▁Honours	-12.0687
▁1795	-12.0689
▁Sons	-12.0689
▁1824	-12.0691
▁storyboard	-12.0692
▁stiff	-12.0696
▁Zen	-12.0698
iti	-12.0698
▁Example	-12.0699
▁matrix	-12.0699
▁burrow	-12.0699
▁rats	-12.07
▁mandate	-12.07
▁Feature	-12.0701
▁detention	-12.0701
▁outlin	-12.0701
▁Gillia	-12.0702
▁Eurasian	-12.0703
▁Huff	-12.0704
▁exceptions	-12.0705
scape	-12.0707
▁buff	-12.0707
▁outlaw	-12.0707
▁156	-12.0708
▁Web	-12.0708
▁lumber	-12.0713
▁mould	-12.0713
▁spectral	-12.0714
ollywood	-12.0714
▁Ost	-12.0715
MP	-12.0719
▁donor	-12.072
▁appealing	-12.0722
▁Whedon	-12.0727
▁scrutin	-12.0727
▁petrol	-12.0728
▁lent	-12.0731
▁Komba	-12.0731
jin	-12.0732
▁Dela	-12.0735
▁phenomena	-12.0737
▁dot	-12.0737
▁Totten	-12.0739
▁Poor	-12.074
▁clinch	-12.0742
▁Antoine	-12.0742
▁Reverend	-12.0742
▁Mart	-12.0743
▁Colombia	-12.0743
▁Pad	-12.0743
bow	-12.0743
▁mason	-12.0746
▁mural	-12.0747
▁Taka	-12.0753
▁morpholog	-12.0754
▁harass	-12.0755
▁governmental	-12.0756
▁MacDonald	-12.0756
▁synagogue	-12.0756
▁resonance	-12.0756
▁tumor	-12.0756
▁Thank	-12.0758
▁puts	-12.0758
LI	-12.0758
▁populariz	-12.076
▁1821	-12.0763
▁excavations	-12.0764
▁noticeabl	-12.0766
▁exchang	-12.0766
▁defendants	-12.0767
▁Word	-12.0767
asi	-12.0768
▁cart	-12.077
aries	-12.077
▁counts	-12.0771
▁tenor	-12.0771
▁glee	-12.0772
▁atom	-12.0772
▁Deb	-12.0772
▁assassin	-12.0773
▁OS	-12.0774
made	-12.0776
Ebert	-12.0777
▁Maha	-12.0779
[...]
