<pad>	0
<unk>	0
</s>	0
▁t	-0
he	-1
▁a	-2
in	-3
▁the	-4
er	-5
on	-6
▁,	-7
re	-8
▁s	-9
ed	-10
▁w	-11
▁o	-12
nd	-13
at	-14
▁.	-15
or	-16
en	-17
▁c	-18
it	-19
▁f	-20
is	-21
es	-22
ar	-23
▁b	-24
▁of	-25
an	-26
▁in	-27
al	-28
ing	-29
▁p	-30
as	-31
▁and	-32
▁to	-33
ic	-34
ro	-35
▁m	-36
▁d	-37
▁h	-38
ion	-39
le	-40
ou	-41
▁T	-42
▁re	-43
▁=	-44
▁S	-45
il	-46
▁A	-47
ent	-48
▁"	-49
▁1	-50
▁th	-51
st	-52
▁l	-53
el	-54
▁C	-55
▁@	-56
▁e	-57
om	-58
am	-59
▁n	-60
ad	-61
ac	-62
▁was	-63
▁M	-64
▁on	-65
ec	-66
▁B	-67
▁The	-68
ly	-69
▁'	-70
ur	-71
et	-72
id	-73
▁g	-74
ol	-75
im	-76
▁I	-77
-@	-78
▁@-@	-79
▁for	-80
ir	-81
ig	-82
iv	-83
ot	-84
ter	-85
ut	-86
▁H	-87
▁as	-88
us	-89
ow	-90
ith	-91
ay	-92
▁2	-93
▁st	-94
▁P	-95
▁he	-96
ver	-97
ation	-98
▁with	-99
▁be	-100
▁that	-101
▁R	-102
ce	-103
▁D	-104
un	-105
em	-106
▁wh	-107
▁W	-108
▁by	-109
▁F	-110
ch	-111
▁al	-112
th	-113
▁)	-114
▁(	-115
▁is	-116
ul	-117
▁con	-118
▁L	-119
▁at	-120
▁G	-121
ers	-122
ct	-123
▁N	-124
ain	-125
▁19	-126
and	-127
▁an	-128
os	-129
▁it	-130
her	-131
rom	-132
ag	-133
av	-134
um	-135
▁J	-136
est	-137
00	-138
▁his	-139
▁r	-140
▁E	-141
ri	-142
od	-143
▁from	-144
▁O	-145
ist	-146
▁com	-147
ap	-148
▁pro	-149
▁v	-150
op	-151
if	-152
ore	-153
ill	-154
ld	-155
up	-156
ere	-157
ew	-158
res	-159
igh	-160
▁In	-161
ies	-162
▁de	-163
art	-164
ber	-165
ard	-166
ort	-167
▁se	-168
▁were	-169
ich	-170
ate	-171
ak	-172
all	-173
ab	-174
ant	-175
ud	-176
oc	-177
▁ex	-178
ong	-179
qu	-180
▁or	-181
▁ch	-182
gh	-183
ear	-184
ated	-185
▁pl	-186
▁sh	-187
ess	-188
ity	-189
ip	-190
▁K	-191
ive	-192
ame	-193
▁U	-194
▁had	-195
ect	-196
ack	-197
our	-198
▁St	-199
▁su	-200
red	-201
ast	-202
se	-203
▁which	-204
▁k	-205
ment	-206
▁le	-207
ge	-208
und	-209
▁are	-210
ov	-211
ian	-212
ial	-213
▁not	-214
▁sp	-215
ell	-216
ost	-217
▁y	-218
ight	-219
▁tr	-220
ord	-221
ust	-222
ary	-223
ia	-224
ther	-225
rit	-226
pt	-227
ine	-228
▁3	-229
oun	-230
ical	-231
ave	-232
pp	-233
▁Ch	-234
▁un	-235
▁200	-236
cc	-237
▁inc	-238
fter	-239
ould	-240
▁but	-241
irst	-242
ish	-243
ous	-244
ions	-245
▁V	-246
te	-247
▁comp	-248
so	-249
ff	-250
▁20	-251
ide	-252
▁whe	-253
▁ro	-254
ure	-255
▁ar	-256
▁cont	-257
ra	-258
ub	-259
▁;	-260
▁first	-261
ign	-262
▁cl	-263
wo	-264
▁her	-265
ie	-266
▁its	-267
▁their	-268
ue	-269
▁–	-270
og	-271
orm	-272
ass	-273
ork	-274
▁int	-275
▁res	-276
▁:	-277
ok	-278
▁He	-279
ater	-280
▁also	-281
▁ab	-282
▁ad	-283
ome	-284
ond	-285
out	-286
age	-287
ry	-288
mer	-289
ire	-290
hed	-291
▁us	-292
du	-293
▁4	-294
ime	-295
low	-296
ru	-297
▁per	-298
per	-299
ans	-300
▁who	-301
▁one	-302
▁have	-303
▁5	-304
▁Th	-305
▁sc	-306
pl	-307
ally	-308
own	-309
ile	-310
ance	-311
▁rec	-312
▁18	-313
ted	-314
.@	-315
▁@.@	-316
▁two	-317
ition	-318
ugh	-319
ree	-320
ence	-321
uring	-322
port	-323
▁been	-324
▁part	-325
▁bec	-326
ts	-327
▁has	-328
ice	-329
iz	-330
▁ag	-331
▁app	-332
▁Al	-333
▁201	-334
,@	-335
▁@,@	-336
ough	-337
▁en	-338
▁j	-339
▁dis	-340
lud	-341
▁over	-342
▁this	-343
▁ser	-344
ory	-345
▁year	-346
ely	-347
ations	-348
are	-349
ember	-350
ction	-351
ound	-352
ke	-353
▁off	-354
▁after	-355
▁up	-356
ach	-357
▁play	-358
▁des	-359
land	-360
▁It	-361
ace	-362
over	-363
ark	-364
ric	-365
▁out	-366
▁they	-367
▁te	-368
ade	-369
▁other	-370
act	-371
▁man	-372
ib	-373
▁im	-374
ult	-375
▁includ	-376
ress	-377
ced	-378
ail	-379
urn	-380
▁Y	-381
wn	-382
▁would	-383
ens	-384
ind	-385
▁time	-386
▁into	-387
man	-388
▁pre	-389
ang	-390
one	-391
▁On	-392
ep	-393
ward	-394
▁Un	-395
▁him	-396
▁we	-397
oin	-398
we	-399
ite	-400
ates	-401
▁she	-402
▁6	-403
les	-404
ren	-405
▁ev	-406
able	-407
▁att	-408
ased	-409
ilm	-410
ited	-411
amp	-412
end	-413
ever	-414
ied	-415
ase	-416
▁comm	-417
ors	-418
▁inter	-419
rough	-420
ount	-421
oy	-422
form	-423
ons	-424
▁all	-425
▁more	-426
▁work	-427
ood	-428
ces	-429
▁7	-430
ered	-431
old	-432
aw	-433
ings	-434
vel	-435
▁Ar	-436
ild	-437
▁new	-438
▁sec	-439
▁An	-440
▁bet	-441
ick	-442
ose	-443
▁when	-444
▁film	-445
inal	-446
ve	-447
▁fe	-448
ents	-449
ious	-450
ake	-451
way	-452
aus	-453
fer	-454
att	-455
reat	-456
ft	-457
▁cons	-458
iss	-459
round	-460
▁8	-461
▁Mar	-462
▁rem	-463
gan	-464
rib	-465
rop	-466
ved	-467
ason	-468
▁dec	-469
▁during	-470
▁und	-471
orth	-472
ubl	-473
▁again	-474
hip	-475
▁most	-476
▁game	-477
▁9	-478
▁pr	-479
▁As	-480
▁them	-481
▁199	-482
▁only	-483
oth	-484
ween	-485
▁ear	-486
ix	-487
ollow	-488
▁than	-489
ath	-490
▁sup	-491
▁ne	-492
ational	-493
fore	-494
▁Se	-495
▁New	-496
▁about	-497
▁produ	-498
ob	-499
▁cent	-500
▁kn	-501
tern	-502
▁ret	-503
▁char	-504
▁song	-505
▁can	-506
outh	-507
ug	-508
▁between	-509
▁later	-510
ey	-511
▁rele	-512
▁under	-513
▁three	-514
orn	-515
ict	-516
▁col	-517
▁act	-518
hn	-519
ton	-520
iew	-521
▁00	-522
aid	-523
ron	-524
▁through	-525
als	-526
▁qu	-527
orld	-528
▁num	-529
▁En	-530
ook	-531
▁so	-532
▁acc	-533
▁me	-534
▁rel	-535
▁while	-536
▁end	-537
meric	-538
ank	-539
▁Americ	-540
lect	-541
▁fl	-542
ters	-543
▁pos	-544
▁Le	-545
ral	-546
ock	-547
▁sub	-548
▁ass	-549
▁where	-550
ular	-551
ating	-552
▁ver	-553
▁day	-554
▁reg	-555
▁second	-556
▁bu	-557
ener	-558
▁made	-559
▁Com	-560
ames	-561
ision	-562
ived	-563
ck	-564
▁pe	-565
▁record	-566
hes	-567
▁def	-568
bum	-569
▁four	-570
▁Re	-571
son	-572
▁gro	-573
▁follow	-574
▁season	-575
▁000	-576
▁form	-577
▁some	-578
▁ep	-579
▁such	-580
ished	-581
▁am	-582
▁mov	-583
ool	-584
▁before	-585
ained	-586
▁mus	-587
▁there	-588
▁writ	-589
▁Sp	-590
▁Jo	-591
ph	-592
▁spec	-593
ics	-594
ike	-595
▁10	-596
▁years	-597
▁team	-598
iel	-599
▁sy	-600
io	-601
hen	-602
ode	-603
▁This	-604
▁At	-605
▁/	-606
ident	-607
ual	-608
▁lar	-609
▁album	-610
▁ind	-611
owever	-612
ily	-613
▁used	-614
▁ent	-615
▁gr	-616
ros	-617
ning	-618
▁call	-619
▁sur	-620
ific	-621
▁high	-622
▁ac	-623
▁publ	-624
ury	-625
▁Sh	-626
▁being	-627
▁epis	-628
▁then	-629
velop	-630
▁do	-631
led	-632
▁loc	-633
▁exp	-634
ten	-635
ife	-636
▁against	-637
▁17	-638
▁inv	-639
aj	-640
other	-641
ris	-642
▁pres	-643
▁bl	-644
anc	-645
▁number	-646
▁show	-647
▁After	-648
▁charac	-649
▁0	-650
▁sever	-651
▁add	-652
▁set	-653
▁co	-654
ince	-655
ane	-656
▁became	-657
▁rece	-658
ject	-659
▁Brit	-660
ause	-661
▁lead	-662
▁perform	-663
▁including	-664
▁br	-665
▁sing	-666
▁no	-667
▁—	-668
ars	-669
ather	-670
ek	-671
erm	-672
▁United	-673
▁found	-674
▁well	-675
ines	-676
▁rep	-677
▁mon	-678
▁pol	-679
air	-680
▁back	-681
▁both	-682
▁series	-683
▁198	-684
▁cap	-685
▁Sc	-686
ale	-687
▁15	-688
▁12	-689
ober	-690
▁ship	-691
ier	-692
ower	-693
ement	-694
ired	-695
ures	-696
▁Con	-697
its	-698
▁main	-699
▁Wh	-700
ivers	-701
▁194	-702
▁She	-703
ert	-704
▁min	-705
ley	-706
pen	-707
overn	-708
▁did	-709
iet	-710
▁go	-711
der	-712
▁cre	-713
elf	-714
▁develop	-715
▁imp	-716
▁Eng	-717
ram	-718
ities	-719
▁long	-720
▁met	-721
ik	-722
ann	-723
iver	-724
ised	-725
any	-726
ven	-727
olog	-728
ting	-729
ared	-730
▁John	-731
▁mill	-732
ird	-733
▁em	-734
▁air	-735
uch	-736
ful	-737
▁mat	-738
▁episode	-739
tend	-740
az	-741
irect	-742
ll	-743
▁said	-744
▁stud	-745
▁many	-746
▁bro	-747
ute	-748
▁dep	-749
▁could	-750
ative	-751
▁orig	-752
▁car	-753
▁16	-754
▁contin	-755
▁war	-756
▁several	-757
▁American	-758
though	-759
▁dif	-760
▁inst	-761
▁pop	-762
▁Ind	-763
▁Cl	-764
ash	-765
ouse	-766
ield	-767
▁known	-768
▁197	-769
emb	-770
ise	-771
▁196	-772
ually	-773
ty	-774
▁Aust	-775
▁conc	-776
til	-777
▁Br	-778
▁11	-779
iam	-780
view	-781
ins	-782
▁War	-783
erson	-784
▁ob	-785
ued	-786
▁return	-787
▁began	-788
▁sm	-789
▁any	-790
▁comple	-791
▁design	-792
▁desc	-793
▁sign	-794
ern	-795
ople	-796
chool	-797
ross	-798
ange	-799
▁est	-800
my	-801
▁Fr	-802
aking	-803
ccess	-804
▁trans	-805
▁prov	-806
▁De	-807
▁feat	-808
oot	-809
hy	-810
▁inf	-811
▁run	-812
▁early	-813
▁art	-814
▁music	-815
▁dist	-816
▁own	-817
ah	-818
▁near	-819
▁released	-820
ided	-821
▁until	-822
▁Bl	-823
rap	-824
▁called	-825
ized	-826
ism	-827
▁eff	-828
imes	-829
▁Col	-830
▁US	-831
▁resp	-832
▁bel	-833
▁pass	-834
une	-835
ured	-836
stem	-837
▁fin	-838
▁Z	-839
ially	-840
▁May	-841
ists	-842
▁down	-843
ution	-844
enn	-845
▁disc	-846
▁crit	-847
ments	-848
osed	-849
▁direct	-850
▁gener	-851
▁along	-852
xt	-853
▁ins	-854
▁million	-855
▁prev	-856
▁British	-857
▁Ger	-858
▁group	-859
▁offic	-860
▁fam	-861
▁13	-862
▁these	-863
ajor	-864
ium	-865
▁mod	-866
ull	-867
▁may	-868
▁$	-869
ax	-870
▁open	-871
cept	-872
▁mil	-873
eb	-874
▁poin	-875
els	-876
ains	-877
▁Ad	-878
▁land	-879
▁sim	-880
▁hist	-881
gest	-882
▁govern	-883
▁Aug	-884
ger	-885
▁Sept	-886
▁Be	-887
▁success	-888
▁str	-889
▁September	-890
▁August	-891
erv	-892
▁States	-893
▁World	-894
▁oper	-895
▁count	-896
▁attack	-897
uc	-898
ible	-899
▁gu	-900
▁same	-901
▁use	-902
▁Ap	-903
wards	-904
▁describ	-905
▁people	-906
ets	-907
▁character	-908
aced	-909
▁because	-910
▁For	-911
amed	-912
ink	-913
▁All	-914
aining	-915
▁Is	-916
▁like	-917
▁serv	-918
yp	-919
▁14	-920
▁Ju	-921
▁around	-922
▁though	-923
▁start	-924
aving	-925
▁195	-926
▁ed	-927
▁km	-928
▁win	-929
▁const	-930
▁took	-931
▁occ	-932
ues	-933
▁Austral	-934
ruct	-935
▁batt	-936
▁Pl	-937
▁Oct	-938
▁German	-939
ner	-940
▁ann	-941
▁support	-942
ped	-943
▁Nov	-944
▁following	-945
▁six	-946
▁dr	-947
ove	-948
▁north	-949
▁Tr	-950
▁ele	-951
▁193	-952
▁However	-953
▁system	-954
▁appear	-955
▁Q	-956
▁final	-957
▁received	-958
▁class	-959
uss	-960
▁Car	-961
▁October	-962
▁consid	-963
▁prom	-964
▁head	-965
ives	-966
ants	-967
▁Dec	-968
▁191	-969
ility	-970
▁state	-971
▁ever	-972
▁build	-973
ene	-974
▁each	-975
ically	-976
▁five	-977
ling	-978
▁adv	-979
▁ext	-980
anu	-981
▁Pro	-982
▁century	-983
▁York	-984
▁aut	-985
▁area	-986
▁var	-987
ret	-988
▁will	-989
▁They	-990
▁small	-991
ately	-992
rol	-993
▁bo	-994
▁partic	-995
▁life	-996
gin	-997
▁North	-998
iving	-999
▁report	-1000
get	-1001
▁]	-1002
▁[	-1003
ored	-1004
tle	-1005
▁June	-1006
oss	-1007
▁By	-1008
ording	-1009
ril	-1010
▁city	-1011
▁Me	-1012
▁major	-1013
▁King	-1014
▁week	-1015
▁public	-1016
ians	-1017
▁mar	-1018
▁July	-1019
▁%	-1020
ission	-1021
▁conf	-1022
▁band	-1023
ection	-1024
▁ref	-1025
▁November	-1026
med	-1027
urch	-1028
▁Har	-1029
▁rest	-1030
▁Comm	-1031
▁world	-1032
▁since	-1033
▁Will	-1034
inc	-1035
▁med	-1036
▁single	-1037
ina	-1038
raft	-1039
▁April	-1040
esp	-1041
por	-1042
lish	-1043
▁det	-1044
▁March	-1045
▁just	-1046
ried	-1047
▁last	-1048
▁Pr	-1049
ected	-1050
omet	-1051
..	-1052
hest	-1053
ural	-1054
ional	-1055
▁turn	-1056
▁Ed	-1057
▁allow	-1058
aim	-1059
ively	-1060
▁Mc	-1061
▁hel	-1062
ilt	-1063
▁Can	-1064
▁30	-1065
ient	-1066
▁Gr	-1067
▁arr	-1068
▁po	-1069
▁left	-1070
ague	-1071
▁large	-1072
▁line	-1073
▁differ	-1074
idge	-1075
▁care	-1076
▁South	-1077
▁Ge	-1078
cl	-1079
▁south	-1080
▁During	-1081
▁...	-1082
ales	-1083
ified	-1084
▁book	-1085
▁vers	-1086
▁school	-1087
empt	-1088
▁December	-1089
rist	-1090
▁third	-1091
avy	-1092
▁sl	-1093
ble	-1094
▁incre	-1095
ats	-1096
▁Or	-1097
▁month	-1098
▁due	-1099
▁appro	-1100
ined	-1101
▁played	-1102
▁much	-1103
▁event	-1104
▁25	-1105
▁if	-1106
▁another	-1107
rote	-1108
▁Janu	-1109
▁January	-1110
▁included	-1111
▁192	-1112
▁what	-1113
row	-1114
▁based	-1115
▁place	-1116
eng	-1117
▁short	-1118
aged	-1119
▁II	-1120
by	-1121
▁government	-1122
▁expl	-1123
▁Ph	-1124
ograp	-1125
▁person	-1126
▁wrote	-1127
▁When	-1128
▁track	-1129
ony	-1130
ball	-1131
▁camp	-1132
▁old	-1133
▁tit	-1134
▁name	-1135
apan	-1136
▁death	-1137
▁bre	-1138
ently	-1139
▁port	-1140
alf	-1141
▁ph	-1142
ages	-1143
▁elect	-1144
▁Eu	-1145
▁Japan	-1146
▁won	-1147
ience	-1148
ple	-1149
▁child	-1150
ne	-1151
▁lit	-1152
▁prot	-1153
▁kill	-1154
▁eng	-1155
▁story	-1156
▁prog	-1157
ideo	-1158
▁power	-1159
oad	-1160
▁review	-1161
ody	-1162
▁vis	-1163
▁home	-1164
ital	-1165
▁led	-1166
▁Bro	-1167
▁described	-1168
▁previous	-1169
▁requ	-1170
▁cour	-1171
▁family	-1172
▁gun	-1173
▁Te	-1174
oman	-1175
▁way	-1176
ott	-1177
▁named	-1178
▁right	-1179
▁now	-1180
urther	-1181
▁dem	-1182
▁even	-1183
iven	-1184
▁make	-1185
iod	-1186
▁Mus	-1187
▁men	-1188
embers	-1189
ilar	-1190
▁leg	-1191
ged	-1192
iversity	-1193
▁attempt	-1194
ister	-1195
reen	-1196
▁best	-1197
ention	-1198
itions	-1199
omin	-1200
▁repl	-1201
ivision	-1202
▁opp	-1203
▁100	-1204
▁games	-1205
cy	-1206
rench	-1207
aff	-1208
ached	-1209
▁term	-1210
▁Gu	-1211
▁command	-1212
▁top	-1213
ior	-1214
▁hand	-1215
▁poss	-1216
ival	-1217
▁belie	-1218
▁very	-1219
▁dam	-1220
▁those	-1221
▁His	-1222
▁And	-1223
ness	-1224
▁Feb	-1225
ont	-1226
▁Europ	-1227
mp	-1228
ruary	-1229
▁February	-1230
▁iss	-1231
▁still	-1232
▁organ	-1233
▁species	-1234
▁next	-1235
▁Fl	-1236
▁effect	-1237
▁view	-1238
riend	-1239
ances	-1240
self	-1241
▁Christ	-1242
▁par	-1243
▁capt	-1244
▁There	-1245
ps	-1246
▁National	-1247
aken	-1248
▁original	-1249
oci	-1250
▁spe	-1251
ature	-1252
ences	-1253
▁water	-1254
▁addition	-1255
▁join	-1256
ox	-1257
ched	-1258
▁Europe	-1259
▁list	-1260
sh	-1261
▁We	-1262
ery	-1263
▁within	-1264
▁period	-1265
▁members	-1266
lu	-1267
▁mark	-1268
▁built	-1269
▁held	-1270
▁French	-1271
▁deb	-1272
▁exper	-1273
▁release	-1274
▁2010	-1275
▁although	-1276
▁late	-1277
▁former	-1278
hor	-1279
▁great	-1280
▁match	-1281
▁Bar	-1282
rew	-1283
alk	-1284
lev	-1285
▁sold	-1286
▁dest	-1287
augh	-1288
uted	-1289
▁cur	-1290
ney	-1291
▁video	-1292
tended	-1293
line	-1294
▁caus	-1295
▁storm	-1296
ented	-1297
▁West	-1298
ards	-1299
▁cover	-1300
ring	-1301
▁Par	-1302
▁init	-1303
▁role	-1304
▁21	-1305
ropical	-1306
▁William	-1307
▁came	-1308
▁estab	-1309
▁av	-1310
▁days	-1311
▁tri	-1312
▁result	-1313
▁Am	-1314
af	-1315
▁mid	-1316
▁control	-1317
ption	-1318
▁stand	-1319
▁real	-1320
▁polit	-1321
ulation	-1322
ides	-1323
ech	-1324
▁however	-1325
ler	-1326
▁Her	-1327
itary	-1328
au	-1329
oon	-1330
hel	-1331
▁2008	-1332
▁cr	-1333
▁my	-1334
▁2009	-1335
▁prop	-1336
▁few	-1337
▁town	-1338
▁Min	-1339
▁X	-1340
aster	-1341
▁wind	-1342
▁Geor	-1343
ense	-1344
▁you	-1345
▁side	-1346
▁tw	-1347
▁24	-1348
▁continued	-1349
akes	-1350
▁often	-1351
atic	-1352
na	-1353
▁equ	-1354
▁local	-1355
▁sk	-1356
▁2011	-1357
▁Ear	-1358
▁post	-1359
▁among	-1360
▁Man	-1361
▁similar	-1362
▁say	-1363
ham	-1364
ruction	-1365
tal	-1366
▁Air	-1367
omb	-1368
▁Char	-1369
▁Mich	-1370
▁claim	-1371
ead	-1372
▁hum	-1373
elt	-1374
estern	-1375
gy	-1376
▁&	-1377
▁England	-1378
omen	-1379
side	-1380
ator	-1381
reet	-1382
▁No	-1383
br	-1384
▁different	-1385
▁sug	-1386
read	-1387
ract	-1388
let	-1389
▁beh	-1390
▁del	-1391
▁further	-1392
▁typ	-1393
ying	-1394
ese	-1395
▁sent	-1396
▁Rec	-1397
▁level	-1398
ves	-1399
▁considered	-1400
▁take	-1401
▁Dav	-1402
▁law	-1403
ology	-1404
▁fre	-1405
▁2007	-1406
▁22	-1407
ops	-1408
▁career	-1409
▁One	-1410
eter	-1411
par	-1412
ots	-1413
▁production	-1414
esc	-1415
urs	-1416
▁half	-1417
▁Park	-1418
uck	-1419
ices	-1420
▁having	-1421
ampions	-1422
▁City	-1423
ms	-1424
▁English	-1425
▁Acc	-1426
app	-1427
▁El	-1428
ung	-1429
▁moved	-1430
▁east	-1431
▁road	-1432
▁mag	-1433
▁ant	-1434
▁Co	-1435
yl	-1436
▁without	-1437
▁every	-1438
▁west	-1439
▁Although	-1440
me	-1441
ering	-1442
rodu	-1443
▁appe	-1444
▁player	-1445
▁2012	-1446
▁become	-1447
▁position	-1448
▁plan	-1449
▁Cent	-1450
▁history	-1451
▁version	-1452
▁conv	-1453
▁cor	-1454
ondon	-1455
▁Ang	-1456
ront	-1457
bo	-1458
▁Count	-1459
▁cast	-1460
▁influ	-1461
▁London	-1462
▁el	-1463
▁house	-1464
vers	-1465
▁sound	-1466
ches	-1467
ford	-1468
▁commun	-1469
ones	-1470
yle	-1471
▁23	-1472
▁fore	-1473
▁Cal	-1474
▁suggest	-1475
▁club	-1476
ize	-1477
▁strong	-1478
▁invol	-1479
▁Batt	-1480
▁written	-1481
irc	-1482
atter	-1483
▁190	-1484
▁With	-1485
▁less	-1486
▁bas	-1487
▁stat	-1488
▁announ	-1489
aul	-1490
utes	-1491
▁foot	-1492
▁River	-1493
▁order	-1494
ape	-1495
▁refer	-1496
iety	-1497
▁Canad	-1498
rest	-1499
▁prof	-1500
craft	-1501
▁point	-1502
▁given	-1503
sequ	-1504
▁aff	-1505
▁tem	-1506
▁low	-1507
▁trad	-1508
▁hig	-1509
▁want	-1510
▁University	-1511
▁gave	-1512
▁Gener	-1513
▁rad	-1514
iqu	-1515
▁ke	-1516
rent	-1517
▁far	-1518
▁import	-1519
▁never	-1520
▁While	-1521
▁chang	-1522
▁defe	-1523
ailed	-1524
ald	-1525
▁pat	-1526
▁returned	-1527
▁soc	-1528
ories	-1529
▁repres	-1530
▁total	-1531
▁vict	-1532
▁tro	-1533
▁fact	-1534
▁good	-1535
▁High	-1536
▁Pol	-1537
▁company	-1538
▁country	-1539
▁went	-1540
aly	-1541
▁comb	-1542
▁fire	-1543
▁friend	-1544
cess	-1545
▁published	-1546
roy	-1547
▁hour	-1548
ison	-1549
sp	-1550
▁produced	-1551
ges	-1552
levision	-1553
▁find	-1554
▁reported	-1555
aun	-1556
▁origin	-1557
isc	-1558
▁youn	-1559
▁2006	-1560
ably	-1561
▁lost	-1562
▁stated	-1563
▁common	-1564
aign	-1565
▁program	-1566
ille	-1567
▁Ex	-1568
▁particular	-1569
▁light	-1570
▁ord	-1571
ai	-1572
▁adm	-1573
▁Sm	-1574
ington	-1575
con	-1576
▁include	-1577
▁According	-1578
echn	-1579
urric	-1580
▁compet	-1581
▁recorded	-1582
used	-1583
▁building	-1584
hing	-1585
▁press	-1586
gr	-1587
err	-1588
ief	-1589
▁need	-1590
▁project	-1591
▁forces	-1592
▁bus	-1593
▁Sy	-1594
▁nort	-1595
▁ships	-1596
▁should	-1597
▁using	-1598
▁eight	-1599
▁interest	-1600
▁Ab	-1601
▁performance	-1602
aren	-1603
▁service	-1604
▁popular	-1605
▁27	-1606
▁These	-1607
▁ide	-1608
ploy	-1609
▁50	-1610
▁times	-1611
iment	-1612
raw	-1613
▁making	-1614
▁28	-1615
▁aircraft	-1616
▁ten	-1617
▁himself	-1618
▁2013	-1619
oyal	-1620
▁author	-1621
▁father	-1622
ned	-1623
▁military	-1624
tain	-1625
▁fun	-1626
iness	-1627
▁Australia	-1628
▁Sw	-1629
osp	-1630
▁battle	-1631
▁anim	-1632
ampionship	-1633
lear	-1634
▁Sec	-1635
▁Jack	-1636
▁sit	-1637
▁songs	-1638
▁lim	-1639
▁somet	-1640
▁Ass	-1641
atch	-1642
▁fr	-1643
▁read	-1644
outher	-1645
▁Ne	-1646
ae	-1647
▁critic	-1648
▁Pres	-1649
ensive	-1650
▁development	-1651
play	-1652
▁Af	-1653
ither	-1654
ords	-1655
▁how	-1656
▁General	-1657
alth	-1658
▁sw	-1659
itive	-1660
quad	-1661
olution	-1662
▁40	-1663
▁State	-1664
▁Ste	-1665
eder	-1666
outhern	-1667
ases	-1668
▁James	-1669
▁gl	-1670
▁189	-1671
▁26	-1672
▁cross	-1673
▁ground	-1674
▁Dr	-1675
▁ft	-1676
cer	-1677
▁remained	-1678
▁star	-1679
▁Cor	-1680
astern	-1681
acy	-1682
▁characters	-1683
▁Army	-1684
▁national	-1685
▁ste	-1686
▁get	-1687
▁months	-1688
▁suff	-1689
▁present	-1690
▁died	-1691
rick	-1692
oll	-1693
▁gen	-1694
▁developed	-1695
ries	-1696
▁title	-1697
ublic	-1698
rie	-1699
work	-1700
▁sum	-1701
▁Comp	-1702
▁chart	-1703
dom	-1704
▁campaign	-1705
urricane	-1706
▁force	-1707
▁children	-1708
▁League	-1709
fic	-1710
ument	-1711
▁introdu	-1712
ream	-1713
ration	-1714
bs	-1715
▁promot	-1716
▁tour	-1717
ency	-1718
itted	-1719
eth	-1720
▁Bo	-1721
▁signific	-1722
▁across	-1723
isted	-1724
lands	-1725
▁son	-1726
▁away	-1727
▁Gl	-1728
ression	-1729
▁relations	-1730
ael	-1731
▁red	-1732
hern	-1733
▁obs	-1734
▁official	-1735
▁histor	-1736
▁Division	-1737
▁field	-1738
▁fav	-1739
▁pra	-1740
▁felt	-1741
aur	-1742
▁America	-1743
lege	-1744
▁noted	-1745
▁fac	-1746
▁night	-1747
most	-1748
▁announced	-1749
▁reached	-1750
▁intern	-1751
▁Russ	-1752
▁Sim	-1753
▁created	-1754
▁County	-1755
▁areas	-1756
▁destroy	-1757
▁television	-1758
ks	-1759
▁Japanese	-1760
▁2005	-1761
▁station	-1762
▁Road	-1763
▁Rep	-1764
▁coun	-1765
alt	-1766
▁successful	-1767
ressed	-1768
ole	-1769
▁rock	-1770
imately	-1771
▁Sup	-1772
▁arm	-1773
▁Street	-1774
vent	-1775
▁various	-1776
yn	-1777
▁’	-1778
▁val	-1779
▁political	-1780
▁seen	-1781
reg	-1782
▁followed	-1783
▁aver	-1784
▁Mad	-1785
▁too	-1786
▁bar	-1787
▁rank	-1788
▁trav	-1789
▁Mon	-1790
▁performed	-1791
iting	-1792
ising	-1793
▁Rober	-1794
▁cult	-1795
▁served	-1796
▁East	-1797
▁players	-1798
▁2014	-1799
cast	-1800
▁George	-1801
▁29	-1802
iber	-1803
▁Reg	-1804
▁full	-1805
▁decl	-1806
▁cond	-1807
▁rev	-1808
▁begin	-1809
▁prim	-1810
ope	-1811
duct	-1812
▁black	-1813
ality	-1814
ination	-1815
elling	-1816
▁fle	-1817
▁earl	-1818
▁put	-1819
▁circ	-1820
field	-1821
▁cost	-1822
idence	-1823
▁sol	-1824
▁see	-1825
▁process	-1826
omp	-1827
hem	-1828
▁style	-1829
▁Hen	-1830
abor	-1831
▁look	-1832
▁test	-1833
ization	-1834
▁div	-1835
▁seven	-1836
▁enc	-1837
▁To	-1838
▁killed	-1839
▁aud	-1840
ays	-1841
▁help	-1842
▁Phil	-1843
rict	-1844
▁let	-1845
lished	-1846
▁throughout	-1847
▁vol	-1848
▁taken	-1849
▁Ser	-1850
▁tropical	-1851
▁able	-1852
▁Bill	-1853
▁fight	-1854
▁non	-1855
▁discover	-1856
▁agre	-1857
▁little	-1858
ertain	-1859
▁wid	-1860
ecut	-1861
▁cy	-1862
▁becom	-1863
▁significant	-1864
▁age	-1865
▁fem	-1866
▁Em	-1867
ett	-1868
▁meet	-1869
▁ident	-1870
▁hit	-1871
▁special	-1872
▁techn	-1873
ways	-1874
▁writing	-1875
▁er	-1876
oice	-1877
▁struct	-1878
▁established	-1879
▁thought	-1880
irl	-1881
▁broad	-1882
▁cop	-1883
▁body	-1884
▁mm	-1885
enced	-1886
▁front	-1887
▁appeared	-1888
▁does	-1889
▁David	-1890
▁Act	-1891
▁entire	-1892
▁Australian	-1893
▁Part	-1894
▁!	-1895
▁coll	-1896
epend	-1897
▁coast	-1898
▁points	-1899
▁miles	-1900
cil	-1901
▁Per	-1902
aval	-1903
▁award	-1904
▁impro	-1905
▁route	-1906
▁member	-1907
▁Rich	-1908
ought	-1909
ground	-1910
▁women	-1911
▁activ	-1912
▁range	-1913
odes	-1914
▁Mor	-1915
▁caused	-1916
▁started	-1917
▁decided	-1918
ript	-1919
urg	-1920
ivil	-1921
▁You	-1922
▁features	-1923
lected	-1924
▁Afric	-1925
▁general	-1926
▁Med	-1927
▁pain	-1928
▁eventually	-1929
day	-1930
hys	-1931
less	-1932
aves	-1933
iers	-1934
iron	-1935
conom	-1936
▁Royal	-1937
▁race	-1938
ators	-1939
iec	-1940
▁vot	-1941
ming	-1942
ask	-1943
ster	-1944
ana	-1945
▁grow	-1946
▁Pe	-1947
▁manag	-1948
▁arch	-1949
▁feet	-1950
idd	-1951
ogn	-1952
gether	-1953
▁together	-1954
▁added	-1955
rison	-1956
▁hold	-1957
▁House	-1958
▁Hist	-1959
▁cut	-1960
ius	-1961
▁once	-1962
▁188	-1963
ivid	-1964
▁white	-1965
here	-1966
▁My	-1967
▁formed	-1968
ample	-1969
▁tre	-1970
▁located	-1971
lin	-1972
itar	-1973
▁nov	-1974
▁stri	-1975
▁arg	-1976
reek	-1977
▁Sch	-1978
▁modern	-1979
▁conn	-1980
▁instead	-1981
rought	-1982
bert	-1983
▁round	-1984
emy	-1985
▁Qu	-1986
umb	-1987
men	-1988
▁esc	-1989
▁Black	-1990
orts	-1991
aces	-1992
hic	-1993
▁important	-1994
▁mix	-1995
omm	-1996
▁ball	-1997
▁Intern	-1998
ades	-1999
▁crew	-2000
▁pri	-2001
▁saw	-2002
urb	-2003
▁action	-2004
▁completed	-2005
▁31	-2006
cing	-2007
▁redu	-2008
head	-2009
▁playing	-2010
▁Indian	-2011
ects	-2012
▁Other	-2013
oney	-2014
ray	-2015
▁2004	-2016
off	-2017
ament	-2018
cent	-2019
▁insp	-2020
▁population	-2021
▁mater	-2022
▁invest	-2023
ee	-2024
▁base	-2025
▁surv	-2026
▁Michael	-2027
ells	-2028
▁mot	-2029
▁voc	-2030
▁rather	-2031
▁occur	-2032
▁ask	-2033
▁opened	-2034
▁stage	-2035
▁behind	-2036
▁others	-2037
▁186	-2038
ush	-2039
▁fall	-2040
▁guns	-2041
▁brother	-2042
ceed	-2043
asing	-2044
▁ren	-2045
▁comment	-2046
▁lik	-2047
igned	-2048
▁born	-2049
ements	-2050
▁fif	-2051
▁site	-2052
▁2015	-2053
▁live	-2054
▁works	-2055
aps	-2056
▁loss	-2057
▁France	-2058
stit	-2059
▁worked	-2060
▁bomb	-2061
ficult	-2062
▁heavy	-2063
▁miss	-2064
int	-2065
▁ra	-2066
▁pred	-2067
▁School	-2068
▁lack	-2069
▁subsequ	-2070
▁party	-2071
medi	-2072
▁proble	-2073
▁difficult	-2074
▁close	-2075
lection	-2076
wood	-2077
▁construction	-2078
▁Wash	-2079
▁know	-2080
▁Some	-2081
▁relationship	-2082
▁weeks	-2083
▁host	-2084
▁originally	-2085
gg	-2086
▁separ	-2087
▁Ham	-2088
▁upon	-2089
▁associ	-2090
▁pract	-2091
▁Henry	-2092
▁leading	-2093
▁appoin	-2094
nder	-2095
▁Nor	-2096
▁vill	-2097
▁almost	-2098
▁young	-2099
▁Robert	-2100
▁peak	-2101
▁damage	-2102
▁inj	-2103
ara	-2104
istic	-2105
▁scored	-2106
▁San	-2107
▁Port	-2108
▁fourth	-2109
▁inform	-2110
▁2000	-2111
osition	-2112
▁reve	-2113
▁provided	-2114
arch	-2115
▁Best	-2116
▁mer	-2117
▁Ale	-2118
▁Music	-2119
▁case	-2120
▁clos	-2121
▁engine	-2122
anch	-2123
▁goal	-2124
▁reb	-2125
▁creat	-2126
ata	-2127
▁Battle	-2128
▁accept	-2129
▁scene	-2130
▁mi	-2131
lic	-2132
board	-2133
▁human	-2134
▁Vir	-2135
▁dev	-2136
▁Star	-2137
▁brought	-2138
▁Desp	-2139
oring	-2140
ellow	-2141
uk	-2142
▁free	-2143
▁individ	-2144
unk	-2145
▁500	-2146
angu	-2147
▁187	-2148
▁featured	-2149
▁President	-2150
▁Red	-2151
▁mother	-2152
▁least	-2153
▁king	-2154
▁allowed	-2155
▁working	-2156
▁resul	-2157
▁laun	-2158
▁Cour	-2159
▁Paul	-2160
▁average	-2161
ological	-2162
▁towards	-2163
▁wanted	-2164
▁Rou	-2165
▁tradition	-2166
▁indust	-2167
▁region	-2168
▁business	-2169
▁Washington	-2170
ened	-2171
▁troops	-2172
▁placed	-2173
azine	-2174
ule	-2175
▁quick	-2176
▁either	-2177
▁respect	-2178
▁office	-2179
▁critics	-2180
▁Que	-2181
▁avail	-2182
▁ve	-2183
antic	-2184
▁reach	-2185
▁Cap	-2186
▁mult	-2187
▁example	-2188
▁Play	-2189
▁runs	-2190
▁Mil	-2191
▁profess	-2192
▁material	-2193
▁hon	-2194
▁econom	-2195
▁recogn	-2196
aut	-2197
▁wife	-2198
▁Hol	-2199
ula	-2200
iff	-2201
▁estim	-2202
earch	-2203
▁army	-2204
▁foc	-2205
▁neg	-2206
oid	-2207
chie	-2208
▁Despite	-2209
ential	-2210
▁2003	-2211
iol	-2212
▁Bel	-2213
▁sex	-2214
▁Follow	-2215
arm	-2216
rey	-2217
▁sour	-2218
▁generally	-2219
ength	-2220
▁joined	-2221
▁ce	-2222
▁mass	-2223
▁rail	-2224
▁Ag	-2225
quadron	-2226
▁Thom	-2227
▁proper	-2228
▁dou	-2229
ama	-2230
▁current	-2231
▁Angel	-2232
ica	-2233
▁Hill	-2234
ino	-2235
▁events	-2236
▁represent	-2237
▁believed	-2238
to	-2239
▁Cup	-2240
ving	-2241
ourn	-2242
▁particip	-2243
▁bill	-2244
▁ter	-2245
▁Following	-2246
▁Hall	-2247
▁fig	-2248
enes	-2249
▁Game	-2250
▁First	-2251
▁Mary	-2252
sc	-2253
uff	-2254
▁victory	-2255
▁replaced	-2256
▁35	-2257
▁Great	-2258
be	-2259
▁designed	-2260
▁mph	-2261
artment	-2262
▁rul	-2263
▁soon	-2264
▁nomin	-2265
itch	-2266
iction	-2267
▁island	-2268
▁Lou	-2269
itte	-2270
▁fund	-2271
ze	-2272
▁hours	-2273
▁European	-2274
▁employ	-2275
▁Two	-2276
ky	-2277
xic	-2278
▁president	-2279
erous	-2280
▁involved	-2281
go	-2282
oms	-2283
▁surf	-2284
▁Ke	-2285
▁Je	-2286
▁finished	-2287
▁stru	-2288
aled	-2289
ification	-2290
▁Championship	-2291
merc	-2292
▁Gro	-2293
aper	-2294
asion	-2295
▁break	-2296
west	-2297
inist	-2298
▁saying	-2299
fall	-2300
uel	-2301
oor	-2302
▁hor	-2303
▁court	-2304
▁shot	-2305
▁opening	-2306
▁threat	-2307
▁score	-2308
▁Mart	-2309
▁Roman	-2310
▁regular	-2311
ago	-2312
emor	-2313
key	-2314
▁director	-2315
▁length	-2316
▁desp	-2317
▁indic	-2318
▁conduct	-2319
▁largest	-2320
▁La	-2321
▁Scott	-2322
▁contrib	-2323
▁possible	-2324
ecutive	-2325
▁unc	-2326
▁highway	-2327
▁Route	-2328
▁minutes	-2329
▁southern	-2330
▁ill	-2331
▁Dan	-2332
▁dro	-2333
▁z	-2334
ville	-2335
BC	-2336
▁Mal	-2337
▁exc	-2338
▁highest	-2339
▁ly	-2340
▁remov	-2341
ishing	-2342
▁earlier	-2343
▁From	-2344
▁initially	-2345
▁2001	-2346
▁Don	-2347
ander	-2348
of	-2349
▁hom	-2350
▁available	-2351
▁particularly	-2352
▁percent	-2353
▁Atl	-2354
antry	-2355
anned	-2356
now	-2357
▁training	-2358
co	-2359
ude	-2360
▁sequ	-2361
leg	-2362
▁hard	-2363
▁Republic	-2364
▁Sing	-2365
cher	-2366
▁forced	-2367
▁Cro	-2368
▁exist	-2369
▁must	-2370
▁Met	-2371
inn	-2372
ply	-2373
▁grad	-2374
▁Wil	-2375
▁contr	-2376
arn	-2377
▁Charles	-2378
▁Kingdom	-2379
▁Navy	-2380
ights	-2381
▁°	-2382
▁Val	-2383
▁park	-2384
hib	-2385
iding	-2386
▁ended	-2387
▁respons	-2388
▁Mac	-2389
asy	-2390
▁quar	-2391
ography	-2392
▁turned	-2393
ateg	-2394
▁Thomas	-2395
▁social	-2396
▁International	-2397
ipp	-2398
oul	-2399
▁wall	-2400
▁Off	-2401
uture	-2402
▁studio	-2403
rian	-2404
iforn	-2405
▁change	-2406
▁langu	-2407
▁Virgin	-2408
▁passed	-2409
▁praised	-2410
ems	-2411
▁Dep	-2412
▁hy	-2413
▁McC	-2414
▁White	-2415
▁increased	-2416
▁piec	-2417
▁object	-2418
▁priv	-2419
▁But	-2420
▁hurricane	-2421
bor	-2422
▁Mag	-2423
▁educ	-2424
▁regard	-2425
▁northern	-2426
atural	-2427
▁Brown	-2428
heast	-2429
▁2002	-2430
▁Res	-2431
▁keep	-2432
▁central	-2433
▁Church	-2434
▁phys	-2435
iation	-2436
▁novel	-2437
▁Ber	-2438
▁Canada	-2439
▁relig	-2440
▁appearance	-2441
▁units	-2442
▁Californ	-2443
▁speed	-2444
sel	-2445
itor	-2446
▁super	-2447
ership	-2448
▁past	-2449
▁Pal	-2450
▁church	-2451
▁stop	-2452
▁immedi	-2453
ended	-2454
anks	-2455
ocr	-2456
▁Smith	-2457
▁Rock	-2458
▁ordered	-2459
▁meas	-2460
▁sym	-2461
▁Cam	-2462
▁treat	-2463
▁disp	-2464
▁Bay	-2465
aughter	-2466
uter	-2467
▁Sen	-2468
ios	-2469
▁taking	-2470
ference	-2471
▁Richard	-2472
ittee	-2473
▁independ	-2474
▁signed	-2475
▁love	-2476
▁move	-2477
▁quest	-2478
anding	-2479
▁California	-2480
▁Alex	-2481
▁achie	-2482
ston	-2483
ilities	-2484
▁better	-2485
▁Sam	-2486
etwork	-2487
rem	-2488
▁Union	-2489
val	-2490
aker	-2491
pped	-2492
ique	-2493
▁pers	-2494
▁Sl	-2495
▁Govern	-2496
ecess	-2497
den	-2498
arily	-2499
▁winds	-2500
▁Island	-2501
▁commerc	-2502
▁Ir	-2503
▁enough	-2504
▁positive	-2505
agon	-2506
▁inn	-2507
▁wat	-2508
apt	-2509
▁according	-2510
▁Court	-2511
▁spent	-2512
ears	-2513
▁hous	-2514
▁God	-2515
▁going	-2516
rated	-2517
rup	-2518
▁Mo	-2519
▁above	-2520
▁outside	-2521
elled	-2522
▁slow	-2523
▁ap	-2524
nel	-2525
ump	-2526
▁films	-2527
▁pot	-2528
▁feel	-2529
ume	-2530
▁told	-2531
ids	-2532
▁football	-2533
▁Vict	-2534
▁Award	-2535
▁Cong	-2536
▁previously	-2537
▁recording	-2538
▁states	-2539
▁clear	-2540
quare	-2541
▁1990	-2542
▁mean	-2543
▁Mill	-2544
▁Associ	-2545
▁nine	-2546
▁Up	-2547
uation	-2548
▁failed	-2549
▁subject	-2550
▁assist	-2551
▁come	-2552
▁Company	-2553
usion	-2554
▁required	-2555
▁pur	-2556
▁elements	-2557
▁Jos	-2558
▁prob	-2559
osing	-2560
reng	-2561
▁60	-2562
▁Germany	-2563
▁India	-2564
alion	-2565
com	-2566
▁ey	-2567
edy	-2568
▁reviews	-2569
▁interview	-2570
▁cru	-2571
▁lower	-2572
▁parts	-2573
▁Cr	-2574
▁Stud	-2575
tr	-2576
▁45	-2577
▁itself	-2578
atin	-2579
▁Art	-2580
▁think	-2581
▁Peter	-2582
▁pay	-2583
▁Christian	-2584
▁directed	-2585
ida	-2586
oph	-2587
▁Mark	-2588
▁nar	-2589
▁abs	-2590
for	-2591
▁despite	-2592
itz	-2593
▁sil	-2594
▁flow	-2595
▁cred	-2596
▁esp	-2597
▁Gold	-2598
▁contract	-2599
▁185	-2600
▁Ac	-2601
▁That	-2602
▁debut	-2603
▁?	-2604
ands	-2605
▁phot	-2606
▁Mer	-2607
▁£	-2608
▁rain	-2609
ibility	-2610
▁Times	-2611
▁NY	-2612
ready	-2613
▁access	-2614
erved	-2615
isl	-2616
▁beginning	-2617
▁groups	-2618
▁Tom	-2619
▁College	-2620
oke	-2621
het	-2622
▁viol	-2623
nes	-2624
▁section	-2625
▁beg	-2626
▁UK	-2627
▁whose	-2628
onna	-2629
▁Sov	-2630
asons	-2631
▁claimed	-2632
hester	-2633
ows	-2634
▁asked	-2635
▁Cast	-2636
▁Western	-2637
▁international	-2638
▁lines	-2639
▁transfer	-2640
bers	-2641
▁Pat	-2642
▁rap	-2643
▁cou	-2644
▁streng	-2645
▁give	-2646
▁Soviet	-2647
▁screen	-2648
onse	-2649
airs	-2650
rief	-2651
▁additional	-2652
aint	-2653
▁future	-2654
ability	-2655
▁league	-2656
▁key	-2657
▁whom	-2658
▁Mexic	-2659
▁Frank	-2660
▁poor	-2661
▁Span	-2662
ma	-2663
▁gold	-2664
▁Film	-2665
berg	-2666
▁Awards	-2667
acted	-2668
▁introduced	-2669
▁travel	-2670
▁bi	-2671
▁fort	-2672
▁che	-2673
▁evidence	-2674
▁op	-2675
lying	-2676
▁prem	-2677
▁sea	-2678
▁idea	-2679
▁quickly	-2680
ki	-2681
▁don	-2682
▁Grand	-2683
igan	-2684
▁Dem	-2685
▁already	-2686
van	-2687
▁center	-2688
▁bridge	-2689
▁Do	-2690
▁frequ	-2691
▁Force	-2692
onst	-2693
▁election	-2694
▁product	-2695
▁Most	-2696
▁occup	-2697
▁Ben	-2698
▁Soc	-2699
▁1970	-2700
▁except	-2701
▁deal	-2702
atory	-2703
usp	-2704
ecially	-2705
▁pil	-2706
▁Coun	-2707
▁usually	-2708
▁arrived	-2709
▁musical	-2710
▁1980	-2711
▁western	-2712
anded	-2713
eum	-2714
irth	-2715
▁pen	-2716
▁radio	-2717
mar	-2718
▁Britain	-2719
▁block	-2720
▁32	-2721
▁cal	-2722
liam	-2723
▁civil	-2724
ergy	-2725
aring	-2726
eal	-2727
ully	-2728
▁female	-2729
▁sometimes	-2730
ex	-2731
▁study	-2732
▁Rob	-2733
▁cycl	-2734
▁response	-2735
back	-2736
▁food	-2737
▁money	-2738
▁decision	-2739
▁magazine	-2740
▁especially	-2741
▁Day	-2742
▁issue	-2743
ship	-2744
▁Later	-2745
▁env	-2746
liament	-2747
▁Over	-2748
▁Pac	-2749
▁Hot	-2750
▁Victor	-2751
▁surface	-2752
ites	-2753
▁flood	-2754
▁might	-2755
▁lab	-2756
▁liter	-2757
▁carried	-2758
▁shows	-2759
▁guitar	-2760
▁Chic	-2761
▁community	-2762
▁estimated	-2763
bour	-2764
▁construct	-2765
▁remain	-2766
unt	-2767
▁remaining	-2768
▁eastern	-2769
▁1999	-2770
▁minor	-2771
▁defeated	-2772
▁determ	-2773
▁Virginia	-2774
▁Early	-2775
▁approx	-2776
▁larger	-2777
eck	-2778
inent	-2779
▁becoming	-2780
ession	-2781
aries	-2782
▁complete	-2783
▁Mount	-2784
▁police	-2785
▁wood	-2786
▁suggested	-2787
porary	-2788
▁media	-2789
▁pressure	-2790
▁entered	-2791
▁shoot	-2792
▁Bur	-2793
▁Franc	-2794
▁teams	-2795
▁Im	-2796
▁commercial	-2797
▁latter	-2798
▁lyric	-2799
▁market	-2800
▁Los	-2801
▁consider	-2802
▁students	-2803
▁doc	-2804
▁Just	-2805
▁surround	-2806
ift	-2807
▁investig	-2808
erve	-2809
ss	-2810
▁brief	-2811
asc	-2812
▁concern	-2813
▁36	-2814
▁personal	-2815
▁Second	-2816
▁80	-2817
▁lo	-2818
▁certain	-2819
ulf	-2820
▁discuss	-2821
▁prison	-2822
▁Tex	-2823
▁If	-2824
ena	-2825
▁acqu	-2826
inct	-2827
▁Inf	-2828
▁effects	-2829
▁Jackson	-2830
▁complet	-2831
▁appointed	-2832
▁bur	-2833
▁episodes	-2834
▁summer	-2835
▁hop	-2836
ederal	-2837
▁prior	-2838
alled	-2839
gen	-2840
acing	-2841
incip	-2842
▁Fle	-2843
change	-2844
▁der	-2845
▁staff	-2846
enth	-2847
▁size	-2848
▁emer	-2849
▁changes	-2850
ises	-2851
▁Louis	-2852
▁Flor	-2853
▁commission	-2854
▁sat	-2855
▁winning	-2856
▁Oly	-2857
▁limited	-2858
▁tar	-2859
▁scenes	-2860
imate	-2861
▁fleet	-2862
▁leaving	-2863
▁destroyed	-2864
▁Olymp	-2865
▁river	-2866
ulated	-2867
▁draw	-2868
▁Club	-2869
NA	-2870
▁Spanish	-2871
▁self	-2872
▁den	-2873
▁rights	-2874
▁provide	-2875
▁writer	-2876
ournal	-2877
igade	-2878
▁type	-2879
idents	-2880
▁polic	-2881
▁fail	-2882
ires	-2883
▁date	-2884
vey	-2885
han	-2886
▁territ	-2887
▁proposed	-2888
ension	-2889
▁influence	-2890
▁trib	-2891
▁girl	-2892
▁Party	-2893
▁75	-2894
▁overall	-2895
▁arrang	-2896
▁transport	-2897
ests	-2898
▁1960	-2899
▁structure	-2900
▁184	-2901
ties	-2902
▁tax	-2903
iser	-2904
▁equip	-2905
su	-2906
▁contro	-2907
▁division	-2908
▁kil	-2909
sy	-2910
▁script	-2911
▁Green	-2912
inese	-2913
▁300	-2914
▁Association	-2915
▁agreed	-2916
▁room	-2917
▁intended	-2918
iral	-2919
ores	-2920
▁Edward	-2921
▁running	-2922
▁anti	-2923
▁jud	-2924
▁Chicago	-2925
▁bow	-2926
▁daughter	-2927
yr	-2928
▁broadcast	-2929
▁nearly	-2930
▁purch	-2931
▁supported	-2932
ending	-2933
▁big	-2934
▁research	-2935
▁Many	-2936
▁Pri	-2937
▁deep	-2938
▁wide	-2939
▁establish	-2940
▁Adm	-2941
▁helped	-2942
imum	-2943
atives	-2944
▁married	-2945
▁movement	-2946
▁1998	-2947
▁awarded	-2948
▁Chinese	-2949
tt	-2950
II	-2951
aded	-2952
▁Du	-2953
▁Council	-2954
▁lay	-2955
▁multip	-2956
▁Song	-2957
AF	-2958
▁Oper	-2959
▁create	-2960
▁favor	-2961
▁display	-2962
▁intens	-2963
atively	-2964
lo	-2965
▁di	-2966
▁bird	-2967
▁dark	-2968
▁Enter	-2969
que	-2970
▁susp	-2971
rd	-2972
▁diss	-2973
▁stars	-2974
pris	-2975
teen	-2976
ga	-2977
▁longer	-2978
iles	-2979
▁Cont	-2980
▁language	-2981
▁Ev	-2982
▁higher	-2983
sen	-2984
▁planned	-2985
▁compared	-2986
▁captured	-2987
▁increasing	-2988
dle	-2989
▁fans	-2990
▁Ro	-2991
▁stay	-2992
ha	-2993
▁course	-2994
▁conclud	-2995
▁changed	-2996
selves	-2997
▁experience	-2998
▁Johnson	-2999
▁approximately	-3000
▁Serv	-3001
▁related	-3002
▁done	-3003
▁feature	-3004
▁fifth	-3005
▁cat	-3006
▁living	-3007
▁themselves	-3008
omer	-3009
▁Emp	-3010
ounds	-3011
ronic	-3012
▁producer	-3013
▁History	-3014
enty	-3015
▁Kore	-3016
tained	-3017
▁Ital	-3018
▁temper	-3019
▁tracks	-3020
▁mostly	-3021
▁space	-3022
▁Pacific	-3023
▁Lit	-3024
▁withd	-3025
isions	-3026
abit	-3027
burg	-3028
▁Billboard	-3029
▁thus	-3030
▁70	-3031
▁-	-3032
▁33	-3033
▁woman	-3034
▁operations	-3035
▁remains	-3036
▁dead	-3037
▁Back	-3038
▁paren	-3039
▁bring	-3040
▁quarter	-3041
▁our	-3042
▁natural	-3043
▁Super	-3044
▁whether	-3045
▁Not	-3046
olic	-3047
thing	-3048
umn	-3049
▁Bet	-3050
▁imm	-3051
▁weap	-3052
▁probably	-3053
▁soldiers	-3054
▁Final	-3055
▁dram	-3056
▁concept	-3057
andon	-3058
▁Sal	-3059
▁copies	-3060
▁App	-3061
▁Scot	-3062
imin	-3063
▁ult	-3064
▁buildings	-3065
▁leader	-3066
▁syn	-3067
▁extended	-3068
▁1997	-3069
▁Since	-3070
▁voice	-3071
▁Inter	-3072
▁lyrics	-3073
▁face	-3074
▁Atlantic	-3075
▁forward	-3076
can	-3077
▁depart	-3078
▁boy	-3079
▁complex	-3080
oint	-3081
▁board	-3082
▁Mont	-3083
▁react	-3084
▁issued	-3085
▁battles	-3086
▁chall	-3087
riage	-3088
iant	-3089
▁really	-3090
▁countries	-3091
▁heav	-3092
vin	-3093
iring	-3094
▁suffered	-3095
ospital	-3096
▁Congress	-3097
▁cm	-3098
▁Lake	-3099
▁Love	-3100
▁goals	-3101
▁includes	-3102
▁Florida	-3103
▁Sever	-3104
▁immediately	-3105
raz	-3106
▁Kn	-3107
▁attend	-3108
▁Sun	-3109
ams	-3110
▁Both	-3111
▁Fort	-3112
▁deg	-3113
▁breed	-3114
▁mixed	-3115
▁manager	-3116
▁private	-3117
▁capital	-3118
▁officers	-3119
che	-3120
▁likely	-3121
▁Jew	-3122
▁Jim	-3123
hood	-3124
▁emb	-3125
▁37	-3126
▁cann	-3127
▁Big	-3128
▁distrib	-3129
lebr	-3130
▁Queen	-3131
▁Old	-3132
▁removed	-3133
▁Texas	-3134
▁initial	-3135
▁increase	-3136
▁plant	-3137
▁mach	-3138
▁Sea	-3139
venue	-3140
▁health	-3141
▁subsequently	-3142
▁leave	-3143
▁plans	-3144
▁always	-3145
ibr	-3146
uz	-3147
▁focus	-3148
▁Town	-3149
▁services	-3150
▁network	-3151
▁status	-3152
▁coin	-3153
hold	-3154
▁via	-3155
ections	-3156
▁compan	-3157
▁location	-3158
▁visit	-3159
▁China	-3160
▁Dist	-3161
▁mount	-3162
bury	-3163
▁Another	-3164
▁Law	-3165
urt	-3166
▁problems	-3167
▁Mr	-3168
order	-3169
▁Lord	-3170
rial	-3171
▁offered	-3172
▁instr	-3173
▁flag	-3174
▁Earth	-3175
▁terms	-3176
▁model	-3177
▁How	-3178
▁norm	-3179
uth	-3180
▁approach	-3181
aily	-3182
▁colon	-3183
ny	-3184
▁village	-3185
▁something	-3186
▁administ	-3187
▁tons	-3188
▁carry	-3189
ounted	-3190
stant	-3191
ging	-3192
▁fell	-3193
▁mur	-3194
▁Camp	-3195
▁majority	-3196
ironment	-3197
ria	-3198
▁tow	-3199
▁professional	-3200
▁Canadian	-3201
▁183	-3202
orning	-3203
ctor	-3204
ili	-3205
▁Trans	-3206
ously	-3207
▁Tor	-3208
▁Boy	-3209
amer	-3210
▁Its	-3211
adium	-3212
▁tor	-3213
▁Rail	-3214
▁Africa	-3215
ari	-3216
▁got	-3217
ograph	-3218
▁cause	-3219
ills	-3220
▁consist	-3221
uries	-3222
▁damaged	-3223
▁inters	-3224
▁meeting	-3225
▁Wood	-3226
well	-3227
▁Tour	-3228
▁appears	-3229
▁job	-3230
▁confir	-3231
▁counter	-3232
▁minute	-3233
▁adop	-3234
aches	-3235
etic	-3236
▁Step	-3237
▁Pet	-3238
▁ranked	-3239
▁ran	-3240
▁composed	-3241
▁individual	-3242
▁Center	-3243
▁Squadron	-3244
▁revealed	-3245
▁Highway	-3246
▁meth	-3247
▁attacks	-3248
▁flight	-3249
▁Russian	-3250
itect	-3251
cean	-3252
▁sch	-3253
reater	-3254
▁plot	-3255
▁raised	-3256
▁discovered	-3257
▁Tur	-3258
ware	-3259
▁respectively	-3260
▁financ	-3261
ys	-3262
▁makes	-3263
umed	-3264
▁Mur	-3265
ify	-3266
▁Carol	-3267
ij	-3268
▁numerous	-3269
▁Central	-3270
▁Kent	-3271
▁1995	-3272
▁Sir	-3273
▁Martin	-3274
▁associated	-3275
ien	-3276
oes	-3277
▁takes	-3278
▁Angeles	-3279
▁altern	-3280
▁III	-3281
▁Ol	-3282
reak	-3283
▁inspired	-3284
▁needed	-3285
▁domin	-3286
aging	-3287
mon	-3288
▁lived	-3289
▁90	-3290
▁Ant	-3291
▁launched	-3292
▁yet	-3293
▁anc	-3294
▁nature	-3295
ription	-3296
olk	-3297
▁occurred	-3298
▁Bow	-3299
▁contains	-3300
▁vehic	-3301
fact	-3302
▁coach	-3303
▁shown	-3304
▁cand	-3305
▁bene	-3306
▁pow	-3307
estival	-3308
▁attempted	-3309
▁attacked	-3310
ails	-3311
▁moving	-3312
uments	-3313
▁conditions	-3314
▁upper	-3315
uals	-3316
▁DV	-3317
ault	-3318
▁amb	-3319
▁sales	-3320
▁dig	-3321
▁accomp	-3322
ective	-3323
▁Group	-3324
▁Year	-3325
▁collect	-3326
▁2016	-3327
joy	-3328
▁TV	-3329
▁issues	-3330
▁Miss	-3331
▁1996	-3332
▁Rh	-3333
aught	-3334
▁birth	-3335
▁34	-3336
down	-3337
▁1950	-3338
gely	-3339
itt	-3340
▁whole	-3341
▁information	-3342
▁exam	-3343
▁Str	-3344
de	-3345
▁slight	-3346
▁yards	-3347
▁Empire	-3348
▁Rad	-3349
arian	-3350
▁Mel	-3351
▁referred	-3352
▁38	-3353
▁box	-3354
urity	-3355
lor	-3356
▁critical	-3357
▁mom	-3358
uing	-3359
▁numbers	-3360
▁finally	-3361
▁incor	-3362
▁smaller	-3363
▁elected	-3364
▁selected	-3365
▁resulted	-3366
▁defeat	-3367
reme	-3368
▁Rev	-3369
▁scient	-3370
▁grant	-3371
▁portray	-3372
▁active	-3373
▁qual	-3374
▁singer	-3375
▁sen	-3376
vert	-3377
▁Des	-3378
▁bad	-3379
▁princip	-3380
win	-3381
▁Out	-3382
▁standard	-3383
imb	-3384
ste	-3385
▁celebr	-3386
▁secret	-3387
▁mission	-3388
▁industry	-3389
▁sal	-3390
uated	-3391
▁1994	-3392
▁Italian	-3393
iest	-3394
▁largely	-3395
▁grand	-3396
▁Penn	-3397
▁operation	-3398
▁Under	-3399
▁pit	-3400
enant	-3401
itation	-3402
▁assigned	-3403
▁link	-3404
ortun	-3405
▁cer	-3406
▁ens	-3407
eph	-3408
▁earned	-3409
▁analy	-3410
▁saf	-3411
▁legisl	-3412
▁Del	-3413
▁commented	-3414
▁thr	-3415
▁ang	-3416
▁expected	-3417
▁male	-3418
▁prec	-3419
amb	-3420
▁Corps	-3421
itude	-3422
▁roy	-3423
▁DVD	-3424
▁audience	-3425
▁listed	-3426
▁i	-3427
▁covered	-3428
ken	-3429
▁artic	-3430
izing	-3431
▁unable	-3432
▁Crit	-3433
▁purp	-3434
▁sched	-3435
▁traditional	-3436
oe	-3437
▁Ter	-3438
▁education	-3439
▁trade	-3440
irection	-3441
▁friends	-3442
▁artist	-3443
▁double	-3444
▁newsp	-3445
▁heart	-3446
▁refused	-3447
▁closed	-3448
▁sem	-3449
▁underst	-3450
▁Viet	-3451
▁Gar	-3452
▁attention	-3453
▁recover	-3454
▁primary	-3455
▁method	-3456
ounts	-3457
▁request	-3458
use	-3459
▁sister	-3460
▁prevent	-3461
aine	-3462
▁kind	-3463
▁talk	-3464
▁Michigan	-3465
ogue	-3466
▁reason	-3467
onic	-3468
ighter	-3469
▁letter	-3470
▁officer	-3471
▁below	-3472
anced	-3473
▁contem	-3474
▁1940	-3475
▁Dis	-3476
▁enjoy	-3477
▁Wales	-3478
▁ability	-3479
▁depression	-3480
▁meant	-3481
kin	-3482
▁declared	-3483
▁performances	-3484
▁plat	-3485
hips	-3486
ider	-3487
ples	-3488
▁walk	-3489
oly	-3490
▁giving	-3491
▁Nort	-3492
undred	-3493
▁word	-3494
▁fighting	-3495
▁blood	-3496
▁commander	-3497
▁religious	-3498
▁More	-3499
▁180	-3500
▁books	-3501
▁compl	-3502
oud	-3503
▁Mass	-3504
▁theat	-3505
tered	-3506
▁middle	-3507
isher	-3508
▁Cath	-3509
▁sett	-3510
▁rate	-3511
▁max	-3512
▁hot	-3513
▁records	-3514
▁49	-3515
iled	-3516
▁matches	-3517
▁names	-3518
▁Democr	-3519
▁constit	-3520
▁Acad	-3521
▁produce	-3522
▁question	-3523
aped	-3524
▁Bec	-3525
▁Test	-3526
▁competition	-3527
antasy	-3528
▁serious	-3529
▁Cle	-3530
▁Care	-3531
▁Pre	-3532
▁centre	-3533
▁unit	-3534
▁Ox	-3535
▁Team	-3536
▁vocals	-3537
▁disapp	-3538
▁Minister	-3539
bridge	-3540
▁Several	-3541
odies	-3542
▁mention	-3543
▁Zeal	-3544
utch	-3545
▁1992	-3546
iences	-3547
▁account	-3548
ounded	-3549
▁touch	-3550
▁Major	-3551
▁abandon	-3552
▁Long	-3553
▁rapid	-3554
icted	-3555
▁energy	-3556
ady	-3557
shire	-3558
▁necess	-3559
▁Arch	-3560
rug	-3561
ector	-3562
road	-3563
▁Midd	-3564
▁kilomet	-3565
icient	-3566
quar	-3567
▁dra	-3568
ervation	-3569
▁constructed	-3570
ims	-3571
▁traff	-3572
▁Kenn	-3573
▁Er	-3574
▁Lu	-3575
▁dut	-3576
▁vir	-3577
ening	-3578
▁Cons	-3579
▁theme	-3580
▁Bu	-3581
▁Fore	-3582
▁ris	-3583
▁mor	-3584
ona	-3585
echan	-3586
▁Wal	-3587
▁royal	-3588
▁41	-3589
▁nearby	-3590
▁highly	-3591
ishop	-3592
▁pick	-3593
▁Zealand	-3594
▁Time	-3595
▁separate	-3596
▁train	-3597
oses	-3598
▁har	-3599
▁continue	-3600
▁chief	-3601
▁Fox	-3602
▁effort	-3603
▁presented	-3604
ares	-3605
▁combat	-3606
edic	-3607
rier	-3608
▁prep	-3609
▁drum	-3610
▁positions	-3611
▁Mexico	-3612
▁reduced	-3613
▁annual	-3614
▁African	-3615
▁controvers	-3616
▁cas	-3617
▁Four	-3618
▁directly	-3619
ansion	-3620
▁Chris	-3621
ieut	-3622
▁1930	-3623
▁levels	-3624
▁means	-3625
ibly	-3626
▁tur	-3627
▁400	-3628
▁notes	-3629
▁attended	-3630
▁neigh	-3631
▁tried	-3632
▁practice	-3633
▁sevent	-3634
▁forest	-3635
▁compos	-3636
▁Matt	-3637
▁cle	-3638
emorial	-3639
ether	-3640
▁Haw	-3641
▁edition	-3642
▁Sum	-3643
ining	-3644
▁twenty	-3645
▁fast	-3646
▁accepted	-3647
▁nuc	-3648
▁1993	-3649
▁Madonna	-3650
vement	-3651
▁stating	-3652
ette	-3653
▁Chart	-3654
▁1991	-3655
▁metal	-3656
▁Wall	-3657
▁architect	-3658
oper	-3659
▁watch	-3660
▁So	-3661
▁movie	-3662
▁text	-3663
▁repe	-3664
▁candid	-3665
cel	-3666
rical	-3667
anes	-3668
▁Scotland	-3669
▁concert	-3670
▁advance	-3671
stitute	-3672
▁Bob	-3673
track	-3674
▁Jones	-3675
acher	-3676
osen	-3677
▁pair	-3678
▁179	-3679
▁direction	-3680
ado	-3681
▁rein	-3682
▁seem	-3683
▁Their	-3684
▁schools	-3685
ersey	-3686
▁legal	-3687
▁55	-3688
▁dism	-3689
▁reject	-3690
ping	-3691
▁rare	-3692
lict	-3693
aver	-3694
▁+	-3695
▁marriage	-3696
▁thick	-3697
wide	-3698
▁Department	-3699
▁oil	-3700
▁Greek	-3701
▁horse	-3702
illery	-3703
eway	-3704
▁recomm	-3705
▁efforts	-3706
▁managed	-3707
▁asp	-3708
▁Manc	-3709
▁Dar	-3710
▁college	-3711
sis	-3712
oo	-3713
▁purs	-3714
icip	-3715
▁resulting	-3716
▁ending	-3717
▁Cross	-3718
▁avoid	-3719
ieutenant	-3720
▁wing	-3721
utions	-3722
▁showed	-3723
▁Sar	-3724
▁Three	-3725
▁dropped	-3726
▁responsible	-3727
▁Infantry	-3728
▁Tre	-3729
▁inside	-3730
▁nation	-3731
inem	-3732
▁kept	-3733
▁cases	-3734
▁environment	-3735
band	-3736
light	-3737
irit	-3738
▁182	-3739
▁cust	-3740
▁culture	-3741
▁Ann	-3742
▁Foot	-3743
▁meaning	-3744
▁Bost	-3745
▁Arab	-3746
▁cyclone	-3747
▁Dou	-3748
awn	-3749
house	-3750
▁begins	-3751
▁incorpor	-3752
▁Hel	-3753
▁variety	-3754
illed	-3755
▁morning	-3756
▁rat	-3757
ceeded	-3758
▁39	-3759
▁houses	-3760
uit	-3761
▁cerem	-3762
▁forms	-3763
isation	-3764
▁dom	-3765
▁championship	-3766
▁Service	-3767
▁words	-3768
▁Leg	-3769
▁Post	-3770
▁Creek	-3771
peror	-3772
▁arrest	-3773
▁ge	-3774
like	-3775
▁Stone	-3776
▁Williams	-3777
▁schol	-3778
▁Records	-3779
▁inches	-3780
▁marked	-3781
▁Hung	-3782
▁Secret	-3783
▁continues	-3784
▁yard	-3785
▁181	-3786
▁science	-3787
▁48	-3788
MS	-3789
▁symb	-3790
▁perm	-3791
cend	-3792
▁uses	-3793
▁Parliament	-3794
▁economic	-3795
▁bank	-3796
▁Go	-3797
ecting	-3798
▁source	-3799
▁BC	-3800
▁spl	-3801
gypt	-3802
▁42	-3803
▁News	-3804
▁Games	-3805
▁quality	-3806
ka	-3807
iated	-3808
▁defend	-3809
writ	-3810
olf	-3811
thel	-3812
▁lear	-3813
▁hundred	-3814
▁settle	-3815
▁Stan	-3816
ulations	-3817
▁conducted	-3818
▁Arm	-3819
▁starting	-3820
▁Mic	-3821
▁impact	-3822
▁Sur	-3823
▁your	-3824
cle	-3825
▁strugg	-3826
▁specific	-3827
▁allowing	-3828
thur	-3829
▁Egypt	-3830
▁Society	-3831
▁Fin	-3832
▁1942	-3833
▁presence	-3834
▁ple	-3835
▁Book	-3836
bed	-3837
▁beat	-3838
▁amount	-3839
▁viewers	-3840
▁du	-3841
ait	-3842
▁sides	-3843
▁metres	-3844
aph	-3845
▁dance	-3846
wh	-3847
▁chap	-3848
▁rule	-3849
▁exhib	-3850
▁suppl	-3851
▁Prince	-3852
▁univers	-3853
▁Southern	-3854
▁Stephen	-3855
▁distinct	-3856
▁multiple	-3857
▁transferred	-3858
▁potential	-3859
▁raid	-3860
▁Committee	-3861
▁foreign	-3862
een	-3863
▁Oxford	-3864
▁contrast	-3865
▁Win	-3866
▁peaked	-3867
▁Latin	-3868
▁Oh	-3869
ols	-3870
irm	-3871
▁enemy	-3872
ingu	-3873
▁Jer	-3874
▁captain	-3875
▁becomes	-3876
▁traffic	-3877
itiz	-3878
arent	-3879
▁owned	-3880
▁Tri	-3881
▁founded	-3882
▁greater	-3883
▁things	-3884
▁mess	-3885
▁Like	-3886
▁Georg	-3887
▁Admiral	-3888
▁vocal	-3889
▁portion	-3890
▁Spec	-3891
▁concluded	-3892
gl	-3893
▁65	-3894
▁castle	-3895
▁Joseph	-3896
▁scoring	-3897
▁property	-3898
▁respond	-3899
▁stories	-3900
sych	-3901
▁encoun	-3902
▁Boston	-3903
▁attempts	-3904
▁opt	-3905
▁relatively	-3906
▁Manchester	-3907
▁Chief	-3908
▁Sat	-3909
▁primarily	-3910
iance	-3911
▁demonst	-3912
▁Harrison	-3913
inet	-3914
▁federal	-3915
▁financial	-3916
▁Because	-3917
▁Before	-3918
▁Hal	-3919
▁Jeff	-3920
▁actually	-3921
▁animals	-3922
▁Brad	-3923
▁Captain	-3924
▁Class	-3925
ressive	-3926
▁Hurricane	-3927
▁observed	-3928
▁Swed	-3929
▁collection	-3930
fect	-3931
▁Sol	-3932
ellig	-3933
▁opportun	-3934
▁titled	-3935
▁Vietn	-3936
▁tourn	-3937
▁featuring	-3938
▁47	-3939
▁Kh	-3940
▁lif	-3941
▁Form	-3942
▁writers	-3943
ita	-3944
istics	-3945
▁write	-3946
kn	-3947
▁1944	-3948
aud	-3949
▁journal	-3950
▁strength	-3951
▁Sil	-3952
▁weaken	-3953
▁inch	-3954
▁wor	-3955
▁Bridge	-3956
ours	-3957
▁Ever	-3958
▁distance	-3959
▁paid	-3960
▁spot	-3961
▁premi	-3962
▁mechan	-3963
▁situation	-3964
▁Tw	-3965
▁parents	-3966
▁Commission	-3967
▁Battalion	-3968
▁independent	-3969
▁figure	-3970
umber	-3971
▁Ott	-3972
▁share	-3973
▁acting	-3974
▁companies	-3975
right	-3976
▁Def	-3977
▁divided	-3978
▁actor	-3979
eds	-3980
▁Fred	-3981
▁onto	-3982
▁Little	-3983
▁Tim	-3984
▁Paris	-3985
ani	-3986
▁collabor	-3987
▁Den	-3988
▁Produ	-3989
▁slightly	-3990
▁mind	-3991
▁target	-3992
▁piece	-3993
▁Series	-3994
▁Life	-3995
▁function	-3996
▁52	-3997
▁selling	-3998
▁46	-3999
perial	-4000
▁Columb	-4001
▁reform	-4002
▁64	-4003
▁powerful	-4004
▁Bat	-4005
ricket	-4006
▁innings	-4007
▁concent	-4008
▁Carl	-4009
▁rating	-4010
▁torped	-4011
▁Entertain	-4012
thlet	-4013
▁lot	-4014
▁plays	-4015
▁broke	-4016
▁rough	-4017
▁today	-4018
▁BBC	-4019
▁era	-4020
ils	-4021
▁Ver	-4022
▁Youn	-4023
chest	-4024
▁actions	-4025
istry	-4026
▁Croat	-4027
▁waters	-4028
oration	-4029
▁mel	-4030
▁ultimately	-4031
▁cho	-4032
▁trial	-4033
▁square	-4034
▁maximum	-4035
▁dise	-4036
▁Luc	-4037
▁43	-4038
udd	-4039
▁Histor	-4040
uge	-4041
ada	-4042
▁pilot	-4043
▁tend	-4044
▁bound	-4045
annel	-4046
▁Academy	-4047
▁completely	-4048
astic	-4049
▁Max	-4050
▁sought	-4051
acts	-4052
rown	-4053
▁interp	-4054
▁1920	-4055
▁1945	-4056
rel	-4057
▁policy	-4058
▁scale	-4059
sw	-4060
anna	-4061
▁Mod	-4062
▁blue	-4063
▁Pan	-4064
▁society	-4065
force	-4066
▁mainly	-4067
lam	-4068
▁44	-4069
▁behav	-4070
▁Museum	-4071
▁log	-4072
▁Saint	-4073
▁Line	-4074
rupt	-4075
▁1941	-4076
▁designated	-4077
▁ess	-4078
▁hus	-4079
load	-4080
mas	-4081
▁officials	-4082
▁struck	-4083
▁conver	-4084
mond	-4085
▁activity	-4086
▁combined	-4087
▁influenced	-4088
ux	-4089
▁transl	-4090
olved	-4091
▁wear	-4092
cers	-4093
▁search	-4094
stein	-4095
ylvan	-4096
▁Italy	-4097
▁Entertainment	-4098
▁150	-4099
▁vess	-4100
▁Pop	-4101
while	-4102
▁thir	-4103
▁calling	-4104
▁thous	-4105
▁gar	-4106
ees	-4107
▁alongside	-4108
▁Way	-4109
▁northeast	-4110
▁seconds	-4111
▁batter	-4112
under	-4113
▁Brigade	-4114
▁sout	-4115
▁Americans	-4116
▁corn	-4117
▁sources	-4118
▁winter	-4119
orses	-4120
▁background	-4121
itan	-4122
▁Lee	-4123
▁webs	-4124
alle	-4125
▁Ire	-4126
▁seg	-4127
aga	-4128
▁Hor	-4129
▁recent	-4130
▁theory	-4131
mark	-4132
▁suc	-4133
▁ice	-4134
▁gained	-4135
▁nominated	-4136
rative	-4137
▁electric	-4138
▁crow	-4139
▁Gre	-4140
▁platform	-4141
▁artists	-4142
▁Conf	-4143
▁problem	-4144
▁Van	-4145
▁mem	-4146
▁Regiment	-4147
iano	-4148
▁encour	-4149
▁Tod	-4150
▁widely	-4151
▁Wind	-4152
▁naval	-4153
▁systems	-4154
▁promoted	-4155
quarters	-4156
aven	-4157
▁confirmed	-4158
ini	-4159
▁news	-4160
▁reaching	-4161
ya	-4162
▁Ireland	-4163
▁proved	-4164
▁results	-4165
▁Avenue	-4166
illa	-4167
osaur	-4168
HL	-4169
ibrary	-4170
▁passing	-4171
▁albums	-4172
rate	-4173
▁Fleet	-4174
▁explained	-4175
▁greatest	-4176
adel	-4177
▁conflict	-4178
▁subsequent	-4179
▁Add	-4180
▁invasion	-4181
ota	-4182
▁wick	-4183
▁content	-4184
▁1989	-4185
▁charge	-4186
▁coming	-4187
▁sixth	-4188
▁peace	-4189
▁resist	-4190
▁hero	-4191
▁northwest	-4192
▁county	-4193
ube	-4194
▁shortly	-4195
▁1943	-4196
▁weather	-4197
▁Good	-4198
▁versions	-4199
▁adj	-4200
▁serve	-4201
▁causing	-4202
oured	-4203
▁says	-4204
▁sust	-4205
▁Orig	-4206
pe	-4207
hew	-4208
▁expressed	-4209
▁path	-4210
▁reception	-4211
▁Ell	-4212
▁Victoria	-4213
tation	-4214
▁ir	-4215
▁seek	-4216
▁burn	-4217
▁Ray	-4218
iced	-4219
itness	-4220
▁residents	-4221
▁Catholic	-4222
▁emot	-4223
▁border	-4224
▁Bus	-4225
▁Tropical	-4226
▁soundtrack	-4227
TV	-4228
▁cities	-4229
▁sn	-4230
▁Charl	-4231
▁Valley	-4232
▁seasons	-4233
▁appearances	-4234
aling	-4235
▁favour	-4236
▁sense	-4237
omy	-4238
ategory	-4239
▁Norm	-4240
▁Ty	-4241
onn	-4242
▁Work	-4243
▁Alb	-4244
▁sexual	-4245
▁require	-4246
▁51	-4247
▁chem	-4248
▁Nin	-4249
town	-4250
▁hospital	-4251
▁green	-4252
▁identified	-4253
▁physical	-4254
▁Sant	-4255
▁older	-4256
▁Light	-4257
ips	-4258
ancy	-4259
▁Aut	-4260
▁hands	-4261
▁Though	-4262
ih	-4263
▁true	-4264
▁offer	-4265
▁tells	-4266
▁document	-4267
▁Live	-4268
▁dedic	-4269
bit	-4270
▁kg	-4271
ighth	-4272
▁Middle	-4273
▁iron	-4274
▁artillery	-4275
▁represented	-4276
▁Commun	-4277
bon	-4278
▁weapons	-4279
▁Liber	-4280
▁ahead	-4281
▁Through	-4282
▁Football	-4283
arden	-4284
▁pun	-4285
unction	-4286
eption	-4287
ym	-4288
▁Show	-4289
▁Dev	-4290
▁negot	-4291
▁gas	-4292
ylvania	-4293
▁heavily	-4294
▁Upon	-4295
▁eas	-4296
ero	-4297
za	-4298
▁Far	-4299
▁supp	-4300
▁Lo	-4301
abeth	-4302
▁Dutch	-4303
AS	-4304
▁defense	-4305
itable	-4306
▁student	-4307
▁image	-4308
▁spread	-4309
▁alone	-4310
▁apparent	-4311
▁studies	-4312
▁officially	-4313
▁Direct	-4314
▁Week	-4315
▁Jul	-4316
▁Ma	-4317
▁husband	-4318
known	-4319
▁district	-4320
▁executive	-4321
▁Bey	-4322
▁Tay	-4323
▁Young	-4324
▁Sub	-4325
▁farm	-4326
▁Eliz	-4327
▁instit	-4328
essions	-4329
▁debuted	-4330
▁Dun	-4331
▁Albert	-4332
▁Top	-4333
▁prominent	-4334
▁capture	-4335
▁consisted	-4336
▁injury	-4337
▁send	-4338
▁pack	-4339
▁wild	-4340
▁equipment	-4341
▁organization	-4342
▁fired	-4343
▁bit	-4344
▁pattern	-4345
▁argued	-4346
▁stone	-4347
▁aired	-4348
▁resc	-4349
▁figures	-4350
▁prepar	-4351
AA	-4352
▁instrument	-4353
▁surpris	-4354
▁exped	-4355
▁growth	-4356
▁Ill	-4357
▁couple	-4358
acity	-4359
▁doing	-4360
▁returning	-4361
▁Civil	-4362
▁Homer	-4363
▁hun	-4364
▁Bond	-4365
▁Ry	-4366
pool	-4367
▁contemporary	-4368
▁Kr	-4369
ockey	-4370
▁pict	-4371
▁Vol	-4372
▁poet	-4373
▁Rog	-4374
▁ring	-4375
ushed	-4376
▁pal	-4377
▁weight	-4378
▁cert	-4379
▁Men	-4380
urban	-4381
▁Av	-4382
▁drug	-4383
▁laid	-4384
▁leaders	-4385
▁doub	-4386
▁affected	-4387
▁Northern	-4388
▁pieces	-4389
▁matter	-4390
▁Di	-4391
▁floor	-4392
▁magn	-4393
▁habit	-4394
lines	-4395
bur	-4396
lers	-4397
▁Ram	-4398
▁step	-4399
▁eth	-4400
▁propos	-4401
▁maintained	-4402
▁Fre	-4403
resp	-4404
▁earth	-4405
▁visited	-4406
▁occasion	-4407
▁tun	-4408
appen	-4409
▁rang	-4410
▁Mat	-4411
▁here	-4412
▁comes	-4413
▁speech	-4414
▁shell	-4415
▁communic	-4416
▁Daniel	-4417
▁crowd	-4418
▁criticized	-4419
▁Dam	-4420
▁600	-4421
▁Storm	-4422
ports	-4423
▁activities	-4424
▁termin	-4425
▁stra	-4426
▁Carolina	-4427
▁Fer	-4428
ental	-4429
▁attract	-4430
inson	-4431
acement	-4432
▁citiz	-4433
▁exec	-4434
ifying	-4435
▁tournament	-4436
▁reign	-4437
▁ox	-4438
▁toward	-4439
▁singles	-4440
▁Gal	-4441
▁Sk	-4442
▁emph	-4443
emic	-4444
▁hall	-4445
▁Jon	-4446
▁trees	-4447
▁reference	-4448
ocked	-4449
▁Scottish	-4450
▁formation	-4451
▁senior	-4452
elve	-4453
▁1987	-4454
▁adapt	-4455
▁surre	-4456
▁setting	-4457
▁worldwide	-4458
▁Hard	-4459
▁medical	-4460
▁territory	-4461
▁Government	-4462
▁trying	-4463
▁1988	-4464
▁stations	-4465
rog	-4466
▁Marsh	-4467
▁Bre	-4468
▁System	-4469
▁bud	-4470
▁appl	-4471
ruit	-4472
▁Fantasy	-4473
▁birds	-4474
▁pan	-4475
estic	-4476
▁delay	-4477
▁Writ	-4478
▁Operation	-4479
ners	-4480
▁Holly	-4481
▁Background	-4482
▁machine	-4483
▁Governor	-4484
▁claims	-4485
▁fellow	-4486
▁doll	-4487
▁Ocean	-4488
▁District	-4489
embly	-4490
▁historian	-4491
▁murder	-4492
▁guest	-4493
▁bul	-4494
▁rainfall	-4495
▁risk	-4496
▁dog	-4497
▁Field	-4498
▁fully	-4499
▁Penns	-4500
▁accident	-4501
▁cell	-4502
eld	-4503
▁Rom	-4504
▁value	-4505
ivity	-4506
▁load	-4507
▁therefore	-4508
▁god	-4509
▁Duke	-4510
▁Home	-4511
uled	-4512
▁split	-4513
eed	-4514
▁chosen	-4515
▁treatment	-4516
▁Colon	-4517
▁Guard	-4518
▁university	-4519
▁53	-4520
gian	-4521
▁twice	-4522
omers	-4523
uct	-4524
amber	-4525
▁Studios	-4526
▁Tem	-4527
▁terr	-4528
velopment	-4529
▁frequently	-4530
uls	-4531
▁Polish	-4532
▁contest	-4533
▁reports	-4534
▁supply	-4535
orne	-4536
▁Kar	-4537
▁Girl	-4538
▁leaves	-4539
rael	-4540
▁Short	-4541
▁governor	-4542
stone	-4543
resh	-4544
▁sens	-4545
▁Senate	-4546
▁remark	-4547
ić	-4548
▁paper	-4549
stitution	-4550
aved	-4551
▁label	-4552
▁Eastern	-4553
▁agg	-4554
▁dyn	-4555
ampion	-4556
▁Beat	-4557
ordin	-4558
▁faced	-4559
▁walls	-4560
▁hyd	-4561
▁opin	-4562
iot	-4563
▁follows	-4564
eller	-4565
ror	-4566
▁billion	-4567
▁Lew	-4568
anger	-4569
ledge	-4570
▁operated	-4571
▁Rod	-4572
▁Ros	-4573
▁manu	-4574
ading	-4575
▁grew	-4576
▁surrounding	-4577
▁Andrew	-4578
▁Mean	-4579
▁degree	-4580
▁contained	-4581
▁85	-4582
onents	-4583
▁horses	-4584
▁planet	-4585
▁herself	-4586
▁manufact	-4587
▁Christmas	-4588
▁condition	-4589
▁MD	-4590
▁accompan	-4591
▁ut	-4592
ayer	-4593
▁wounded	-4594
▁escape	-4595
▁swe	-4596
▁typically	-4597
▁Allied	-4598
▁Os	-4599
▁passes	-4600
rect	-4601
▁color	-4602
orter	-4603
▁simply	-4604
edd	-4605
isco	-4606
illy	-4607
▁fuel	-4608
▁master	-4609
▁Wilson	-4610
▁sle	-4611
▁brown	-4612
▁Night	-4613
▁railway	-4614
▁Corn	-4615
▁Bart	-4616
▁element	-4617
▁draft	-4618
utation	-4619
gend	-4620
▁Taylor	-4621
ety	-4622
▁lives	-4623
▁editor	-4624
▁orders	-4625
▁1986	-4626
▁arms	-4627
ala	-4628
▁Elizabeth	-4629
▁Jud	-4630
▁serving	-4631
▁bal	-4632
antly	-4633
▁nothing	-4634
▁Alexander	-4635
▁chose	-4636
▁authority	-4637
▁opposed	-4638
▁workers	-4639
▁vote	-4640
▁camer	-4641
▁consecutive	-4642
isters	-4643
▁cannot	-4644
▁moment	-4645
▁Each	-4646
▁Mike	-4647
▁newly	-4648
▁Joe	-4649
ricult	-4650
izes	-4651
▁native	-4652
▁unknown	-4653
ancing	-4654
▁participated	-4655
ias	-4656
aming	-4657
ucky	-4658
▁growing	-4659
pass	-4660
▁website	-4661
▁casual	-4662
agn	-4663
▁54	-4664
uous	-4665
▁phil	-4666
▁emphas	-4667
▁entr	-4668
▁attrib	-4669
▁fan	-4670
▁producers	-4671
fully	-4672
▁newspaper	-4673
▁rear	-4674
ographer	-4675
igg	-4676
▁bass	-4677
▁Of	-4678
▁fair	-4679
▁losing	-4680
▁Castle	-4681
▁adopted	-4682
▁advanced	-4683
▁filming	-4684
▁Festival	-4685
mit	-4686
▁extra	-4687
▁heard	-4688
▁Hum	-4689
▁severe	-4690
▁Pennsylvania	-4691
▁offensive	-4692
▁feed	-4693
ilies	-4694
andy	-4695
▁fiction	-4696
azz	-4697
enge	-4698
imens	-4699
▁opposition	-4700
▁Exp	-4701
▁extend	-4702
▁spirit	-4703
▁Jac	-4704
▁Det	-4705
▁capacity	-4706
▁95	-4707
enger	-4708
▁Pers	-4709
▁Islands	-4710
▁sequence	-4711
▁What	-4712
▁basis	-4713
▁actors	-4714
▁council	-4715
then	-4716
▁psych	-4717
▁ends	-4718
▁guard	-4719
pton	-4720
▁Reception	-4721
▁Sound	-4722
▁56	-4723
▁weak	-4724
▁squadron	-4725
▁Che	-4726
ype	-4727
▁silver	-4728
▁Gi	-4729
▁prin	-4730
▁advant	-4731
▁abandoned	-4732
▁Irish	-4733
▁177	-4734
rong	-4735
▁Further	-4736
orship	-4737
▁compar	-4738
tar	-4739
▁rival	-4740
ev	-4741
▁WW	-4742
▁rom	-4743
▁extr	-4744
▁prompt	-4745
rid	-4746
▁Inst	-4747
▁Blue	-4748
▁Wat	-4749
▁flying	-4750
ables	-4751
▁Tech	-4752
▁honor	-4753
isers	-4754
▁Harry	-4755
ager	-4756
▁elev	-4757
▁creating	-4758
more	-4759
▁kick	-4760
▁bey	-4761
gu	-4762
▁Card	-4763
▁Tra	-4764
ocated	-4765
▁Spain	-4766
▁filmed	-4767
▁Ret	-4768
▁launch	-4769
▁coal	-4770
▁Jersey	-4771
▁regarded	-4772
▁Pen	-4773
▁happen	-4774
▁normal	-4775
▁expansion	-4776
▁ast	-4777
▁enter	-4778
▁individuals	-4779
▁criticism	-4780
▁poll	-4781
lement	-4782
▁homes	-4783
▁agreement	-4784
▁SS	-4785
▁beyond	-4786
▁incident	-4787
hi	-4788
▁Land	-4789
▁Gall	-4790
▁failure	-4791
▁178	-4792
▁Coast	-4793
▁Fam	-4794
▁evac	-4795
▁spect	-4796
▁Square	-4797
▁deploy	-4798
▁dismiss	-4799
▁famous	-4800
apers	-4801
▁eye	-4802
add	-4803
onc	-4804
▁spring	-4805
▁chair	-4806
▁sail	-4807
▁sports	-4808
▁measure	-4809
▁97	-4810
▁challeng	-4811
▁1939	-4812
▁possibly	-4813
▁historical	-4814
▁negative	-4815
TC	-4816
▁liber	-4817
▁inte	-4818
uses	-4819
▁boat	-4820
▁bodies	-4821
ef	-4822
gar	-4823
▁achieved	-4824
▁strike	-4825
min	-4826
▁Are	-4827
▁believe	-4828
▁contact	-4829
▁76	-4830
▁mob	-4831
▁progress	-4832
▁roles	-4833
▁Us	-4834
▁Public	-4835
▁Production	-4836
▁unf	-4837
ote	-4838
▁killing	-4839
▁narrow	-4840
▁retired	-4841
anda	-4842
imet	-4843
▁ideas	-4844
ifications	-4845
▁Institute	-4846
▁Bab	-4847
ano	-4848
▁Lind	-4849
ienced	-4850
BA	-4851
▁disease	-4852
▁Israel	-4853
rich	-4854
▁ur	-4855
▁torpedo	-4856
mosp	-4857
▁Wild	-4858
onent	-4859
▁CD	-4860
▁benef	-4861
▁rid	-4862
▁briefly	-4863
▁vo	-4864
FA	-4865
▁drive	-4866
▁1985	-4867
▁Revolution	-4868
▁Due	-4869
▁Broad	-4870
▁Arthur	-4871
▁effective	-4872
▁1968	-4873
▁imag	-4874
▁task	-4875
▁armed	-4876
▁tower	-4877
▁applic	-4878
▁diam	-4879
▁Elect	-4880
▁budget	-4881
▁receive	-4882
▁repeated	-4883
▁necessary	-4884
▁administration	-4885
▁granted	-4886
▁perman	-4887
▁personnel	-4888
▁Mul	-4889
▁roads	-4890
▁rejected	-4891
▁tree	-4892
▁Meanwhile	-4893
edom	-4894
▁table	-4895
▁twelve	-4896
▁Cat	-4897
▁Republican	-4898
▁kilometres	-4899
aith	-4900
▁End	-4901
▁Germ	-4902
▁pet	-4903
▁improved	-4904
▁leadership	-4905
▁Bul	-4906
▁Doctor	-4907
▁Person	-4908
▁mis	-4909
▁Album	-4910
▁gross	-4911
iny	-4912
avalry	-4913
▁interchange	-4914
▁Clark	-4915
▁extensive	-4916
▁column	-4917
iner	-4918
▁inh	-4919
▁data	-4920
▁Cub	-4921
▁Ohio	-4922
▁yellow	-4923
imal	-4924
kins	-4925
ourney	-4926
▁66	-4927
▁turns	-4928
▁infantry	-4929
▁purpose	-4930
▁plants	-4931
▁straight	-4932
▁Sund	-4933
▁management	-4934
▁lands	-4935
▁express	-4936
iments	-4937
▁landing	-4938
▁defin	-4939
▁Ul	-4940
▁paralle	-4941
▁describes	-4942
▁Mid	-4943
▁expanded	-4944
▁seat	-4945
▁Secretary	-4946
▁Board	-4947
▁solo	-4948
▁Ly	-4949
▁choice	-4950
▁successfully	-4951
▁franch	-4952
▁61	-4953
▁broken	-4954
▁mile	-4955
lusion	-4956
▁Liver	-4957
▁Braz	-4958
▁crossing	-4959
▁learn	-4960
adelph	-4961
▁didn	-4962
▁Head	-4963
▁1984	-4964
▁fought	-4965
▁Philadelph	-4966
▁deliver	-4967
▁explos	-4968
▁intellig	-4969
iday	-4970
ocks	-4971
▁animal	-4972
▁organized	-4973
▁Hy	-4974
▁caught	-4975
▁excl	-4976
oln	-4977
uate	-4978
▁vehicles	-4979
▁commissioned	-4980
▁Les	-4981
▁suggests	-4982
▁acquired	-4983
la	-4984
▁800	-4985
▁Fe	-4986
▁places	-4987
▁committee	-4988
▁chor	-4989
haps	-4990
etball	-4991
▁roof	-4992
▁ancient	-4993
▁Even	-4994
▁drama	-4995
▁Georgia	-4996
set	-4997
▁creation	-4998
hol	-4999
▁Never	-5000
▁Cambridge	-5001
▁types	-5002
▁Ash	-5003
stream	-5004
▁glob	-5005
▁Philadelphia	-5006
▁article	-5007
▁gives	-5008
▁seventh	-5009
▁comedy	-5010
ico	-5011
▁unsu	-5012
▁nuclear	-5013
▁prefer	-5014
▁Burn	-5015
▁Hit	-5016
▁Mir	-5017
iable	-5018
▁wave	-5019
▁soft	-5020
▁Bell	-5021
▁fat	-5022
iate	-5023
▁row	-5024
appy	-5025
▁Bru	-5026
▁Sher	-5027
▁authorities	-5028
▁headquarters	-5029
▁120	-5030
▁Const	-5031
▁Mov	-5032
▁contain	-5033
attle	-5034
etts	-5035
▁Also	-5036
war	-5037
▁commonly	-5038
▁centuries	-5039
▁determined	-5040
▁RA	-5041
▁genus	-5042
▁islands	-5043
▁1967	-5044
iations	-5045
▁Addition	-5046
▁mentioned	-5047
▁IS	-5048
▁Russia	-5049
▁recently	-5050
rif	-5051
▁looking	-5052
iana	-5053
▁bott	-5054
▁controlled	-5055
igr	-5056
▁beaut	-5057
restling	-5058
▁SR	-5059
umes	-5060
▁roll	-5061
▁street	-5062
erc	-5063
akers	-5064
▁Prot	-5065
▁Common	-5066
▁sets	-5067
▁families	-5068
▁Among	-5069
▁household	-5070
▁Liverpool	-5071
▁Wars	-5072
▁upgr	-5073
▁security	-5074
▁finds	-5075
▁experiment	-5076
▁Cy	-5077
▁aim	-5078
▁suppor	-5079
ura	-5080
▁Nintend	-5081
▁57	-5082
▁decre	-5083
▁advert	-5084
▁standing	-5085
▁Rel	-5086
▁drop	-5087
ima	-5088
▁acad	-5089
▁illust	-5090
▁Nintendo	-5091
▁Lar	-5092
▁singing	-5093
oted	-5094
▁withdraw	-5095
▁Linc	-5096
▁battalion	-5097
▁Columbia	-5098
▁unique	-5099
▁reflect	-5100
▁Prime	-5101
▁Earl	-5102
itled	-5103
uting	-5104
▁Ep	-5105
fort	-5106
agement	-5107
▁Arg	-5108
▁containing	-5109
▁Gil	-5110
▁height	-5111
▁cultural	-5112
▁entirely	-5113
▁deck	-5114
▁Jenn	-5115
▁fish	-5116
▁orchest	-5117
▁dial	-5118
arts	-5119
▁finish	-5120
▁62	-5121
▁Lincoln	-5122
▁protect	-5123
▁contributed	-5124
▁Singap	-5125
▁Chap	-5126
▁themes	-5127
▁Korean	-5128
▁provides	-5129
▁Asia	-5130
▁younger	-5131
▁Development	-5132
ishes	-5133
▁touchdown	-5134
▁defence	-5135
▁flooding	-5136
▁unp	-5137
▁Lieutenant	-5138
▁1983	-5139
▁Brazil	-5140
acks	-5141
roll	-5142
▁mist	-5143
▁strik	-5144
▁atmosp	-5145
▁titles	-5146
▁awards	-5147
▁purchased	-5148
oma	-5149
▁Rol	-5150
▁Jewish	-5151
amin	-5152
▁la	-5153
outs	-5154
▁sac	-5155
ipl	-5156
▁arrival	-5157
▁powers	-5158
▁scheduled	-5159
▁Francisco	-5160
▁Child	-5161
▁defensive	-5162
▁resemb	-5163
▁hol	-5164
▁accompanied	-5165
▁Singapore	-5166
▁ceremony	-5167
inity	-5168
▁1964	-5169
▁quite	-5170
respond	-5171
▁expedition	-5172
▁Hay	-5173
illing	-5174
▁convers	-5175
▁People	-5176
▁unus	-5177
▁worth	-5178
▁thing	-5179
▁1969	-5180
▁perfect	-5181
▁locations	-5182
▁existing	-5183
icial	-5184
▁interact	-5185
▁performing	-5186
water	-5187
▁Carey	-5188
▁advantage	-5189
room	-5190
atures	-5191
▁Office	-5192
▁dedicated	-5193
▁Six	-5194
▁try	-5195
▁computer	-5196
▁philos	-5197
▁Pot	-5198
▁extrem	-5199
▁Disney	-5200
▁intensity	-5201
Station	-5202
▁occupied	-5203
▁1914	-5204
▁Su	-5205
▁store	-5206
ulate	-5207
gn	-5208
laim	-5209
ava	-5210
▁58	-5211
▁why	-5212
▁squad	-5213
▁PlayStation	-5214
▁Dark	-5215
▁1918	-5216
▁74	-5217
▁HMS	-5218
▁mounted	-5219
▁Tam	-5220
▁bat	-5221
▁Order	-5222
▁Lis	-5223
▁fresh	-5224
▁1982	-5225
agan	-5226
▁Hun	-5227
ashion	-5228
▁Ven	-5229
▁1971	-5230
▁Anderson	-5231
▁cricket	-5232
▁nob	-5233
▁closely	-5234
▁Steve	-5235
▁mouth	-5236
▁firm	-5237
▁consists	-5238
▁currently	-5239
▁fix	-5240
▁Key	-5241
▁1966	-5242
▁Ur	-5243
▁session	-5244
▁Hon	-5245
▁Lewis	-5246
▁1972	-5247
▁Miller	-5248
▁Conference	-5249
▁Balt	-5250
▁industrial	-5251
▁1979	-5252
▁simple	-5253
wall	-5254
▁Byz	-5255
▁Turn	-5256
▁tail	-5257
▁72	-5258
▁piano	-5259
▁Once	-5260
▁facilities	-5261
racted	-5262
▁elimin	-5263
▁supporting	-5264
yles	-5265
▁drawn	-5266
▁Olympic	-5267
▁lic	-5268
▁cold	-5269
▁Brook	-5270
▁Radio	-5271
▁belong	-5272
▁trains	-5273
▁protection	-5274
▁boats	-5275
▁graph	-5276
▁rated	-5277
▁Die	-5278
▁Bad	-5279
ilton	-5280
▁Grant	-5281
▁egg	-5282
▁Brian	-5283
▁Kel	-5284
▁tim	-5285
▁rise	-5286
▁defined	-5287
▁Byzant	-5288
▁selection	-5289
ao	-5290
▁steam	-5291
rons	-5292
▁1965	-5293
▁regions	-5294
▁submar	-5295
▁Railway	-5296
▁protected	-5297
uzz	-5298
▁Conn	-5299
▁calls	-5300
▁NHL	-5301
▁#	-5302
▁Emperor	-5303
▁structures	-5304
▁motion	-5305
▁comic	-5306
mouth	-5307
▁throw	-5308
hens	-5309
▁aid	-5310
▁cry	-5311
▁trail	-5312
▁focused	-5313
▁opportunity	-5314
▁engaged	-5315
▁receiving	-5316
▁labor	-5317
▁shark	-5318
▁analysis	-5319
▁shooting	-5320
▁1975	-5321
▁Mah	-5322
▁citizens	-5323
▁correspond	-5324
▁hair	-5325
▁lap	-5326
ola	-5327
▁pros	-5328
iration	-5329
▁notable	-5330
▁strengthen	-5331
och	-5332
▁sport	-5333
▁Gulf	-5334
▁observ	-5335
▁adap	-5336
▁motor	-5337
▁Jr	-5338
usc	-5339
▁experienced	-5340
▁Shak	-5341
▁Germans	-5342
▁Serb	-5343
▁providing	-5344
▁conference	-5345
▁Press	-5346
▁holding	-5347
▁Hollywood	-5348
▁Walter	-5349
▁Mot	-5350
▁Only	-5351
▁visual	-5352
ults	-5353
▁1974	-5354
▁resident	-5355
▁Davis	-5356
▁dry	-5357
▁hired	-5358
▁59	-5359
▁charts	-5360
▁southeast	-5361
▁eyes	-5362
▁viewed	-5363
▁mountain	-5364
unior	-5365
▁Summer	-5366
▁rapidly	-5367
ifically	-5368
▁Bas	-5369
▁recognized	-5370
▁branch	-5371
▁merch	-5372
▁volume	-5373
▁1973	-5374
▁transform	-5375
opher	-5376
▁Democratic	-5377
▁Pu	-5378
▁99	-5379
▁Barb	-5380
▁scholars	-5381
▁Review	-5382
▁sites	-5383
vention	-5384
inger	-5385
zer	-5386
▁casualties	-5387
▁rob	-5388
▁gain	-5389
▁shared	-5390
uan	-5391
▁teach	-5392
▁mut	-5393
▁Water	-5394
▁Special	-5395
▁Between	-5396
▁concer	-5397
▁publication	-5398
▁vac	-5399
▁Jean	-5400
▁parallel	-5401
inth	-5402
▁prote	-5403
▁temperature	-5404
▁Inc	-5405
▁digital	-5406
▁1976	-5407
▁Bor	-5408
▁Att	-5409
▁economy	-5410
▁Mu	-5411
▁Sa	-5412
essed	-5413
burgh	-5414
▁moder	-5415
▁developing	-5416
FL	-5417
▁Rome	-5418
▁Gib	-5419
▁edge	-5420
▁reaction	-5421
sey	-5422
▁steel	-5423
standing	-5424
▁intersection	-5425
▁cool	-5426
▁Princ	-5427
▁cart	-5428
friend	-5429
olt	-5430
▁approved	-5431
▁symbol	-5432
▁secondary	-5433
▁Fall	-5434
▁chance	-5435
oncé	-5436
▁63	-5437
▁Lady	-5438
▁von	-5439
▁Bank	-5440
▁Kir	-5441
▁wa	-5442
▁losses	-5443
▁Down	-5444
▁prepared	-5445
omew	-5446
▁belief	-5447
▁substant	-5448
▁letters	-5449
▁Daily	-5450
▁significantly	-5451
▁Gord	-5452
▁witness	-5453
▁Women	-5454
▁Musl	-5455
▁Lab	-5456
▁enl	-5457
ingly	-5458
▁bands	-5459
▁Var	-5460
▁77	-5461
iful	-5462
▁harm	-5463
▁73	-5464
rence	-5465
▁sort	-5466
▁Po	-5467
▁Greg	-5468
▁save	-5469
ns	-5470
▁domestic	-5471
▁UN	-5472
iter	-5473
▁Tro	-5474
▁Prov	-5475
▁myth	-5476
▁rac	-5477
▁knew	-5478
iger	-5479
▁franchise	-5480
▁ven	-5481
▁goes	-5482
▁literature	-5483
▁Beyoncé	-5484
▁Nap	-5485
▁unsuccess	-5486
▁instruct	-5487
▁actress	-5488
▁southwest	-5489
▁Syd	-5490
▁Ka	-5491
▁technology	-5492
▁roughly	-5493
▁250	-5494
▁heads	-5495
▁survey	-5496
▁card	-5497
▁advent	-5498
▁descend	-5499
yer	-5500
▁mic	-5501
igation	-5502
ographic	-5503
theless	-5504
▁painting	-5505
awa	-5506
▁anything	-5507
ients	-5508
▁cars	-5509
▁adult	-5510
▁Command	-5511
▁semi	-5512
▁Colonel	-5513
▁projects	-5514
break	-5515
▁urban	-5516
▁assault	-5517
▁lb	-5518
▁exact	-5519
achus	-5520
▁pitch	-5521
▁brothers	-5522
▁gameplay	-5523
▁resistance	-5524
eral	-5525
▁Naz	-5526
unte	-5527
▁hyp	-5528
▁storyline	-5529
▁Supreme	-5530
▁shape	-5531
▁Indust	-5532
▁Point	-5533
▁reasons	-5534
▁rules	-5535
▁employed	-5536
▁Kentucky	-5537
vest	-5538
▁core	-5539
▁daily	-5540
▁tank	-5541
▁injured	-5542
▁1946	-5543
▁watched	-5544
▁1981	-5545
▁Nick	-5546
▁shall	-5547
▁Station	-5548
asty	-5549
osa	-5550
iminal	-5551
onder	-5552
▁cab	-5553
▁popularity	-5554
box	-5555
▁agent	-5556
▁−	-5557
ologist	-5558
▁composition	-5559
▁ign	-5560
ropri	-5561
▁perhaps	-5562
▁adding	-5563
▁enjoyed	-5564
▁IV	-5565
▁renamed	-5566
▁sand	-5567
▁Spring	-5568
▁opinion	-5569
▁isol	-5570
▁getting	-5571
▁declined	-5572
▁Independ	-5573
▁Norway	-5574
▁fit	-5575
amm	-5576
▁compris	-5577
▁reputation	-5578
▁67	-5579
▁Mos	-5580
▁connected	-5581
mann	-5582
▁estate	-5583
▁shaped	-5584
gers	-5585
▁retire	-5586
▁Fair	-5587
▁1917	-5588
▁museum	-5589
▁undert	-5590
▁Ten	-5591
▁drew	-5592
▁regarding	-5593
▁Whit	-5594
▁poem	-5595
▁Olympics	-5596
▁stages	-5597
▁lov	-5598
istan	-5599
inking	-5600
▁converted	-5601
worth	-5602
▁views	-5603
▁Bern	-5604
▁Massachus	-5605
▁rend	-5606
▁Theat	-5607
heim	-5608
▁nor	-5609
itors	-5610
▁Sand	-5611
avel	-5612
ceived	-5613
▁agricult	-5614
▁allows	-5615
▁Philipp	-5616
onym	-5617
ador	-5618
▁Golden	-5619
▁distingu	-5620
▁alternative	-5621
ua	-5622
omic	-5623
▁Ross	-5624
▁calc	-5625
▁Massachusetts	-5626
▁Base	-5627
▁Main	-5628
ulpt	-5629
▁headed	-5630
▁Ob	-5631
▁nick	-5632
▁journey	-5633
bound	-5634
istol	-5635
▁depth	-5636
▁Abb	-5637
▁Walk	-5638
▁missing	-5639
▁increasingly	-5640
▁cited	-5641
▁Prem	-5642
▁Mas	-5643
▁sun	-5644
▁stadium	-5645
▁approached	-5646
osl	-5647
rets	-5648
▁turning	-5649
▁68	-5650
▁Airport	-5651
▁Dream	-5652
verse	-5653
▁responded	-5654
▁96	-5655
▁planning	-5656
▁easily	-5657
▁knowledge	-5658
▁exerc	-5659
▁wealth	-5660
▁Sus	-5661
▁1948	-5662
▁160	-5663
▁overl	-5664
enc	-5665
▁82	-5666
▁cells	-5667
ipe	-5668
▁fashion	-5669
▁escort	-5670
eper	-5671
▁succeeded	-5672
▁Ron	-5673
athan	-5674
era	-5675
▁equal	-5676
▁About	-5677
psons	-5678
▁collected	-5679
rett	-5680
▁safety	-5681
▁existence	-5682
▁constitution	-5683
▁Cur	-5684
▁rebu	-5685
ules	-5686
▁Gra	-5687
oir	-5688
▁Let	-5689
▁Plan	-5690
▁Simpsons	-5691
▁auth	-5692
ilding	-5693
ignment	-5694
▁introduction	-5695
▁models	-5696
▁occas	-5697
▁sustained	-5698
▁trip	-5699
▁learned	-5700
▁Imp	-5701
▁700	-5702
▁Hart	-5703
▁colle	-5704
unicip	-5705
▁operating	-5706
▁promotion	-5707
▁tall	-5708
▁Han	-5709
▁Init	-5710
▁1978	-5711
ba	-5712
▁carrying	-5713
▁Ball	-5714
▁baseball	-5715
▁Songs	-5716
▁exchange	-5717
apes	-5718
▁showing	-5719
ii	-5720
▁rhy	-5721
▁limit	-5722
rin	-5723
▁Run	-5724
▁buried	-5725
▁youth	-5726
▁Imperial	-5727
▁87	-5728
wise	-5729
▁humans	-5730
▁Vietnam	-5731
▁credited	-5732
gal	-5733
mitted	-5734
uration	-5735
▁flu	-5736
▁depend	-5737
come	-5738
▁pul	-5739
▁arranged	-5740
▁Ottoman	-5741
▁improve	-5742
▁Sel	-5743
zen	-5744
▁seems	-5745
▁weakened	-5746
▁1915	-5747
▁designs	-5748
▁Cape	-5749
inary	-5750
▁impl	-5751
▁Shortly	-5752
▁proceed	-5753
▁producing	-5754
iat	-5755
▁joint	-5756
▁Poland	-5757
▁athlet	-5758
▁hydro	-5759
▁paint	-5760
▁freeway	-5761
▁Ken	-5762
▁1977	-5763
▁earliest	-5764
▁Sydney	-5765
▁lasted	-5766
▁shel	-5767
▁Maryland	-5768
▁landfall	-5769
▁settlement	-5770
▁note	-5771
▁Moore	-5772
▁description	-5773
▁retained	-5774
▁acres	-5775
▁69	-5776
▁Who	-5777
leton	-5778
state	-5779
▁78	-5780
▁appoint	-5781
▁Loc	-5782
▁van	-5783
▁Stew	-5784
▁laws	-5785
▁MTV	-5786
▁flat	-5787
▁Naval	-5788
▁genre	-5789
▁Pict	-5790
▁Ha	-5791
▁Bal	-5792
▁bed	-5793
ivalent	-5794
▁programs	-5795
▁assistant	-5796
▁replace	-5797
eman	-5798
▁ton	-5799
▁Roy	-5800
▁install	-5801
▁reserve	-5802
▁playoff	-5803
▁statement	-5804
▁applied	-5805
put	-5806
ivered	-5807
ources	-5808
issance	-5809
▁McG	-5810
iling	-5811
▁violence	-5812
▁1963	-5813
insula	-5814
▁scientific	-5815
▁coastal	-5816
▁consc	-5817
▁trust	-5818
ader	-5819
bell	-5820
iform	-5821
▁entrance	-5822
▁err	-5823
▁virt	-5824
▁catch	-5825
án	-5826
▁hits	-5827
▁91	-5828
otic	-5829
▁neut	-5830
▁Jes	-5831
▁tick	-5832
▁consequ	-5833
▁Ca	-5834
▁aw	-5835
ato	-5836
osis	-5837
▁maintain	-5838
othes	-5839
iege	-5840
reets	-5841
▁Arts	-5842
▁exclus	-5843
▁patrol	-5844
▁items	-5845
▁battery	-5846
▁candidate	-5847
▁indicated	-5848
▁Jay	-5849
tical	-5850
▁towns	-5851
▁sculpt	-5852
▁gradually	-5853
▁distribution	-5854
▁1916	-5855
▁politics	-5856
▁synt	-5857
▁Bowl	-5858
▁delivered	-5859
math	-5860
▁stopped	-5861
eler	-5862
▁filled	-5863
▁AD	-5864
▁Edu	-5865
▁independence	-5866
engers	-5867
▁sections	-5868
▁94	-5869
▁details	-5870
▁Mulder	-5871
▁stream	-5872
▁Confeder	-5873
▁tact	-5874
apped	-5875
▁combination	-5876
onia	-5877
▁select	-5878
▁supplies	-5879
oard	-5880
▁ways	-5881
▁cinem	-5882
eke	-5883
time	-5884
▁parties	-5885
▁engines	-5886
▁Pass	-5887
▁emp	-5888
▁camera	-5889
▁prisoners	-5890
▁Bra	-5891
▁Gordon	-5892
▁ban	-5893
ads	-5894
▁Fire	-5895
▁glass	-5896
▁IG	-5897
▁Rem	-5898
▁appeal	-5899
▁Stadium	-5900
▁1919	-5901
▁aware	-5902
▁Rhodes	-5903
▁register	-5904
▁campus	-5905
hr	-5906
▁1962	-5907
▁bask	-5908
▁acts	-5909
ushing	-5910
emies	-5911
▁extremely	-5912
ira	-5913
rell	-5914
▁entitled	-5915
▁98	-5916
▁secure	-5917
ora	-5918
izations	-5919
▁alle	-5920
▁Ari	-5921
▁finding	-5922
▁Bos	-5923
lee	-5924
▁decade	-5925
▁online	-5926
▁ty	-5927
▁81	-5928
▁Well	-5929
poration	-5930
iversary	-5931
▁Theatre	-5932
▁winner	-5933
idden	-5934
▁evening	-5935
inois	-5936
▁71	-5937
▁investigation	-5938
eless	-5939
▁1938	-5940
▁threatened	-5941
▁bought	-5942
▁message	-5943
▁adapted	-5944
▁survived	-5945
▁knots	-5946
▁somew	-5947
▁uns	-5948
▁Staff	-5949
va	-5950
▁studied	-5951
▁proposal	-5952
▁writes	-5953
▁Univers	-5954
▁address	-5955
ella	-5956
▁tal	-5957
▁arc	-5958
▁deaths	-5959
▁Justice	-5960
ender	-5961
▁Here	-5962
▁ruled	-5963
▁routes	-5964
▁regiment	-5965
▁consum	-5966
▁download	-5967
ashed	-5968
▁Prof	-5969
▁wars	-5970
▁Instead	-5971
▁relief	-5972
▁Constant	-5973
▁males	-5974
▁fear	-5975
▁reduce	-5976
▁religion	-5977
icks	-5978
▁voted	-5979
▁Bir	-5980
ieval	-5981
▁specifically	-5982
▁Band	-5983
▁spons	-5984
▁revolution	-5985
ropol	-5986
▁crown	-5987
▁phase	-5988
iro	-5989
▁AC	-5990
phoon	-5991
▁kingdom	-5992
▁recalled	-5993
▁89	-5994
▁portrayed	-5995
▁Age	-5996
▁fict	-5997
▁Jan	-5998
ansas	-5999
▁duty	-6000
▁Kim	-6001
▁soul	-6002
▁controversy	-6003
iques	-6004
ighters	-6005
▁implement	-6006
rec	-6007
▁emerg	-6008
▁causes	-6009
▁Memorial	-6010
ctions	-6011
▁everything	-6012
▁Tony	-6013
▁breeding	-6014
▁references	-6015
▁1956	-6016
▁stret	-6017
ervative	-6018
▁sell	-6019
▁ago	-6020
▁Anth	-6021
▁convin	-6022
▁capable	-6023
▁bottom	-6024
▁importance	-6025
▁teacher	-6026
aka	-6027
▁175	-6028
▁meters	-6029
▁Singles	-6030
▁Nic	-6031
bourne	-6032
▁entry	-6033
▁ble	-6034
▁offers	-6035
▁tanks	-6036
senal	-6037
ician	-6038
▁sufficient	-6039
▁owner	-6040
▁130	-6041
aints	-6042
▁opera	-6043
aked	-6044
▁Director	-6045
▁arrested	-6046
▁Cop	-6047
▁Circ	-6048
entially	-6049
▁admitted	-6050
▁ec	-6051
▁internal	-6052
▁Bon	-6053
▁Adams	-6054
▁nomination	-6055
acter	-6056
▁corner	-6057
▁88	-6058
BN	-6059
▁et	-6060
▁Nel	-6061
▁Vill	-6062
chers	-6063
▁crossed	-6064
▁products	-6065
▁1936	-6066
▁Alan	-6067
▁climb	-6068
▁Critical	-6069
▁equipped	-6070
▁Dougl	-6071
▁installed	-6072
▁Kong	-6073
▁concerns	-6074
anean	-6075
▁overse	-6076
▁IGN	-6077
▁Hamilton	-6078
▁invited	-6079
▁Jord	-6080
▁Power	-6081
▁preced	-6082
▁Engine	-6083
▁convoy	-6084
▁ones	-6085
▁starts	-6086
▁Beach	-6087
▁principal	-6088
▁interested	-6089
▁Jane	-6090
wich	-6091
▁recommended	-6092
lan	-6093
▁conqu	-6094
▁crime	-6095
▁Maria	-6096
▁remainder	-6097
adow	-6098
▁Simon	-6099
▁McK	-6100
▁79	-6101
▁medal	-6102
▁actual	-6103
▁Your	-6104
▁UTC	-6105
▁Moon	-6106
▁mort	-6107
▁retreat	-6108
▁Kennedy	-6109
▁shut	-6110
▁autom	-6111
ructure	-6112
▁tell	-6113
▁acid	-6114
espread	-6115
▁FA	-6116
▁Plot	-6117
▁charged	-6118
▁Coll	-6119
▁objects	-6120
▁bor	-6121
▁funds	-6122
▁price	-6123
▁apart	-6124
BS	-6125
▁composer	-6126
▁1961	-6127
▁door	-6128
▁solid	-6129
▁Forest	-6130
hat	-6131
▁consisting	-6132
▁females	-6133
aug	-6134
▁promote	-6135
▁alt	-6136
▁unl	-6137
▁stock	-6138
▁VII	-6139
▁fly	-6140
▁Gram	-6141
▁Adam	-6142
▁page	-6143
▁Alf	-6144
▁considerable	-6145
▁vent	-6146
ilation	-6147
▁Video	-6148
▁dates	-6149
▁milit	-6150
▁NBA	-6151
ela	-6152
▁Indones	-6153
▁Found	-6154
▁Ve	-6155
entions	-6156
▁snow	-6157
▁1953	-6158
▁typical	-6159
met	-6160
▁Id	-6161
▁Cart	-6162
▁Death	-6163
▁Nether	-6164
ko	-6165
▁Today	-6166
▁grounds	-6167
▁extension	-6168
▁nest	-6169
erted	-6170
▁duties	-6171
▁integr	-6172
▁correct	-6173
▁gall	-6174
▁someone	-6175
▁Prog	-6176
▁evolution	-6177
▁Military	-6178
▁rural	-6179
▁Eric	-6180
▁Sunday	-6181
▁Indiana	-6182
ali	-6183
▁eighth	-6184
▁Transport	-6185
vements	-6186
▁Howard	-6187
▁penal	-6188
▁decades	-6189
▁hotel	-6190
▁92	-6191
▁images	-6192
▁driving	-6193
▁reading	-6194
rete	-6195
▁blow	-6196
▁Project	-6197
▁identity	-6198
▁Norwe	-6199
▁Scully	-6200
▁Ast	-6201
▁Ok	-6202
▁occurs	-6203
▁sole	-6204
after	-6205
▁zone	-6206
osite	-6207
▁manner	-6208
▁challenge	-6209
▁lane	-6210
▁skin	-6211
▁remix	-6212
▁aspects	-6213
▁permanent	-6214
▁Hitler	-6215
▁brigade	-6216
ati	-6217
▁Od	-6218
▁1947	-6219
bro	-6220
▁ham	-6221
upt	-6222
▁dated	-6223
▁1958	-6224
▁spin	-6225
▁volcan	-6226
▁Five	-6227
▁frag	-6228
▁noting	-6229
▁Leon	-6230
▁Portug	-6231
▁subs	-6232
▁restaur	-6233
▁supporters	-6234
▁slowly	-6235
▁84	-6236
▁Hou	-6237
▁posted	-6238
▁WWE	-6239
▁colour	-6240
hetic	-6241
▁clean	-6242
▁1910	-6243
wick	-6244
▁describing	-6245
▁1957	-6246
▁Research	-6247
ensus	-6248
▁Marc	-6249
▁involving	-6250
veland	-6251
osaurus	-6252
cknow	-6253
ivals	-6254
▁Cult	-6255
▁entering	-6256
▁speak	-6257
▁Science	-6258
▁vessels	-6259
▁enemies	-6260
▁1937	-6261
▁equivalent	-6262
▁Sav	-6263
arp	-6264
▁classes	-6265
▁Assembly	-6266
▁Gun	-6267
▁dress	-6268
aware	-6269
▁Ryan	-6270
▁Pear	-6271
▁Rose	-6272
▁debate	-6273
▁settled	-6274
▁obtained	-6275
▁department	-6276
▁93	-6277
▁Bry	-6278
▁accur	-6279
▁aer	-6280
iley	-6281
▁Constitution	-6282
▁Turk	-6283
▁armor	-6284
▁Magazine	-6285
▁parliament	-6286
▁basic	-6287
risis	-6288
▁Rolling	-6289
▁purchase	-6290
▁songwrit	-6291
▁Gen	-6292
regon	-6293
▁Mountain	-6294
▁110	-6295
BI	-6296
agues	-6297
▁Pit	-6298
▁Gill	-6299
▁Argent	-6300
▁Bol	-6301
▁oldest	-6302
▁Cleveland	-6303
▁faith	-6304
▁din	-6305
▁concerned	-6306
▁departure	-6307
▁widespread	-6308
erto	-6309
▁income	-6310
▁decline	-6311
▁pup	-6312
bar	-6313
▁attached	-6314
▁connection	-6315
▁Illinois	-6316
iterr	-6317
▁Space	-6318
▁formal	-6319
▁recognition	-6320
▁Hug	-6321
▁folk	-6322
▁certified	-6323
▁Throughout	-6324
▁accused	-6325
▁Douglas	-6326
▁Lenn	-6327
heastern	-6328
▁<	-6329
iller	-6330
▁memorial	-6331
▁outer	-6332
▁sequel	-6333
▁derived	-6334
hus	-6335
▁Weekly	-6336
cation	-6337
▁mode	-6338
▁deleg	-6339
orney	-6340
▁Rele	-6341
hered	-6342
▁Andy	-6343
▁wearing	-6344
▁assumed	-6345
▁decor	-6346
▁1959	-6347
▁swim	-6348
▁disturb	-6349
▁tele	-6350
▁Jordan	-6351
▁Oregon	-6352
▁acclaim	-6353
▁acknow	-6354
▁hip	-6355
▁”	-6356
▁Stanley	-6357
western	-6358
▁hosted	-6359
▁committed	-6360
▁Arsenal	-6361
ommod	-6362
▁Pier	-6363
▁Third	-6364
AT	-6365
▁returns	-6366
▁Now	-6367
▁warm	-6368
▁Stand	-6369
ubb	-6370
▁valley	-6371
▁sessions	-6372
▁populations	-6373
ekend	-6374
▁torn	-6375
▁Disc	-6376
▁foss	-6377
agonist	-6378
▁denied	-6379
▁Recording	-6380
▁fine	-6381
▁Freder	-6382
▁segment	-6383
▁Treat	-6384
▁Roger	-6385
iterranean	-6386
aki	-6387
▁Feder	-6388
▁Beatles	-6389
▁champion	-6390
▁Media	-6391
▁Family	-6392
▁temple	-6393
▁charges	-6394
▁literary	-6395
▁Kevin	-6396
nic	-6397
icit	-6398
▁Norwegian	-6399
▁thousands	-6400
▁Bruce	-6401
▁terminus	-6402
▁1954	-6403
▁1955	-6404
▁Philip	-6405
▁transition	-6406
▁Mediterranean	-6407
idges	-6408
▁flo	-6409
▁regional	-6410
▁supposed	-6411
▁cong	-6412
▁86	-6413
▁Bristol	-6414
▁wickets	-6415
alog	-6416
iously	-6417
aret	-6418
ooth	-6419
▁canc	-6420
▁demand	-6421
▁“	-6422
ione	-6423
▁Tenn	-6424
reck	-6425
▁Kat	-6426
▁ISBN	-6427
▁shots	-6428
aired	-6429
▁strongly	-6430
▁Ira	-6431
▁Low	-6432
▁circulation	-6433
▁Sky	-6434
▁hang	-6435
▁intelligence	-6436
hedral	-6437
▁sailed	-6438
▁possibility	-6439
▁passengers	-6440
udden	-6441
achel	-6442
▁hope	-6443
▁animated	-6444
▁generation	-6445
heme	-6446
▁circum	-6447
▁thirty	-6448
▁fictional	-6449
▁freedom	-6450
▁downtown	-6451
▁commit	-6452
▁Federal	-6453
▁answ	-6454
ophy	-6455
fl	-6456
emed	-6457
▁behavior	-6458
▁Channel	-6459
▁minister	-6460
▁Mexican	-6461
▁×	-6462
▁hill	-6463
▁rich	-6464
▁replacement	-6465
▁Rain	-6466
▁begun	-6467
▁commanded	-6468
oz	-6469
eing	-6470
▁moves	-6471
▁destruction	-6472
▁cloud	-6473
▁assistance	-6474
▁poly	-6475
▁missions	-6476
▁criminal	-6477
▁exception	-6478
atinum	-6479
▁brain	-6480
▁costs	-6481
ras	-6482
▁fruit	-6483
▁missed	-6484
▁highlight	-6485
▁Bush	-6486
▁bringing	-6487
▁tied	-6488
rations	-6489
▁crash	-6490
▁Within	-6491
▁Korea	-6492
▁intention	-6493
▁Tar	-6494
ker	-6495
▁feeling	-6496
ategy	-6497
▁speaking	-6498
mes	-6499
▁Additionally	-6500
▁Lisa	-6501
▁protest	-6502
▁unusual	-6503
▁finishing	-6504
▁alleged	-6505
▁Fame	-6506
▁Master	-6507
▁properties	-6508
▁incorporated	-6509
▁demol	-6510
▁intercept	-6511
rophy	-6512
▁stayed	-6513
▁opposite	-6514
▁attributed	-6515
▁volunte	-6516
oh	-6517
▁emerged	-6518
▁breaking	-6519
▁serves	-6520
uro	-6521
▁Dig	-6522
▁recovered	-6523
▁1952	-6524
▁sons	-6525
▁atmosphere	-6526
elsh	-6527
onto	-6528
▁Row	-6529
ige	-6530
aire	-6531
▁Web	-6532
organ	-6533
▁shop	-6534
▁Morris	-6535
▁theatre	-6536
▁Color	-6537
▁chorus	-6538
▁occasionally	-6539
▁driven	-6540
▁Norman	-6541
othing	-6542
▁Phill	-6543
▁Scient	-6544
▁Conc	-6545
▁strateg	-6546
borne	-6547
▁classic	-6548
oral	-6549
▁ready	-6550
▁Robinson	-6551
iva	-6552
▁regularly	-6553
▁effectively	-6554
▁dipl	-6555
▁cavalry	-6556
▁Prior	-6557
▁establishment	-6558
▁prey	-6559
▁spok	-6560
▁courts	-6561
▁methods	-6562
olec	-6563
riers	-6564
▁sounds	-6565
▁vary	-6566
▁1933	-6567
▁dang	-6568
▁Similar	-6569
▁Television	-6570
▁Int	-6571
▁Hawai	-6572
pective	-6573
▁FI	-6574
▁Around	-6575
▁Unlike	-6576
▁materials	-6577
▁completion	-6578
▁176	-6579
▁Dal	-6580
▁Construction	-6581
▁shore	-6582
▁Morgan	-6583
▁superv	-6584
▁divers	-6585
▁responsibility	-6586
enses	-6587
▁dissip	-6588
▁attracted	-6589
▁surviving	-6590
wan	-6591
▁fields	-6592
▁warning	-6593
▁accommod	-6594
▁province	-6595
▁persu	-6596
▁Nelson	-6597
▁heat	-6598
▁entertain	-6599
▁Az	-6600
▁dream	-6601
▁global	-6602
▁classified	-6603
▁Premier	-6604
▁differences	-6605
oslav	-6606
▁Francis	-6607
▁divisions	-6608
▁technical	-6609
▁Sweden	-6610
▁83	-6611
▁interpret	-6612
▁Bah	-6613
▁Iron	-6614
▁1935	-6615
thm	-6616
ompl	-6617
sole	-6618
▁tom	-6619
lets	-6620
▁USA	-6621
▁Finn	-6622
▁Patrick	-6623
▁cruiser	-6624
nold	-6625
▁passage	-6626
▁quant	-6627
isms	-6628
abled	-6629
▁aboard	-6630
▁Ford	-6631
▁Lanc	-6632
▁clubs	-6633
▁ratings	-6634
▁neither	-6635
▁association	-6636
▁eleven	-6637
pet	-6638
▁stood	-6639
▁musicians	-6640
▁rooms	-6641
▁Nich	-6642
▁Budd	-6643
▁Cas	-6644
▁reinforce	-6645
aza	-6646
▁1951	-6647
▁none	-6648
ece	-6649
oyd	-6650
▁1949	-6651
▁Temple	-6652
abb	-6653
▁desire	-6654
▁Toronto	-6655
▁Pur	-6656
▁check	-6657
▁climate	-6658
▁separated	-6659
▁Ow	-6660
▁Ho	-6661
▁shif	-6662
▁Welsh	-6663
▁outbreak	-6664
ja	-6665
uty	-6666
▁classification	-6667
nce	-6668
weight	-6669
▁Nations	-6670
▁vehicle	-6671
▁ancest	-6672
▁seemed	-6673
▁Byzantine	-6674
inton	-6675
umin	-6676
▁Anne	-6677
▁Techn	-6678
▁predecess	-6679
▁Anton	-6680
▁medic	-6681
▁votes	-6682
▁chemical	-6683
▁picture	-6684
▁reality	-6685
▁battleships	-6686
▁memory	-6687
▁CE	-6688
teenth	-6689
▁hoped	-6690
▁Allen	-6691
▁movements	-6692
▁requested	-6693
isf	-6694
ez	-6695
▁Profess	-6696
char	-6697
▁raise	-6698
▁historians	-6699
▁Netherlands	-6700
oli	-6701
nings	-6702
▁Journal	-6703
▁Matthew	-6704
omot	-6705
▁rose	-6706
▁Every	-6707
▁difficulty	-6708
▁basketball	-6709
pper	-6710
▁Mit	-6711
ewhere	-6712
agle	-6713
▁communities	-6714
▁restored	-6715
▁sam	-6716
▁ille	-6717
▁Ak	-6718
▁mo	-6719
▁expect	-6720
▁remember	-6721
▁programme	-6722
▁Dog	-6723
▁nav	-6724
▁Jews	-6725
▁premiere	-6726
▁Dean	-6727
▁delayed	-6728
burn	-6729
▁pure	-6730
▁relative	-6731
▁discovery	-6732
▁Nar	-6733
▁teen	-6734
▁DE	-6735
▁kid	-6736
▁inspiration	-6737
▁Open	-6738
▁greatly	-6739
▁otherwise	-6740
pping	-6741
▁anniversary	-6742
▁vide	-6743
▁injuries	-6744
▁USS	-6745
▁Hell	-6746
▁Again	-6747
▁accounts	-6748
▁neighbor	-6749
▁squ	-6750
▁Design	-6751
▁obl	-6752
▁Jacob	-6753
▁funding	-6754
▁surrounded	-6755
▁flank	-6756
▁spoke	-6757
▁Pow	-6758
▁praise	-6759
▁batting	-6760
▁needs	-6761
▁depict	-6762
▁penalty	-6763
▁1900	-6764
▁Iraq	-6765
▁PA	-6766
▁Whe	-6767
▁partner	-6768
▁massive	-6769
▁Der	-6770
▁fal	-6771
▁weapon	-6772
▁claiming	-6773
▁die	-6774
▁dens	-6775
anny	-6776
▁Thomp	-6777
▁crop	-6778
▁Ba	-6779
▁suit	-6780
▁Cab	-6781
▁forming	-6782
▁strategy	-6783
▁Sax	-6784
▁tries	-6785
ami	-6786
▁Bishop	-6787
▁Marine	-6788
▁assemb	-6789
▁Es	-6790
osh	-6791
▁astron	-6792
▁wrong	-6793
▁Domin	-6794
▁documentary	-6795
▁legend	-6796
▁ru	-6797
▁accompl	-6798
▁crosses	-6799
▁worst	-6800
▁Raj	-6801
▁Croatian	-6802
ici	-6803
yard	-6804
▁fled	-6805
CA	-6806
don	-6807
▁stands	-6808
▁Thompson	-6809
RA	-6810
▁Marg	-6811
▁temporary	-6812
▁architecture	-6813
ban	-6814
▁girls	-6815
▁Sports	-6816
▁determine	-6817
abil	-6818
▁tra	-6819
ca	-6820
▁dismissed	-6821
gets	-6822
▁gal	-6823
▁involvement	-6824
irt	-6825
▁Armen	-6826
▁Russell	-6827
uble	-6828
uther	-6829
▁recru	-6830
▁bombard	-6831
▁sale	-6832
ester	-6833
▁plane	-6834
formula	-6835
▁remn	-6836
▁category	-6837
real	-6838
▁Last	-6839
▁Glob	-6840
▁Centre	-6841
▁inner	-6842
▁adaptation	-6843
▁ensure	-6844
▁convinced	-6845
▁Dick	-6846
▁weekend	-6847
▁NFL	-6848
▁Oak	-6849
▁Puerto	-6850
▁hear	-6851
▁sight	-6852
▁lat	-6853
inder	-6854
▁Heart	-6855
▁Islam	-6856
▁somewhat	-6857
▁resources	-6858
▁Holy	-6859
▁interests	-6860
▁ash	-6861
going	-6862
▁reserv	-6863
▁rot	-6864
▁Kelly	-6865
▁Carter	-6866
▁medieval	-6867
▁immediate	-6868
▁displ	-6869
▁ha	-6870
▁scheme	-6871
▁shr	-6872
▁library	-6873
▁streets	-6874
▁presidential	-6875
oster	-6876
▁absor	-6877
▁Hop	-6878
▁cul	-6879
▁consp	-6880
▁Rick	-6881
▁Trib	-6882
▁falling	-6883
▁ray	-6884
▁Along	-6885
▁Cooper	-6886
▁carbon	-6887
▁colonial	-6888
agre	-6889
▁Modern	-6890
▁techniques	-6891
▁ninth	-6892
▁fighter	-6893
▁throne	-6894
▁Niel	-6895
▁starred	-6896
onds	-6897
▁scrap	-6898
▁appropri	-6899
▁classical	-6900
▁Brother	-6901
▁Mars	-6902
▁races	-6903
▁academic	-6904
body	-6905
▁Hend	-6906
▁eggs	-6907
▁adults	-6908
▁bright	-6909
▁hal	-6910
▁Network	-6911
▁commemor	-6912
▁passenger	-6913
▁ow	-6914
▁surviv	-6915
▁Hungarian	-6916
▁loyal	-6917
▁Winter	-6918
▁Front	-6919
▁ori	-6920
▁photograph	-6921
▁meets	-6922
itzer	-6923
▁lake	-6924
▁Wright	-6925
▁premiered	-6926
▁submarine	-6927
▁1913	-6928
▁Ele	-6929
▁absence	-6930
▁reviewer	-6931
▁Dor	-6932
▁Thus	-6933
▁seeing	-6934
▁Sn	-6935
▁Batman	-6936
▁fitted	-6937
▁else	-6938
edding	-6939
▁renew	-6940
▁superior	-6941
▁Spe	-6942
icide	-6943
wealth	-6944
▁sed	-6945
▁alien	-6946
▁engineer	-6947
▁favorite	-6948
▁interior	-6949
▁Free	-6950
▁Parker	-6951
▁Wy	-6952
osure	-6953
▁NC	-6954
ronze	-6955
▁ic	-6956
night	-6957
▁airport	-6958
▁partn	-6959
▁Labor	-6960
▁deemed	-6961
▁attacking	-6962
▁Harris	-6963
▁appearing	-6964
▁visible	-6965
▁Gard	-6966
▁conclusion	-6967
ania	-6968
▁1926	-6969
▁dating	-6970
▁romantic	-6971
▁Jam	-6972
acent	-6973
▁Bang	-6974
▁synthes	-6975
▁dub	-6976
▁characteristics	-6977
▁AI	-6978
▁elections	-6979
▁leads	-6980
▁operate	-6981
▁encouraged	-6982
ran	-6983
▁1927	-6984
▁facility	-6985
▁afterwards	-6986
▁retirement	-6987
▁DNA	-6988
▁landed	-6989
▁Library	-6990
▁colony	-6991
▁temperatures	-6992
▁convection	-6993
▁Murray	-6994
▁everyone	-6995
▁1921	-6996
ses	-6997
▁Pak	-6998
▁municip	-6999
bec	-7000
▁suffering	-7001
▁credit	-7002
▁legislation	-7003
▁1934	-7004
▁lies	-7005
▁holds	-7006
▁modified	-7007
▁Education	-7008
▁06	-7009
▁rum	-7010
▁painted	-7011
▁Knight	-7012
▁controversial	-7013
using	-7014
▁gone	-7015
▁Nob	-7016
asure	-7017
lyn	-7018
▁doct	-7019
▁wings	-7020
▁believes	-7021
ossible	-7022
utt	-7023
▁distributed	-7024
▁Houston	-7025
ixon	-7026
vens	-7027
▁attempting	-7028
▁code	-7029
urches	-7030
▁Police	-7031
roit	-7032
▁Late	-7033
▁Commander	-7034
▁standards	-7035
▁rescue	-7036
▁Berlin	-7037
▁looked	-7038
▁Palace	-7039
▁authors	-7040
ivan	-7041
▁Gri	-7042
▁secured	-7043
▁depicted	-7044
▁Simp	-7045
▁cancer	-7046
▁monarch	-7047
▁dominated	-7048
ogen	-7049
▁1912	-7050
▁battleship	-7051
aser	-7052
▁habitat	-7053
▁Advent	-7054
▁anyone	-7055
▁continuing	-7056
▁buy	-7057
▁judge	-7058
arsh	-7059
▁longest	-7060
▁pin	-7061
▁Santa	-7062
eor	-7063
apse	-7064
scape	-7065
coming	-7066
▁Swedish	-7067
▁biggest	-7068
▁Gh	-7069
▁unsuccessful	-7070
▁Commonwealth	-7071
▁grass	-7072
▁chairman	-7073
▁graphics	-7074
ito	-7075
oen	-7076
▁archae	-7077
▁trained	-7078
mun	-7079
rig	-7080
▁union	-7081
▁900	-7082
▁pound	-7083
emet	-7084
ugoslav	-7085
▁Roberts	-7086
▁Ut	-7087
chang	-7088
▁Story	-7089
▁Simpson	-7090
▁Tok	-7091
▁wins	-7092
▁sudden	-7093
▁arrangement	-7094
ultane	-7095
▁carrier	-7096
anth	-7097
▁1932	-7098
▁Cry	-7099
▁neck	-7100
▁Hospital	-7101
▁railroad	-7102
encies	-7103
▁Indians	-7104
▁nickn	-7105
▁jump	-7106
▁acknowled	-7107
igration	-7108
▁od	-7109
▁informed	-7110
▁measures	-7111
▁RAAF	-7112
eenth	-7113
▁san	-7114
rait	-7115
▁Get	-7116
▁representing	-7117
▁fer	-7118
▁map	-7119
emetery	-7120
ache	-7121
inals	-7122
apping	-7123
▁releases	-7124
▁Obs	-7125
▁belt	-7126
atically	-7127
▁Corporation	-7128
eline	-7129
▁achieve	-7130
oming	-7131
ture	-7132
▁Warner	-7133
▁garrison	-7134
▁sees	-7135
▁Cook	-7136
▁Yugoslav	-7137
▁formerly	-7138
▁Jason	-7139
▁generated	-7140
▁grade	-7141
▁convention	-7142
▁NBC	-7143
▁closer	-7144
▁deployed	-7145
▁styles	-7146
▁emergency	-7147
book	-7148
uster	-7149
▁Anthony	-7150
▁Ey	-7151
▁bats	-7152
ternal	-7153
▁Silver	-7154
tenance	-7155
▁Social	-7156
▁alleg	-7157
▁questions	-7158
▁moderate	-7159
aska	-7160
▁gets	-7161
▁trials	-7162
ón	-7163
▁Mort	-7164
▁festival	-7165
▁molec	-7166
▁siege	-7167
▁historic	-7168
▁influential	-7169
▁cycle	-7170
▁emotional	-7171
▁Est	-7172
▁Croatia	-7173
▁veter	-7174
opes	-7175
▁Yan	-7176
▁Detroit	-7177
fare	-7178
▁novels	-7179
▁owners	-7180
hire	-7181
▁Lyn	-7182
▁successor	-7183
▁influences	-7184
▁Merc	-7185
▁narrative	-7186
▁Gaga	-7187
▁RAF	-7188
▁1929	-7189
po	-7190
olph	-7191
▁Bou	-7192
▁thin	-7193
▁Track	-7194
▁journalist	-7195
vis	-7196
▁1911	-7197
▁childhood	-7198
▁experiences	-7199
otype	-7200
▁Bure	-7201
▁excess	-7202
▁stead	-7203
▁Author	-7204
iography	-7205
▁Chamber	-7206
▁constant	-7207
▁defended	-7208
▁discussed	-7209
▁legs	-7210
▁Gilbert	-7211
▁Princess	-7212
▁apparently	-7213
▁08	-7214
▁Belg	-7215
▁alco	-7216
▁pregn	-7217
owa	-7218
▁instruments	-7219
▁mathem	-7220
hess	-7221
▁eat	-7222
▁assass	-7223
▁treated	-7224
▁victims	-7225
aws	-7226
▁Spears	-7227
▁environmental	-7228
▁giant	-7229
▁veget	-7230
▁executed	-7231
▁coins	-7232
▁detail	-7233
ji	-7234
▁1931	-7235
yo	-7236
tic	-7237
▁diplom	-7238
▁1922	-7239
▁ster	-7240
▁Asian	-7241
▁offices	-7242
fire	-7243
▁140	-7244
▁Cru	-7245
▁factors	-7246
▁Jesus	-7247
har	-7248
▁depos	-7249
arked	-7250
▁mine	-7251
imore	-7252
▁hunting	-7253
▁enters	-7254
▁wooden	-7255
▁Melbourne	-7256
▁concur	-7257
▁bear	-7258
▁Somers	-7259
▁Nielsen	-7260
achment	-7261
noon	-7262
▁Pope	-7263
▁hundreds	-7264
aft	-7265
usted	-7266
▁maint	-7267
▁Hin	-7268
▁resigned	-7269
▁Vice	-7270
▁ride	-7271
▁Ult	-7272
▁Clinton	-7273
▁Xbox	-7274
▁skills	-7275
▁Desc	-7276
▁channel	-7277
▁gay	-7278
▁reveals	-7279
▁uniform	-7280
aste	-7281
▁ocean	-7282
▁Nevertheless	-7283
▁09	-7284
▁chapter	-7285
▁Evans	-7286
▁pointed	-7287
▁Category	-7288
▁bab	-7289
▁ridge	-7290
▁spend	-7291
▁watching	-7292
▁Guy	-7293
▁prevented	-7294
stances	-7295
▁clim	-7296
▁Stewart	-7297
iliar	-7298
▁preferred	-7299
▁PC	-7300
▁Muslim	-7301
▁Atlant	-7302
▁pushed	-7303
agu	-7304
▁format	-7305
▁locomot	-7306
▁languages	-7307
▁footage	-7308
▁happened	-7309
▁opponents	-7310
▁difference	-7311
▁Li	-7312
▁flew	-7313
▁drums	-7314
▁formally	-7315
▁thereafter	-7316
▁Heavy	-7317
▁facing	-7318
▁reportedly	-7319
▁Tower	-7320
▁resign	-7321
▁relationships	-7322
▁intense	-7323
▁thousand	-7324
▁Samuel	-7325
▁handed	-7326
▁Turkish	-7327
▁device	-7328
▁Origin	-7329
▁notably	-7330
▁Carib	-7331
▁Express	-7332
▁pull	-7333
icians	-7334
ogether	-7335
PA	-7336
rees	-7337
▁firing	-7338
▁animation	-7339
▁Wing	-7340
▁chain	-7341
▁Lennon	-7342
▁inhabit	-7343
▁existed	-7344
▁visitors	-7345
text	-7346
▁Sarah	-7347
tty	-7348
▁gather	-7349
▁vision	-7350
▁surrender	-7351
▁employees	-7352
▁Greece	-7353
▁Baltimore	-7354
▁Real	-7355
ais	-7356
▁accompany	-7357
orous	-7358
▁Austria	-7359
▁bon	-7360
▁Albums	-7361
una	-7362
▁linked	-7363
▁departed	-7364
▁exposed	-7365
▁participate	-7366
▁hearing	-7367
▁boil	-7368
▁Queens	-7369
▁poetry	-7370
20	-7371
▁Tal	-7372
▁dialogue	-7373
▁Benn	-7374
onies	-7375
▁Bird	-7376
▁extent	-7377
ching	-7378
bean	-7379
▁announce	-7380
▁detailed	-7381
spec	-7382
▁170	-7383
▁Colorado	-7384
▁substantial	-7385
▁learning	-7386
usic	-7387
▁audio	-7388
▁Organ	-7389
▁instance	-7390
▁universe	-7391
▁rebell	-7392
▁Lev	-7393
▁cruisers	-7394
IA	-7395
▁residential	-7396
▁Lane	-7397
▁beach	-7398
▁Writing	-7399
rum	-7400
ropolitan	-7401
▁impressed	-7402
▁Edd	-7403
▁bes	-7404
resent	-7405
▁periods	-7406
▁Initially	-7407
▁Hans	-7408
▁Rey	-7409
▁Marshall	-7410
endment	-7411
prise	-7412
▁huge	-7413
▁Foundation	-7414
iens	-7415
orage	-7416
▁publisher	-7417
▁Malays	-7418
uts	-7419
ullivan	-7420
▁taught	-7421
▁easy	-7422
hatt	-7423
raph	-7424
▁Dave	-7425
▁afternoon	-7426
▁util	-7427
▁plate	-7428
▁enthus	-7429
▁fil	-7430
stic	-7431
▁Stock	-7432
▁Frederick	-7433
▁territories	-7434
▁driver	-7435
▁stem	-7436
▁Chronic	-7437
▁testing	-7438
lie	-7439
▁videos	-7440
▁imprison	-7441
▁Ark	-7442
▁05	-7443
▁reviewers	-7444
boy	-7445
▁1928	-7446
▁happy	-7447
▁Wrestling	-7448
ois	-7449
▁tests	-7450
▁Aud	-7451
▁Having	-7452
iami	-7453
▁upd	-7454
▁tempor	-7455
rant	-7456
▁Raw	-7457
▁hat	-7458
itter	-7459
phy	-7460
▁understand	-7461
▁Banks	-7462
▁teeth	-7463
DS	-7464
unes	-7465
▁ske	-7466
▁sky	-7467
▁isolated	-7468
▁negotiations	-7469
▁x	-7470
▁vessel	-7471
▁Somerset	-7472
mad	-7473
▁feud	-7474
▁stable	-7475
▁diameter	-7476
▁inher	-7477
▁Ern	-7478
▁vul	-7479
ribed	-7480
▁sympt	-7481
▁agents	-7482
▁picked	-7483
▁reprodu	-7484
▁Horse	-7485
▁Horn	-7486
▁Bed	-7487
▁mart	-7488
▁Mario	-7489
▁1925	-7490
▁Anna	-7491
▁bridges	-7492
▁encountered	-7493
elle	-7494
▁goods	-7495
▁Release	-7496
▁withdrew	-7497
▁Lim	-7498
▁factor	-7499
▁Sym	-7500
▁diagn	-7501
▁sleep	-7502
▁teamm	-7503
▁junior	-7504
▁simultane	-7505
▁aged	-7506
▁founder	-7507
▁Mun	-7508
▁consol	-7509
▁dangerous	-7510
raf	-7511
▁Cz	-7512
▁normally	-7513
▁upgraded	-7514
▁reun	-7515
▁Anglo	-7516
▁Giants	-7517
▁Know	-7518
▁Jess	-7519
▁keeping	-7520
▁behavi	-7521
▁specimens	-7522
▁Miami	-7523
ican	-7524
orial	-7525
▁1890	-7526
▁pounds	-7527
▁Seattle	-7528
ogan	-7529
▁medium	-7530
ds	-7531
▁satell	-7532
▁window	-7533
icop	-7534
roke	-7535
▁frequent	-7536
▁lob	-7537
▁1924	-7538
▁sure	-7539
▁relie	-7540
▁tie	-7541
etime	-7542
▁ethnic	-7543
▁lowest	-7544
▁partly	-7545
▁collaps	-7546
oto	-7547
▁crisis	-7548
▁Championships	-7549
▁resear	-7550
▁engineering	-7551
▁toll	-7552
▁Player	-7553
▁prohib	-7554
▁Soon	-7555
▁traveled	-7556
▁apprec	-7557
▁Ot	-7558
▁whereas	-7559
▁organizations	-7560
▁proced	-7561
▁designer	-7562
▁lose	-7563
▁rarely	-7564
▁refers	-7565
sea	-7566
amese	-7567
▁diet	-7568
▁doesn	-7569
▁turrets	-7570
uv	-7571
▁technique	-7572
▁tone	-7573
▁Treaty	-7574
▁Iowa	-7575
▁outf	-7576
▁deter	-7577
▁spending	-7578
▁finale	-7579
▁mir	-7580
▁Alab	-7581
▁criticised	-7582
▁Ts	-7583
▁Trek	-7584
▁vice	-7585
▁advice	-7586
▁permission	-7587
▁vic	-7588
▁maintenance	-7589
usal	-7590
mission	-7591
▁Ra	-7592
otes	-7593
▁insc	-7594
▁platinum	-7595
▁uncertain	-7596
▁difficulties	-7597
▁Buck	-7598
borough	-7599
▁underw	-7600
▁policies	-7601
▁partially	-7602
▁Alabama	-7603
▁bypass	-7604
zy	-7605
▁Human	-7606
▁agree	-7607
▁verse	-7608
▁restric	-7609
▁Forces	-7610
▁compete	-7611
▁complic	-7612
▁mainstream	-7613
▁fur	-7614
▁indicate	-7615
▁ranking	-7616
▁personality	-7617
iece	-7618
lock	-7619
▁ca	-7620
▁recordings	-7621
alo	-7622
iy	-7623
uscript	-7624
▁Caribbean	-7625
olas	-7626
▁comments	-7627
▁excell	-7628
▁proport	-7629
igen	-7630
ennis	-7631
inction	-7632
▁remove	-7633
▁ax	-7634
helm	-7635
▁finals	-7636
▁liqu	-7637
▁refuge	-7638
▁anticip	-7639
ologists	-7640
▁Mississ	-7641
▁Lawrence	-7642
▁concerts	-7643
▁safe	-7644
▁chronic	-7645
igs	-7646
▁Napole	-7647
ygen	-7648
▁seats	-7649
▁windows	-7650
ilst	-7651
gery	-7652
▁unn	-7653
▁1923	-7654
▁Yanke	-7655
▁Charlie	-7656
kes	-7657
▁ML	-7658
urance	-7659
▁restrict	-7660
oked	-7661
▁falls	-7662
▁rates	-7663
attered	-7664
▁recommend	-7665
▁strip	-7666
▁extreme	-7667
▁fighters	-7668
▁honour	-7669
▁pitched	-7670
▁repair	-7671
▁Minnes	-7672
▁covers	-7673
aria	-7674
▁Ext	-7675
▁recur	-7676
▁representative	-7677
▁Then	-7678
▁Canal	-7679
▁symp	-7680
▁divor	-7681
▁Senator	-7682
▁Crown	-7683
▁moral	-7684
▁monument	-7685
▁jur	-7686
▁mamm	-7687
▁alter	-7688
▁tenth	-7689
xual	-7690
▁truth	-7691
▁prompted	-7692
▁phen	-7693
▁phr	-7694
▁brand	-7695
away	-7696
▁describe	-7697
▁Buff	-7698
▁hockey	-7699
▁Bros	-7700
▁forcing	-7701
▁Sab	-7702
▁tot	-7703
▁destroyers	-7704
chell	-7705
▁minimum	-7706
▁Ministry	-7707
▁Ian	-7708
▁shear	-7709
▁reconst	-7710
roc	-7711
▁Township	-7712
▁Garden	-7713
▁churches	-7714
▁neighborhood	-7715
▁diff	-7716
▁friendly	-7717
▁Cre	-7718
▁boys	-7719
▁hull	-7720
▁overs	-7721
▁Grammy	-7722
▁examples	-7723
▁bases	-7724
▁Hungary	-7725
▁drawing	-7726
▁Nazi	-7727
power	-7728
▁travelled	-7729
iac	-7730
▁Hand	-7731
▁Country	-7732
▁bombers	-7733
▁pric	-7734
▁tub	-7735
▁McD	-7736
▁dynasty	-7737
▁Call	-7738
▁doctor	-7739
▁adjacent	-7740
▁inaug	-7741
▁housing	-7742
▁displayed	-7743
▁Benj	-7744
▁approval	-7745
isd	-7746
▁Health	-7747
▁07	-7748
▁Return	-7749
▁Australians	-7750
anium	-7751
▁Belgium	-7752
MA	-7753
▁Fran	-7754
▁Dance	-7755
▁credits	-7756
icy	-7757
▁USD	-7758
▁Hamp	-7759
▁creator	-7760
▁Christopher	-7761
gro	-7762
▁grown	-7763
▁joining	-7764
▁listing	-7765
▁tribute	-7766
▁Diego	-7767
▁collapse	-7768
▁partnership	-7769
aya	-7770
▁Blood	-7771
▁protagonist	-7772
▁Medal	-7773
▁Polit	-7774
▁Shakesp	-7775
rain	-7776
▁Event	-7777
▁changing	-7778
▁*	-7779
gas	-7780
▁acted	-7781
▁moments	-7782
▁creative	-7783
▁designation	-7784
▁explo	-7785
▁powered	-7786
FC	-7787
▁copy	-7788
alions	-7789
ugby	-7790
olis	-7791
▁fung	-7792
▁Children	-7793
▁MP	-7794
onnaissance	-7795
▁asks	-7796
▁refere	-7797
▁turb	-7798
▁radar	-7799
▁trend	-7800
▁Cold	-7801
▁storms	-7802
▁villages	-7803
▁instrumental	-7804
jo	-7805
▁appointment	-7806
▁arts	-7807
▁dollars	-7808
▁orb	-7809
▁1905	-7810
▁treaty	-7811
▁Much	-7812
▁scientists	-7813
▁1908	-7814
▁advis	-7815
ls	-7816
velt	-7817
▁canal	-7818
▁possession	-7819
▁CR	-7820
▁Roc	-7821
▁Op	-7822
▁rounds	-7823
▁survive	-7824
▁victories	-7825
▁Guardian	-7826
▁paintings	-7827
▁Mach	-7828
▁Legacy	-7829
▁Benjamin	-7830
▁Represent	-7831
▁eliminated	-7832
▁Nat	-7833
▁covering	-7834
▁mand	-7835
▁1909	-7836
imeter	-7837
ounced	-7838
▁Roose	-7839
▁truck	-7840
▁minimal	-7841
▁ju	-7842
▁Cred	-7843
▁orbit	-7844
▁els	-7845
▁precip	-7846
▁telling	-7847
▁elsewhere	-7848
▁Vietnamese	-7849
▁Hockey	-7850
▁Michel	-7851
▁Record	-7852
▁newspapers	-7853
▁benefit	-7854
▁surprise	-7855
mers	-7856
▁innov	-7857
col	-7858
uda	-7859
▁seeking	-7860
▁arriving	-7861
▁Hills	-7862
▁helping	-7863
icts	-7864
▁occupation	-7865
▁wheel	-7866
▁suicide	-7867
▁grav	-7868
▁rhythm	-7869
▁purposes	-7870
▁Minnesota	-7871
▁Laure	-7872
▁values	-7873
▁dispute	-7874
▁Rand	-7875
ivated	-7876
▁occasions	-7877
▁DC	-7878
▁Hud	-7879
▁unlike	-7880
▁Æ	-7881
ogy	-7882
▁ped	-7883
otten	-7884
▁Khan	-7885
▁Alfred	-7886
▁Dead	-7887
▁loan	-7888
▁smooth	-7889
▁Dur	-7890
▁twin	-7891
ecraft	-7892
itud	-7893
▁pool	-7894
rupted	-7895
▁option	-7896
▁gard	-7897
active	-7898
▁Manhatt	-7899
▁manuscript	-7900
▁fishing	-7901
▁struggle	-7902
▁Interstate	-7903
▁marry	-7904
▁Walker	-7905
▁Manhattan	-7906
ES	-7907
idi	-7908
▁soil	-7909
▁Franklin	-7910
ods	-7911
▁Kurt	-7912
chen	-7913
▁brick	-7914
▁Ll	-7915
▁Lin	-7916
▁wet	-7917
▁murd	-7918
forced	-7919
▁balance	-7920
ouri	-7921
▁degrees	-7922
▁gat	-7923
▁Roosevelt	-7924
▁preserved	-7925
rim	-7926
▁schedule	-7927
bra	-7928
ographical	-7929
rows	-7930
▁Administ	-7931
rad	-7932
▁Hind	-7933
sters	-7934
▁Trust	-7935
▁Perform	-7936
atus	-7937
▁1907	-7938
▁Peninsula	-7939
▁publicly	-7940
▁Ah	-7941
▁Flight	-7942
▁categ	-7943
▁cryst	-7944
atherine	-7945
▁cooper	-7946
▁violent	-7947
enh	-7948
▁candidates	-7949
▁resumed	-7950
iders	-7951
▁flash	-7952
▁emperor	-7953
▁neighbour	-7954
ée	-7955
▁pilots	-7956
▁wedding	-7957
▁competed	-7958
Ar	-7959
▁125	-7960
▁survivors	-7961
▁Kansas	-7962
munition	-7963
▁105	-7964
▁164	-7965
▁abilities	-7966
▁Industry	-7967
roid	-7968
▁Lam	-7969
▁dies	-7970
▁procl	-7971
▁neutral	-7972
overs	-7973
▁span	-7974
▁discip	-7975
▁Shel	-7976
▁Mississipp	-7977
incial	-7978
▁Satur	-7979
▁intensified	-7980
30	-7981
▁beautiful	-7982
▁impossible	-7983
entional	-7984
▁Portland	-7985
▁alignment	-7986
▁Comb	-7987
▁teaching	-7988
ishment	-7989
▁coordin	-7990
▁defeating	-7991
▁advoc	-7992
▁argument	-7993
▁Anim	-7994
▁Thor	-7995
▁cook	-7996
▁multi	-7997
▁wrest	-7998
▁assisted	-7999
ante	-8000
▁Ban	-8001
▁custom	-8002
▁concrete	-8003
▁Nash	-8004
▁poison	-8005
▁electronic	-8006
▁lists	-8007
▁consult	-8008
▁helicop	-8009
▁nations	-8010
acle	-8011
oking	-8012
▁Beck	-8013
▁grey	-8014
▁Hotel	-8015
rome	-8016
▁prosp	-8017
▁Building	-8018
▁Set	-8019
▁Tun	-8020
▁rivers	-8021
▁serial	-8022
▁Fal	-8023
▁Born	-8024
▁Hong	-8025
▁lem	-8026
▁absol	-8027
▁opponent	-8028
▁assists	-8029
▁interesting	-8030
▁elabor	-8031
▁foundation	-8032
▁agricultural	-8033
rot	-8034
▁businesses	-8035
▁Aff	-8036
ensions	-8037
▁Ice	-8038
▁Digital	-8039
▁suitable	-8040
▁Bull	-8041
▁Cole	-8042
▁simpl	-8043
▁backing	-8044
▁1880	-8045
▁Lith	-8046
▁overt	-8047
▁oxygen	-8048
▁tunnel	-8049
▁submitted	-8050
▁danc	-8051
▁signing	-8052
▁understanding	-8053
▁Div	-8054
▁Fried	-8055
▁mines	-8056
▁fifteen	-8057
eare	-8058
ilty	-8059
▁scholar	-8060
▁encounter	-8061
obile	-8062
▁symptoms	-8063
▁165	-8064
▁citing	-8065
▁Gab	-8066
odore	-8067
▁waves	-8068
▁behalf	-8069
cop	-8070
▁sunk	-8071
▁percentage	-8072
▁Shakespeare	-8073
itated	-8074
ulating	-8075
▁Area	-8076
▁Halo	-8077
▁Native	-8078
▁forests	-8079
eu	-8080
▁AR	-8081
▁parish	-8082
▁Tenness	-8083
▁situated	-8084
▁spiritual	-8085
▁forty	-8086
▁ninet	-8087
▁Blues	-8088
▁signs	-8089
▁Rap	-8090
▁closing	-8091
▁sank	-8092
▁subjects	-8093
▁Son	-8094
▁Hindu	-8095
▁Ward	-8096
▁ammunition	-8097
▁voiced	-8098
▁Athlet	-8099
ila	-8100
▁usual	-8101
▁Alexand	-8102
▁illness	-8103
▁Campbell	-8104
▁repairs	-8105
▁Offic	-8106
onymous	-8107
▁Sullivan	-8108
▁resolution	-8109
▁01	-8110
ctic	-8111
▁Brun	-8112
rix	-8113
▁Steven	-8114
▁Hero	-8115
▁Cob	-8116
▁asking	-8117
▁corpor	-8118
▁functions	-8119
▁Hu	-8120
uman	-8121
▁Rang	-8122
▁disaster	-8123
▁imperial	-8124
▁collaboration	-8125
▁attendance	-8126
▁Wolf	-8127
▁assess	-8128
zz	-8129
▁04	-8130
▁lieutenant	-8131
▁restaurant	-8132
▁Vinc	-8133
▁evil	-8134
▁Lucas	-8135
alities	-8136
▁Egyptian	-8137
▁audiences	-8138
▁Margaret	-8139
▁controll	-8140
▁feelings	-8141
▁underground	-8142
rams	-8143
▁junction	-8144
▁Friend	-8145
▁worship	-8146
▁deliber	-8147
▁flights	-8148
▁nom	-8149
▁Kings	-8150
▁affairs	-8151
▁suspended	-8152
li	-8153
▁skull	-8154
▁Si	-8155
▁Ple	-8156
father	-8157
▁Mississippi	-8158
face	-8159
▁Tennessee	-8160
▁Dw	-8161
▁exit	-8162
▁VI	-8163
▁Stevens	-8164
▁Race	-8165
▁Apple	-8166
▁willing	-8167
▁earthqu	-8168
▁targets	-8169
▁1906	-8170
▁cargo	-8171
▁Louisiana	-8172
▁recre	-8173
▁affair	-8174
▁funeral	-8175
▁Montreal	-8176
▁Box	-8177
▁Lad	-8178
▁poorly	-8179
▁operational	-8180
▁Historic	-8181
▁1904	-8182
▁Dest	-8183
▁abol	-8184
▁measured	-8185
odge	-8186
▁documents	-8187
▁compilation	-8188
▁Missouri	-8189
isp	-8190
▁aimed	-8191
▁filed	-8192
iveness	-8193
▁Labour	-8194
▁pron	-8195
▁Warren	-8196
▁Wol	-8197
▁Palest	-8198
▁registered	-8199
▁360	-8200
uable	-8201
▁circuit	-8202
▁1870	-8203
asters	-8204
▁mountains	-8205
▁Depression	-8206
▁Philippines	-8207
sex	-8208
▁lect	-8209
▁initi	-8210
▁string	-8211
▁elder	-8212
▁favorable	-8213
▁Tag	-8214
▁Prom	-8215
▁statue	-8216
▁liked	-8217
▁anch	-8218
▁Mitchell	-8219
▁recognised	-8220
▁explosion	-8221
▁adopt	-8222
▁Harvey	-8223
▁prol	-8224
▁professor	-8225
▁represents	-8226
▁temporarily	-8227
▁Billy	-8228
▁entertainment	-8229
lah	-8230
▁sector	-8231
▁rout	-8232
▁replacing	-8233
ipped	-8234
rator	-8235
▁sequences	-8236
ta	-8237
▁McL	-8238
▁Critics	-8239
▁fifty	-8240
▁jazz	-8241
amps	-8242
aron	-8243
▁wreck	-8244
▁offering	-8245
▁shells	-8246
▁Dom	-8247
▁artwork	-8248
inea	-8249
overe	-8250
▁wore	-8251
▁Small	-8252
▁margin	-8253
▁interpre	-8254
▁residence	-8255
▁preparation	-8256
ception	-8257
▁Dragon	-8258
▁Graham	-8259
ateur	-8260
▁Independent	-8261
▁Mack	-8262
species	-8263
amic	-8264
▁reflected	-8265
ifer	-8266
▁wel	-8267
weet	-8268
▁reluct	-8269
▁alliance	-8270
▁directors	-8271
▁restoration	-8272
▁Czech	-8273
▁prime	-8274
▁expensive	-8275
▁Non	-8276
▁bot	-8277
orders	-8278
▁cyl	-8279
▁Business	-8280
▁terror	-8281
▁touring	-8282
▁overw	-8283
▁alcohol	-8284
▁amongst	-8285
▁Joh	-8286
▁completing	-8287
▁Near	-8288
issions	-8289
▁thinking	-8290
▁suggesting	-8291
▁UE	-8292
▁Fem	-8293
▁py	-8294
▁banks	-8295
▁nucle	-8296
▁cancelled	-8297
ylan	-8298
ancell	-8299
artney	-8300
inental	-8301
▁rebuilt	-8302
bishop	-8303
▁coverage	-8304
▁Nag	-8305
▁rig	-8306
atics	-8307
▁Kirk	-8308
▁horror	-8309
ques	-8310
▁Ariz	-8311
▁pulled	-8312
▁escaped	-8313
▁Cuba	-8314
▁Seven	-8315
▁wasn	-8316
▁Guide	-8317
▁amounts	-8318
▁decides	-8319
rm	-8320
dale	-8321
▁erupt	-8322
agen	-8323
▁Grey	-8324
▁reven	-8325
andal	-8326
▁dimens	-8327
▁Edge	-8328
▁lacked	-8329
idel	-8330
▁Mes	-8331
ellect	-8332
▁racing	-8333
▁tribes	-8334
SP	-8335
osm	-8336
uary	-8337
▁cous	-8338
▁dramatic	-8339
▁bay	-8340
▁subt	-8341
▁Magn	-8342
▁Phoen	-8343
▁clearly	-8344
▁patterns	-8345
TA	-8346
▁communication	-8347
phony	-8348
overeign	-8349
▁predomin	-8350
▁Files	-8351
▁engagement	-8352
▁Cow	-8353
▁ownership	-8354
▁argues	-8355
▁familiar	-8356
▁Ring	-8357
▁Tamil	-8358
▁Vis	-8359
▁frig	-8360
▁marks	-8361
▁garden	-8362
quir	-8363
▁Arizona	-8364
▁armored	-8365
▁ben	-8366
▁perspective	-8367
▁Mess	-8368
▁colonies	-8369
▁saved	-8370
▁Indies	-8371
▁Ku	-8372
▁Persian	-8373
▁drove	-8374
▁Saturday	-8375
▁contributions	-8376
▁Snow	-8377
▁wicket	-8378
▁cod	-8379
▁Maur	-8380
▁Sony	-8381
▁Hem	-8382
▁merchant	-8383
▁solution	-8384
urally	-8385
▁tru	-8386
▁fastest	-8387
▁artistic	-8388
▁administrative	-8389
▁Dylan	-8390
▁remnants	-8391
rage	-8392
▁playoffs	-8393
▁print	-8394
ski	-8395
▁characterized	-8396
unch	-8397
▁Ren	-8398
idency	-8399
eron	-8400
▁rit	-8401
ieties	-8402
▁boundary	-8403
▁Josh	-8404
▁Scout	-8405
▁execut	-8406
▁rising	-8407
▁Ye	-8408
▁crews	-8409
▁false	-8410
▁kings	-8411
▁militia	-8412
▁severely	-8413
▁institutions	-8414
okes	-8415
▁seed	-8416
▁Marie	-8417
orious	-8418
▁armament	-8419
▁tag	-8420
▁badly	-8421
▁disappoin	-8422
▁depending	-8423
▁retail	-8424
▁flagship	-8425
▁Confederate	-8426
▁obv	-8427
▁bulk	-8428
▁earning	-8429
▁genetic	-8430
▁distinctive	-8431
▁Bureau	-8432
▁bowling	-8433
▁gang	-8434
▁explains	-8435
no	-8436
▁ranks	-8437
▁recip	-8438
▁bronze	-8439
▁Oklah	-8440
▁restricted	-8441
▁03	-8442
▁frust	-8443
▁fallen	-8444
▁ideal	-8445
▁notice	-8446
▁comparison	-8447
bl	-8448
rep	-8449
▁Lov	-8450
▁excav	-8451
orer	-8452
▁demonstrated	-8453
cho	-8454
▁explain	-8455
▁ranging	-8456
▁earn	-8457
▁poems	-8458
▁condem	-8459
▁115	-8460
▁Kal	-8461
▁Cher	-8462
▁controls	-8463
▁inhabitants	-8464
cru	-8465
▁draf	-8466
▁threw	-8467
▁arrive	-8468
▁context	-8469
orph	-8470
▁inland	-8471
▁riders	-8472
▁Switzer	-8473
▁Sin	-8474
storm	-8475
▁Murphy	-8476
▁practices	-8477
nik	-8478
ectic	-8479
mented	-8480
▁Mrs	-8481
▁sisters	-8482
▁kW	-8483
omber	-8484
▁quiet	-8485
▁wants	-8486
uations	-8487
▁mental	-8488
▁satisf	-8489
▁Wilhelm	-8490
▁loop	-8491
▁electron	-8492
▁Switzerland	-8493
▁conservative	-8494
rating	-8495
▁wider	-8496
▁faster	-8497
exp	-8498
pan	-8499
▁maneu	-8500
▁shield	-8501
▁Program	-8502
▁gap	-8503
▁exclud	-8504
formation	-8505
▁autob	-8506
▁surge	-8507
▁Econom	-8508
▁Broadway	-8509
▁reaches	-8510
▁spotted	-8511
▁distinguished	-8512
uki	-8513
▁Liz	-8514
▁pace	-8515
▁revol	-8516
▁174	-8517
▁plus	-8518
▁vulner	-8519
▁evolved	-8520
▁northward	-8521
equ	-8522
sky	-8523
gate	-8524
ivia	-8525
▁101	-8526
▁1901	-8527
▁Barry	-8528
▁acceler	-8529
▁meat	-8530
anches	-8531
▁Chand	-8532
▁application	-8533
life	-8534
▁synd	-8535
▁Oklahoma	-8536
▁EP	-8537
▁kit	-8538
itting	-8539
▁exhibition	-8540
▁Austrian	-8541
▁millimet	-8542
▁ABC	-8543
▁Mik	-8544
▁nominations	-8545
unc	-8546
▁agency	-8547
▁quarterback	-8548
▁protein	-8549
▁subspecies	-8550
▁satellite	-8551
▁Such	-8552
▁gate	-8553
ocking	-8554
▁Federation	-8555
▁prepare	-8556
▁dominant	-8557
▁households	-8558
ridge	-8559
▁palace	-8560
▁predicted	-8561
ruption	-8562
athy	-8563
▁frame	-8564
▁triple	-8565
otton	-8566
▁Delaware	-8567
▁slaves	-8568
▁storage	-8569
▁Amy	-8570
▁Ped	-8571
▁Original	-8572
bre	-8573
▁1903	-8574
▁obtain	-8575
sequently	-8576
▁tex	-8577
▁1902	-8578
estone	-8579
inations	-8580
▁Lithuan	-8581
▁Tan	-8582
▁abund	-8583
▁printed	-8584
CC	-8585
▁articles	-8586
▁attained	-8587
▁carriers	-8588
▁intellect	-8589
▁repeatedly	-8590
▁fixed	-8591
▁Leslie	-8592
▁allies	-8593
▁predecessor	-8594
oga	-8595
▁spr	-8596
▁stores	-8597
▁surgery	-8598
▁vertical	-8599
▁vs	-8600
▁Perry	-8601
▁peaking	-8602
▁vast	-8603
▁155	-8604
▁yield	-8605
▁philosophy	-8606
▁vel	-8607
▁signal	-8608
▁strict	-8609
▁adventure	-8610
▁biographer	-8611
▁blocks	-8612
urer	-8613
▁excellent	-8614
▁disagre	-8615
▁Originally	-8616
acked	-8617
▁boss	-8618
anton	-8619
azing	-8620
▁illegal	-8621
▁phenomen	-8622
asts	-8623
▁Baby	-8624
▁Harv	-8625
▁perceived	-8626
▁bombs	-8627
▁choose	-8628
▁seriously	-8629
rine	-8630
rates	-8631
▁Denmark	-8632
▁Rico	-8633
▁Jonathan	-8634
▁remarked	-8635
▁westward	-8636
▁apartment	-8637
oven	-8638
agasc	-8639
▁Tokyo	-8640
▁pretty	-8641
▁waiting	-8642
▁Nik	-8643
▁Ridge	-8644
▁useful	-8645
▁comfort	-8646
▁Rih	-8647
▁circumstances	-8648
fe	-8649
▁Clar	-8650
▁thor	-8651
aughters	-8652
▁Players	-8653
▁curren	-8654
riptions	-8655
▁Atlanta	-8656
▁Baseball	-8657
ori	-8658
▁Rihanna	-8659
▁surrend	-8660
▁meetings	-8661
▁battalions	-8662
▁drugs	-8663
▁sket	-8664
▁coinc	-8665
▁dollar	-8666
oned	-8667
▁tight	-8668
itage	-8669
▁Nixon	-8670
▁layer	-8671
▁Johnny	-8672
▁readers	-8673
▁civilian	-8674
▁Fif	-8675
▁armour	-8676
▁whilst	-8677
ibl	-8678
acon	-8679
▁Abbey	-8680
fish	-8681
imen	-8682
▁Less	-8683
▁phone	-8684
▁Bomb	-8685
▁sick	-8686
▁Bernard	-8687
▁matters	-8688
▁institution	-8689
▁breat	-8690
▁Mother	-8691
▁casting	-8692
▁friendship	-8693
▁strengthened	-8694
▁visiting	-8695
▁gust	-8696
▁tiss	-8697
▁Territ	-8698
▁planets	-8699
▁Campaign	-8700
▁reconnaissance	-8701
▁similarly	-8702
▁retain	-8703
▁chamber	-8704
▁simultaneously	-8705
icate	-8706
▁Edwards	-8707
apolis	-8708
▁legacy	-8709
▁Juan	-8710
▁demanded	-8711
▁alternate	-8712
▁typhoon	-8713
eton	-8714
mingham	-8715
rik	-8716
▁168	-8717
▁Pitts	-8718
▁panel	-8719
▁Arnold	-8720
▁justice	-8721
pha	-8722
▁DS	-8723
▁empt	-8724
▁enlisted	-8725
▁Hann	-8726
▁alive	-8727
▁Ru	-8728
▁insisted	-8729
rus	-8730
rose	-8731
▁Tel	-8732
▁Roll	-8733
▁Railroad	-8734
sk	-8735
onomy	-8736
▁shipping	-8737
avery	-8738
▁Brig	-8739
▁horn	-8740
▁revers	-8741
arant	-8742
▁roots	-8743
▁revenue	-8744
▁promised	-8745
▁Keith	-8746
▁bombing	-8747
▁demands	-8748
adi	-8749
estyle	-8750
▁Jimmy	-8751
▁Prize	-8752
▁tack	-8753
▁possess	-8754
arth	-8755
▁lanes	-8756
▁athletes	-8757
▁personally	-8758
▁hook	-8759
▁console	-8760
▁Ral	-8761
▁drivers	-8762
▁Internet	-8763
▁struggled	-8764
▁definition	-8765
entle	-8766
▁mainland	-8767
▁looks	-8768
▁Rachel	-8769
▁portions	-8770
rast	-8771
▁Lex	-8772
▁pione	-8773
aration	-8774
▁conscious	-8775
▁orchestra	-8776
▁audition	-8777
▁Wor	-8778
▁Chel	-8779
▁Madagasc	-8780
abs	-8781
▁Bh	-8782
▁sung	-8783
lus	-8784
▁backed	-8785
▁propag	-8786
▁democr	-8787
▁behaviour	-8788
roph	-8789
▁Yankees	-8790
▁continu	-8791
▁guitarist	-8792
dy	-8793
▁Cra	-8794
▁diver	-8795
▁Wag	-8796
▁jobs	-8797
▁Tracy	-8798
▁guilty	-8799
▁artific	-8800
▁marketing	-8801
TW	-8802
▁armies	-8803
▁demolished	-8804
▁Opp	-8805
▁Inn	-8806
inian	-8807
regation	-8808
▁Birmingham	-8809
▁Soul	-8810
▁dancing	-8811
▁surpass	-8812
▁starring	-8813
▁Furthermore	-8814
▁Pars	-8815
▁ruling	-8816
▁Hur	-8817
▁feels	-8818
▁factory	-8819
▁increases	-8820
acre	-8821
▁Obama	-8822
▁profile	-8823
▁Eventually	-8824
▁Nine	-8825
▁subst	-8826
erk	-8827
uma	-8828
odox	-8829
▁McM	-8830
▁heading	-8831
▁166	-8832
▁Hugh	-8833
▁mining	-8834
▁compens	-8835
▁counties	-8836
lain	-8837
▁Shaw	-8838
▁indu	-8839
azines	-8840
▁theater	-8841
▁Lost	-8842
▁Pil	-8843
▁rub	-8844
▁pages	-8845
▁Universal	-8846
▁essential	-8847
▁Enterprise	-8848
▁believing	-8849
▁organisation	-8850
ghan	-8851
▁Ald	-8852
▁Canter	-8853
▁pursue	-8854
▁McCartney	-8855
▁Rat	-8856
▁punk	-8857
▁bonus	-8858
▁discont	-8859
▁discovers	-8860
▁expression	-8861
▁02	-8862
▁affect	-8863
▁Phoenix	-8864
▁delivery	-8865
tery	-8866
▁Gray	-8867
arr	-8868
inding	-8869
▁multipl	-8870
▁clothing	-8871
din	-8872
▁obst	-8873
▁Hudson	-8874
▁succeed	-8875
▁ports	-8876
▁Baker	-8877
eland	-8878
▁Ton	-8879
▁mobile	-8880
▁Jup	-8881
▁Cost	-8882
▁Vik	-8883
▁Buddh	-8884
▁crest	-8885
▁elevation	-8886
▁Bobby	-8887
▁Bach	-8888
▁Chen	-8889
▁Girls	-8890
▁patron	-8891
▁Connectic	-8892
▁Publ	-8893
▁Wayne	-8894
▁109	-8895
▁Madagascar	-8896
ouver	-8897
▁acou	-8898
▁doubt	-8899
▁secretary	-8900
emen	-8901
▁Comple	-8902
acc	-8903
folk	-8904
▁Pearl	-8905
▁drink	-8906
▁engage	-8907
▁forecast	-8908
▁Connecticut	-8909
LC	-8910
▁kiss	-8911
▁accum	-8912
▁Impact	-8913
▁Defence	-8914
▁Fat	-8915
▁rif	-8916
rov	-8917
▁sq	-8918
▁horiz	-8919
▁cup	-8920
▁stick	-8921
▁altered	-8922
▁overseas	-8923
tario	-8924
▁Mans	-8925
▁Morrison	-8926
▁Iran	-8927
▁Todd	-8928
▁chest	-8929
▁Bosn	-8930
▁mayor	-8931
▁Rights	-8932
▁deterior	-8933
py	-8934
umps	-8935
▁Ontario	-8936
▁Peace	-8937
▁listen	-8938
▁defences	-8939
atern	-8940
▁expand	-8941
▁erected	-8942
▁baby	-8943
ultan	-8944
irty	-8945
▁cancel	-8946
▁settlers	-8947
▁compounds	-8948
cles	-8949
▁bid	-8950
▁renov	-8951
ication	-8952
▁Canterbury	-8953
inces	-8954
▁stress	-8955
▁Karl	-8956
▁Friday	-8957
▁Rub	-8958
shore	-8959
▁Stat	-8960
▁salt	-8961
▁Works	-8962
▁legislature	-8963
grad	-8964
▁musician	-8965
otyp	-8966
▁objective	-8967
iph	-8968
▁Maj	-8969
▁Leonard	-8970
▁Community	-8971
▁raising	-8972
▁highways	-8973
▁decisions	-8974
▁aerial	-8975
warf	-8976
▁disl	-8977
▁Allies	-8978
▁voy	-8979
▁aftermath	-8980
▁concentration	-8981
AC	-8982
▁solar	-8983
▁campaigns	-8984
▁conversion	-8985
ensively	-8986
▁orn	-8987
▁liquid	-8988
▁conspir	-8989
▁soldier	-8990
▁wait	-8991
▁exactly	-8992
▁sitting	-8993
▁indicating	-8994
owed	-8995
asant	-8996
▁hidden	-8997
▁Foreign	-8998
tha	-8999
▁Bi	-9000
▁prove	-9001
▁wealthy	-9002
▁scen	-9003
▁Spart	-9004
▁organised	-9005
▁acknowledged	-9006
▁Cyr	-9007
▁Hold	-9008
▁Lang	-9009
▁Pruss	-9010
▁wrestling	-9011
▁trouble	-9012
▁permitted	-9013
▁dissipated	-9014
▁improvements	-9015
annon	-9016
▁happ	-9017
▁danger	-9018
▁striking	-9019
▁graduated	-9020
▁Manu	-9021
▁Micro	-9022
▁dressed	-9023
▁realized	-9024
▁appropriate	-9025
▁Windows	-9026
▁confron	-9027
▁ski	-9028
▁Diam	-9029
▁Boys	-9030
▁radical	-9031
atropical	-9032
▁execution	-9033
▁Goth	-9034
▁UEFA	-9035
▁Griff	-9036
▁meter	-9037
▁parent	-9038
▁Napoleon	-9039
▁observations	-9040
▁Fel	-9041
irts	-9042
▁Patt	-9043
▁raids	-9044
▁Outstanding	-9045
▁removal	-9046
▁NAS	-9047
▁profit	-9048
▁travels	-9049
bird	-9050
pent	-9051
▁fewer	-9052
▁venue	-9053
▁celebrated	-9054
▁interpretation	-9055
▁encl	-9056
▁aggressive	-9057
▁publications	-9058
oker	-9059
uese	-9060
aments	-9061
▁initiated	-9062
▁Ay	-9063
oons	-9064
rawn	-9065
ifies	-9066
▁turret	-9067
▁theatrical	-9068
▁Kit	-9069
▁chapel	-9070
▁requires	-9071
▁publishing	-9072
▁evacuated	-9073
elli	-9074
▁debt	-9075
▁Season	-9076
ancouver	-9077
▁Gary	-9078
▁jurisd	-9079
▁origins	-9080
▁founding	-9081
▁originated	-9082
EC	-9083
inister	-9084
▁Vancouver	-9085
▁stationed	-9086
▁sharp	-9087
▁explan	-9088
▁Tol	-9089
▁Legend	-9090
▁cannon	-9091
▁Jupiter	-9092
▁establishing	-9093
agg	-9094
▁Da	-9095
▁Sem	-9096
itals	-9097
▁connect	-9098
▁defending	-9099
▁rebellion	-9100
ulous	-9101
▁Edin	-9102
ivation	-9103
▁shorter	-9104
▁considering	-9105
▁announcement	-9106
▁arrangements	-9107
agh	-9108
aro	-9109
▁152	-9110
▁net	-9111
▁Lion	-9112
▁supple	-9113
raction	-9114
▁cutting	-9115
▁Bath	-9116
▁brill	-9117
▁guarant	-9118
▁Pakistan	-9119
▁bones	-9120
▁Mountains	-9121
mund	-9122
▁Gate	-9123
▁Mint	-9124
▁tort	-9125
▁fantasy	-9126
▁Champions	-9127
▁steps	-9128
stan	-9129
▁TNA	-9130
▁Drive	-9131
▁magazines	-9132
▁connecting	-9133
rac	-9134
▁Dall	-9135
▁Laur	-9136
itudes	-9137
▁approaching	-9138
▁hosts	-9139
autical	-9140
▁aspect	-9141
▁donated	-9142
▁extratropical	-9143
▁Cycl	-9144
▁placing	-9145
▁walking	-9146
adier	-9147
▁mush	-9148
▁magic	-9149
▁strategic	-9150
▁lying	-9151
▁Bradman	-9152
▁Portuguese	-9153
▁Champion	-9154
▁insects	-9155
▁ongoing	-9156
▁discussion	-9157
▁Administration	-9158
itively	-9159
▁μ	-9160
ennium	-9161
▁talent	-9162
▁colleagues	-9163
▁lin	-9164
▁memor	-9165
▁edited	-9166
jan	-9167
▁outl	-9168
▁funny	-9169
▁Triple	-9170
▁youngest	-9171
▁closest	-9172
hears	-9173
▁Æthel	-9174
▁predict	-9175
▁gathered	-9176
▁hypothes	-9177
▁qualified	-9178
▁173	-9179
▁Jar	-9180
▁tubes	-9181
▁battlecru	-9182
▁drag	-9183
▁decide	-9184
▁Trophy	-9185
dess	-9186
▁Our	-9187
ipper	-9188
▁volumes	-9189
rous	-9190
▁forth	-9191
▁Deb	-9192
▁Tit	-9193
▁indicates	-9194
▁landscape	-9195
▁strongest	-9196
▁watershed	-9197
▁withdrawal	-9198
▁1893	-9199
▁Dwight	-9200
▁putting	-9201
▁1860	-9202
▁Alice	-9203
▁angle	-9204
▁glac	-9205
▁Cov	-9206
▁Sig	-9207
ecution	-9208
▁markets	-9209
▁identify	-9210
▁coup	-9211
▁pale	-9212
▁switch	-9213
▁supplied	-9214
▁rede	-9215
▁circle	-9216
▁Stu	-9217
▁forg	-9218
▁Marvel	-9219
▁exposure	-9220
▁Sak	-9221
▁specimen	-9222
▁anth	-9223
▁1896	-9224
▁gray	-9225
▁collapsed	-9226
▁challenged	-9227
▁caps	-9228
▁merely	-9229
▁Fleming	-9230
▁confront	-9231
▁Reserve	-9232
▁Mem	-9233
imented	-9234
▁density	-9235
▁partial	-9236
ti	-9237
▁111	-9238
▁cub	-9239
▁Hampshire	-9240
▁Edinburgh	-9241
▁les	-9242
mi	-9243
▁desert	-9244
▁dubbed	-9245
▁NCAA	-9246
▁shift	-9247
▁visits	-9248
▁Honor	-9249
▁affili	-9250
▁limits	-9251
▁feeding	-9252
▁104	-9253
▁bare	-9254
▁beam	-9255
▁Potter	-9256
▁Mission	-9257
otte	-9258
▁Ship	-9259
▁Those	-9260
▁Oliver	-9261
▁Gene	-9262
▁provision	-9263
▁educational	-9264
▁hydrogen	-9265
▁conventional	-9266
▁Joy	-9267
ova	-9268
▁clin	-9269
▁prize	-9270
▁seized	-9271
▁duo	-9272
earing	-9273
▁Somet	-9274
▁Years	-9275
▁Flying	-9276
cks	-9277
▁spac	-9278
▁bearing	-9279
▁annually	-9280
▁concentrated	-9281
vy	-9282
▁topped	-9283
▁membership	-9284
elta	-9285
soft	-9286
▁Meteor	-9287
▁attending	-9288
▁champions	-9289
▁Isa	-9290
▁1898	-9291
▁corps	-9292
▁plain	-9293
amental	-9294
▁Afghan	-9295
▁parody	-9296
▁assembly	-9297
join	-9298
▁ranges	-9299
adal	-9300
idal	-9301
ested	-9302
▁exha	-9303
irates	-9304
case	-9305
▁Ches	-9306
▁Charts	-9307
▁Anc	-9308
▁Lat	-9309
▁cock	-9310
onium	-9311
▁dogs	-9312
▁navy	-9313
▁offense	-9314
icle	-9315
▁Type	-9316
▁Tob	-9317
▁emphasis	-9318
▁AS	-9319
▁weekly	-9320
▁Natural	-9321
▁171	-9322
▁sad	-9323
▁furn	-9324
▁Begin	-9325
igenous	-9326
▁exercise	-9327
▁productions	-9328
angle	-9329
▁unless	-9330
▁talking	-9331
anner	-9332
▁ticket	-9333
▁investigate	-9334
agger	-9335
▁basin	-9336
▁Pin	-9337
uzzle	-9338
▁grave	-9339
▁trough	-9340
▁Abd	-9341
▁Ralph	-9342
▁legit	-9343
▁Finally	-9344
▁promotional	-9345
▁Lib	-9346
▁Mosc	-9347
athers	-9348
▁anime	-9349
▁bacter	-9350
▁Princip	-9351
hyl	-9352
idae	-9353
▁Beng	-9354
▁Democrats	-9355
▁Personal	-9356
▁Victorian	-9357
da	-9358
aks	-9359
enna	-9360
▁portrayal	-9361
bow	-9362
▁Say	-9363
▁jury	-9364
▁resol	-9365
▁ceased	-9366
▁flooded	-9367
▁fortress	-9368
▁List	-9369
▁Yorkshire	-9370
▁advertising	-9371
ieth	-9372
▁172	-9373
▁bone	-9374
terior	-9375
▁NO	-9376
▁fill	-9377
▁Argentina	-9378
pled	-9379
▁bond	-9380
▁Lloyd	-9381
▁regime	-9382
▁birthday	-9383
▁conservation	-9384
ika	-9385
ugg	-9386
▁uncle	-9387
▁persons	-9388
▁350	-9389
▁Len	-9390
▁cruc	-9391
▁Monte	-9392
▁output	-9393
▁employment	-9394
▁Christianity	-9395
AR	-9396
▁sending	-9397
▁attitude	-9398
▁Convention	-9399
▁photographs	-9400
▁Dod	-9401
▁eval	-9402
▁Village	-9403
▁software	-9404
rising	-9405
▁Where	-9406
▁bishop	-9407
▁Brothers	-9408
▁experimental	-9409
IS	-9410
▁hitting	-9411
▁questioned	-9412
▁127	-9413
▁Las	-9414
aders	-9415
ported	-9416
▁Vi	-9417
▁Celt	-9418
▁Jerry	-9419
▁Overall	-9420
▁guide	-9421
▁queen	-9422
▁Chronicle	-9423
▁161	-9424
▁ballad	-9425
▁drinking	-9426
▁scattered	-9427
▁translation	-9428
aux	-9429
otal	-9430
▁underwent	-9431
olly	-9432
roying	-9433
▁provincial	-9434
ean	-9435
hous	-9436
▁mature	-9437
▁unclear	-9438
▁overwhel	-9439
▁Lt	-9440
▁1899	-9441
▁coff	-9442
▁endors	-9443
▁assembled	-9444
ello	-9445
▁aggreg	-9446
▁replied	-9447
▁cousin	-9448
▁brig	-9449
▁papers	-9450
▁Collins	-9451
▁representatives	-9452
phone	-9453
▁swimming	-9454
gie	-9455
▁Books	-9456
iper	-9457
▁commentary	-9458
▁Marge	-9459
▁lawyer	-9460
iffs	-9461
▁cens	-9462
▁proclaim	-9463
▁Pink	-9464
▁coat	-9465
▁outd	-9466
▁imagery	-9467
▁clock	-9468
▁empire	-9469
▁thirteen	-9470
▁Finland	-9471
▁liberal	-9472
▁external	-9473
▁Howe	-9474
▁Maya	-9475
▁Craig	-9476
▁loved	-9477
▁lawsu	-9478
assador	-9479
▁terrain	-9480
▁acoustic	-9481
hammad	-9482
▁comprom	-9483
▁exclusive	-9484
itis	-9485
▁slave	-9486
▁pictures	-9487
▁electricity	-9488
▁streak	-9489
▁duration	-9490
▁monaster	-9491
oys	-9492
onica	-9493
▁Deep	-9494
▁Fund	-9495
▁movies	-9496
ications	-9497
▁daughters	-9498
oa	-9499
angel	-9500
ashes	-9501
▁wire	-9502
▁Turner	-9503
▁devast	-9504
▁accompanying	-9505
▁Om	-9506
▁Apoll	-9507
▁Wii	-9508
▁mac	-9509
▁tenure	-9510
▁arrives	-9511
▁surrendered	-9512
atever	-9513
▁branches	-9514
▁burial	-9515
▁stronger	-9516
▁identical	-9517
▁expert	-9518
▁succession	-9519
ersed	-9520
▁Hardy	-9521
▁Norfolk	-9522
▁Similarly	-9523
▁reverse	-9524
▁Queensland	-9525
▁components	-9526
▁Py	-9527
▁beats	-9528
▁Heritage	-9529
▁Na	-9530
riors	-9531
▁Andre	-9532
▁dread	-9533
▁stere	-9534
▁reducing	-9535
▁Mong	-9536
▁reveal	-9537
▁charter	-9538
▁Adv	-9539
ensed	-9540
▁reinforcements	-9541
▁Ax	-9542
▁Jama	-9543
▁prices	-9544
pler	-9545
▁108	-9546
▁cad	-9547
▁mal	-9548
▁sang	-9549
▁Belgian	-9550
▁Burton	-9551
▁Protest	-9552
▁trading	-9553
▁Dub	-9554
▁Hawaii	-9555
▁Nicholas	-9556
▁Professor	-9557
▁destroying	-9558
▁spaces	-9559
hard	-9560
▁Eug	-9561
▁scr	-9562
▁Prim	-9563
▁competing	-9564
▁169	-9565
▁penet	-9566
▁failing	-9567
▁mechanical	-9568
▁MS	-9569
▁Boat	-9570
ologies	-9571
▁Communist	-9572
▁exclusively	-9573
▁recall	-9574
▁Pam	-9575
▁Bennett	-9576
▁Prop	-9577
▁stops	-9578
▁atomic	-9579
▁Rangers	-9580
aja	-9581
▁isot	-9582
ellation	-9583
▁component	-9584
▁1850	-9585
esty	-9586
▁scar	-9587
▁precipitation	-9588
▁Beaut	-9589
▁Davies	-9590
▁slavery	-9591
▁developers	-9592
igrants	-9593
▁Cricket	-9594
▁Services	-9595
▁traded	-9596
▁Vincent	-9597
▁devices	-9598
▁governments	-9599
▁Meg	-9600
place	-9601
▁Emmy	-9602
▁Credits	-9603
ricts	-9604
▁Catherine	-9605
hu	-9606
abe	-9607
▁banned	-9608
▁fossil	-9609
▁mini	-9610
▁reward	-9611
▁Liberal	-9612
▁Medical	-9613
▁centers	-9614
▁varied	-9615
▁flowers	-9616
ibilities	-9617
▁consistent	-9618
▁artificial	-9619
▁elig	-9620
▁tube	-9621
▁Living	-9622
▁radiation	-9623
▁Sign	-9624
▁Swift	-9625
▁decay	-9626
▁considers	-9627
▁platforms	-9628
▁tip	-9629
▁virus	-9630
▁counterp	-9631
▁Haz	-9632
▁myst	-9633
▁pole	-9634
▁redes	-9635
▁Transportation	-9636
OS	-9637
▁Pap	-9638
▁earthquake	-9639
▁contribution	-9640
▁wish	-9641
▁Training	-9642
▁electrical	-9643
▁polar	-9644
▁Hughes	-9645
oles	-9646
▁Tak	-9647
▁disb	-9648
▁Local	-9649
▁Donald	-9650
▁burned	-9651
pike	-9652
▁Prix	-9653
▁hybr	-9654
▁architectural	-9655
amas	-9656
▁Lock	-9657
▁humor	-9658
▁waste	-9659
▁songwriter	-9660
▁1897	-9661
▁Curt	-9662
▁Look	-9663
▁Malt	-9664
▁dict	-9665
atched	-9666
▁reviewed	-9667
▁Thunder	-9668
▁boilers	-9669
▁Kl	-9670
▁obsc	-9671
▁Yellow	-9672
▁proceeded	-9673
▁understood	-9674
▁Jun	-9675
▁Kap	-9676
▁Guitar	-9677
▁advised	-9678
▁handled	-9679
▁fourteen	-9680
▁frequency	-9681
▁intersects	-9682
imp	-9683
ista	-9684
▁talks	-9685
▁destroyer	-9686
rastructure	-9687
▁profession	-9688
▁improvement	-9689
▁Sle	-9690
▁push	-9691
▁Stri	-9692
▁heir	-9693
▁Market	-9694
▁Harvard	-9695
ethel	-9696
▁Peters	-9697
hin	-9698
▁163	-9699
onald	-9700
▁Glen	-9701
▁texts	-9702
▁amateur	-9703
▁requirements	-9704
acles	-9705
▁Mand	-9706
▁Next	-9707
▁bath	-9708
▁theore	-9709
▁Bak	-9710
▁Darwin	-9711
▁samples	-9712
▁conceived	-9713
ags	-9714
▁Dram	-9715
▁Saxon	-9716
▁Swiss	-9717
▁copper	-9718
▁ment	-9719
▁induct	-9720
▁Trail	-9721
▁phrase	-9722
▁Cameron	-9723
▁Moscow	-9724
▁sixteen	-9725
▁referring	-9726
▁investment	-9727
▁Oslo	-9728
▁shares	-9729
▁conflic	-9730
ür	-9731
▁Kate	-9732
▁reduction	-9733
uras	-9734
▁Inv	-9735
▁Rab	-9736
illes	-9737
▁worn	-9738
uating	-9739
▁users	-9740
▁airfield	-9741
▁certainly	-9742
▁Pittsburgh	-9743
▁Dak	-9744
▁ecc	-9745
itarian	-9746
▁Gallery	-9747
▁charity	-9748
iciency	-9749
▁voting	-9750
▁Indonesia	-9751
olen	-9752
ulty	-9753
itely	-9754
▁cleared	-9755
▁weigh	-9756
▁praising	-9757
▁respective	-9758
ioc	-9759
▁Hob	-9760
▁parks	-9761
▁pel	-9762
▁labour	-9763
axy	-9764
▁Tax	-9765
▁lie	-9766
▁flows	-9767
▁Harbor	-9768
▁exceed	-9769
▁tactics	-9770
▁connections	-9771
▁Geoff	-9772
▁therap	-9773
▁photography	-9774
▁Ko	-9775
▁grossing	-9776
▁spoken	-9777
▁toured	-9778
▁qualifying	-9779
gom	-9780
▁Ric	-9781
encing	-9782
▁survival	-9783
erg	-9784
▁Must	-9785
▁constitutional	-9786
▁soph	-9787
etheless	-9788
▁Blu	-9789
▁quad	-9790
ffield	-9791
▁Terry	-9792
▁autumn	-9793
▁continuous	-9794
haw	-9795
▁Craw	-9796
▁ruler	-9797
umble	-9798
▁commanding	-9799
▁106	-9800
▁167	-9801
▁Din	-9802
rehens	-9803
strong	-9804
▁sweet	-9805
▁Antonio	-9806
▁commenced	-9807
embr	-9808
razy	-9809
▁nautical	-9810
▁patients	-9811
▁shoulder	-9812
OT	-9813
▁taxes	-9814
▁confidence	-9815
▁legislative	-9816
▁Tig	-9817
▁lock	-9818
▁Alaska	-9819
▁tonnes	-9820
imm	-9821
▁121	-9822
▁154	-9823
eding	-9824
▁reorgan	-9825
▁attorney	-9826
▁opportunities	-9827
▁stuff	-9828
▁exists	-9829
▁enthusi	-9830
▁transported	-9831
▁unlik	-9832
▁fisher	-9833
▁Wallace	-9834
▁Broadcast	-9835
▁Mason	-9836
▁signature	-9837
▁fold	-9838
▁blind	-9839
▁camps	-9840
▁uranium	-9841
▁Microsoft	-9842
▁communist	-9843
▁competitive	-9844
▁Lem	-9845
▁hem	-9846
▁recon	-9847
▁translated	-9848
▁Dyn	-9849
▁melody	-9850
▁relocated	-9851
TWC	-9852
▁JTWC	-9853
▁Ali	-9854
ingham	-9855
▁tested	-9856
▁Mayor	-9857
▁Syria	-9858
▁indeed	-9859
▁reinforced	-9860
ng	-9861
▁minority	-9862
▁Aftermath	-9863
▁fasc	-9864
▁traveling	-9865
▁nit	-9866
eping	-9867
▁fulf	-9868
▁rocks	-9869
porting	-9870
▁fairly	-9871
▁revolt	-9872
▁revised	-9873
▁commanders	-9874
▁pairs	-9875
▁dece	-9876
cester	-9877
eyer	-9878
▁Kane	-9879
▁noble	-9880
bes	-9881
▁Farm	-9882
▁Sweet	-9883
▁sovereign	-9884
▁Gor	-9885
▁unw	-9886
▁Bald	-9887
▁Ferr	-9888
icated	-9889
▁Still	-9890
▁Upper	-9891
▁manga	-9892
ayan	-9893
expected	-9894
▁explicit	-9895
venth	-9896
▁withdrawn	-9897
▁impression	-9898
▁lad	-9899
ambers	-9900
enesis	-9901
vant	-9902
▁Grace	-9903
▁crops	-9904
▁cartoon	-9905
onian	-9906
▁Sheffield	-9907
▁programming	-9908
avor	-9909
urricanes	-9910
▁extending	-9911
▁Larry	-9912
▁dischar	-9913
▁displaced	-9914
eared	-9915
▁accord	-9916
▁Israeli	-9917
▁experiments	-9918
▁Luke	-9919
▁promin	-9920
▁voices	-9921
▁Officer	-9922
▁principles	-9923
avia	-9924
▁blues	-9925
▁extinct	-9926
mith	-9927
▁1895	-9928
▁Mond	-9929
▁Stef	-9930
▁Stars	-9931
▁Security	-9932
▁magnitude	-9933
▁representation	-9934
▁Thr	-9935
▁Tow	-9936
▁learns	-9937
▁provinces	-9938
andom	-9939
▁fram	-9940
▁hole	-9941
▁uncon	-9942
legraph	-9943
▁Jefferson	-9944
▁characteristic	-9945
▁Rud	-9946
▁distant	-9947
▁prisoner	-9948
wa	-9949
where	-9950
▁moon	-9951
▁enforce	-9952
▁See	-9953
isive	-9954
ussion	-9955
▁culmin	-9956
▁marine	-9957
cott	-9958
▁Emer	-9959
▁summ	-9960
▁Bryan	-9961
▁Exper	-9962
▁GameS	-9963
▁abuse	-9964
▁Dallas	-9965
▁sample	-9966
▁Pictures	-9967
▁interpreted	-9968
asks	-9969
▁nat	-9970
▁lights	-9971
▁Johnston	-9972
▁XI	-9973
hell	-9974
▁Hey	-9975
▁Herald	-9976
▁warfare	-9977
▁Cyrus	-9978
▁Together	-9979
▁RP	-9980
▁Phys	-9981
▁Clarke	-9982
▁relatives	-9983
▁HD	-9984
▁conce	-9985
▁compound	-9986
▁practical	-9987
▁craft	-9988
▁rivalry	-9989
▁approaches	-9990
▁AM	-9991
▁herit	-9992
▁wonder	-9993
▁cuts	-9994
▁Guinea	-9995
▁PS	-9996
▁id	-9997
▁Clay	-9998
▁tomb	-9999
▁Performance	-10000
adesh	-10001
▁Half	-10002
▁Malaysia	-10003
▁Eff	-10004
▁nerv	-10005
▁airing	-10006
▁Ni	-10007
▁burning	-10008
▁shifted	-10009
▁displays	-10010
▁proposals	-10011
▁traditions	-10012
feld	-10013
▁Chile	-10014
▁Defense	-10015
▁carries	-10016
▁rehears	-10017
▁lighting	-10018
▁warnings	-10019
▁multiplayer	-10020
▁Got	-10021
▁Nav	-10022
▁Ori	-10023
aching	-10024
▁Wells	-10025
▁Austin	-10026
▁Orange	-10027
▁restore	-10028
▁girlfriend	-10029
▁victim	-10030
▁graduate	-10031
▁participation	-10032
eto	-10033
▁FBI	-10034
▁sings	-10035
▁myster	-10036
▁rebels	-10037
▁Greater	-10038
▁Parsons	-10039
▁Official	-10040
▁Pic	-10041
▁Past	-10042
▁judg	-10043
▁Quest	-10044
▁blocked	-10045
▁medicine	-10046
▁preparing	-10047
▁transportation	-10048
▁Neil	-10049
▁Owen	-10050
▁skill	-10051
run	-10052
▁scores	-10053
▁Eight	-10054
▁Osc	-10055
▁Chelsea	-10056
umph	-10057
▁absent	-10058
aman	-10059
utton	-10060
▁Falls	-10061
▁conven	-10062
▁valuable	-10063
▁interviews	-10064
asa	-10065
▁cyclones	-10066
▁Formation	-10067
▁Woman	-10068
▁chore	-10069
▁riding	-10070
ationally	-10071
▁protests	-10072
▁wished	-10073
▁Ze	-10074
umped	-10075
▁Rest	-10076
▁filmm	-10077
▁salary	-10078
▁brilliant	-10079
▁thunder	-10080
▁unlikely	-10081
merce	-10082
▁Armstrong	-10083
▁Brazilian	-10084
ović	-10085
rooms	-10086
▁McKin	-10087
▁Danish	-10088
▁Classic	-10089
▁Description	-10090
▁Mix	-10091
▁creek	-10092
▁cabinet	-10093
▁recovery	-10094
▁Sega	-10095
▁salv	-10096
▁Beginning	-10097
▁maintaining	-10098
TS	-10099
▁Steel	-10100
▁march	-10101
▁Fisher	-10102
▁Quebec	-10103
uez	-10104
▁Orle	-10105
▁passion	-10106
▁reforms	-10107
▁Greatest	-10108
▁districts	-10109
▁cinema	-10110
▁intervention	-10111
▁ing	-10112
▁Studio	-10113
▁arguing	-10114
▁estimates	-10115
ocity	-10116
▁Priv	-10117
▁Fourth	-10118
▁harbour	-10119
oca	-10120
▁Rena	-10121
▁courses	-10122
▁drummer	-10123
▁AP	-10124
▁Eve	-10125
▁garn	-10126
▁racial	-10127
▁beneath	-10128
▁contend	-10129
▁recurring	-10130
▁grandfather	-10131
▁fest	-10132
▁infl	-10133
▁pier	-10134
▁Actor	-10135
▁Spr	-10136
▁significance	-10137
▁vulnerable	-10138
hum	-10139
rod	-10140
▁aft	-10141
▁petition	-10142
hl	-10143
▁kills	-10144
▁towers	-10145
▁accurate	-10146
▁Som	-10147
▁web	-10148
▁bull	-10149
▁releg	-10150
▁advertis	-10151
▁pap	-10152
▁Liter	-10153
▁diverse	-10154
▁Daw	-10155
▁upset	-10156
▁Rio	-10157
▁Tai	-10158
▁eating	-10159
▁Authority	-10160
▁Cathedral	-10161
▁Ec	-10162
▁Pa	-10163
▁statistics	-10164
▁communications	-10165
MI	-10166
ön	-10167
▁Eis	-10168
▁sponsored	-10169
▁Cad	-10170
▁valid	-10171
▁Agency	-10172
▁applications	-10173
▁Ker	-10174
▁Orleans	-10175
▁Constantin	-10176
▁Kaiser	-10177
bal	-10178
▁clar	-10179
▁Susan	-10180
▁Spirit	-10181
▁numbered	-10182
▁efficient	-10183
rost	-10184
achute	-10185
▁airline	-10186
▁Cultural	-10187
▁Nev	-10188
▁clothes	-10189
▁unexpected	-10190
▁hind	-10191
▁Harold	-10192
▁Utah	-10193
umented	-10194
▁Junior	-10195
▁102	-10196
▁Plant	-10197
▁sacrif	-10198
▁Serbian	-10199
▁decorated	-10200
nt	-10201
▁Fu	-10202
▁Cass	-10203
▁Globe	-10204
▁faces	-10205
▁lasting	-10206
▁shallow	-10207
▁essentially	-10208
asm	-10209
▁Link	-10210
▁shock	-10211
▁inclusion	-10212
▁tale	-10213
▁toler	-10214
onge	-10215
▁1861	-10216
▁FIFA	-10217
▁surprised	-10218
▁answer	-10219
▁consolid	-10220
▁CBS	-10221
ource	-10222
▁charted	-10223
▁iP	-10224
▁pm	-10225
ario	-10226
▁mate	-10227
▁steep	-10228
▁gender	-10229
▁1889	-10230
▁mood	-10231
▁emotion	-10232
▁Richmond	-10233
▁liner	-10234
osexual	-10235
▁′	-10236
ocy	-10237
▁deeply	-10238
abilities	-10239
lete	-10240
▁paras	-10241
▁beaten	-10242
uto	-10243
▁theories	-10244
▁squadrons	-10245
atra	-10246
▁morph	-10247
▁ratio	-10248
▁trick	-10249
▁merged	-10250
beat	-10251
▁1894	-10252
▁invent	-10253
▁manage	-10254
▁Muhammad	-10255
▁Province	-10256
▁Constantine	-10257
▁potentially	-10258
▁fate	-10259
▁summit	-10260
▁Newton	-10261
▁drafted	-10262
▁Republicans	-10263
ATO	-10264
urd	-10265
▁158	-10266
▁Vers	-10267
▁Tyler	-10268
▁screenplay	-10269
▁Pad	-10270
▁Salt	-10271
▁cant	-10272
▁tours	-10273
▁suspic	-10274
▁processes	-10275
ashi	-10276
utor	-10277
erver	-10278
▁Scientology	-10279
▁jet	-10280
▁Sac	-10281
eston	-10282
▁1891	-10283
▁swit	-10284
atical	-10285
▁embr	-10286
▁descent	-10287
▁Gay	-10288
▁Hav	-10289
levard	-10290
▁crimes	-10291
▁dancers	-10292
▁sentence	-10293
aze	-10294
▁demo	-10295
▁Stuart	-10296
▁proportion	-10297
és	-10298
Arthur	-10299
▁segments	-10300
▁civilians	-10301
▁persuaded	-10302
affe	-10303
aters	-10304
▁Mend	-10305
▁dense	-10306
▁Fighter	-10307
▁beating	-10308
▁162	-10309
itious	-10310
▁Panzer	-10311
▁AT	-10312
▁dual	-10313
▁beauty	-10314
▁funded	-10315
▁heritage	-10316
▁CS	-10317
▁113	-10318
▁YouT	-10319
reated	-10320
▁implemented	-10321
▁Minor	-10322
▁Apollo	-10323
▁accommodate	-10324
▁altitude	-10325
illo	-10326
reens	-10327
ucker	-10328
▁YouTube	-10329
▁reactions	-10330
aiden	-10331
▁hills	-10332
▁Product	-10333
▁Yam	-10334
itate	-10335
keeper	-10336
▁colors	-10337
▁Picture	-10338
▁NS	-10339
landers	-10340
▁Orchest	-10341
▁holiday	-10342
▁agriculture	-10343
▁presentation	-10344
▁1000	-10345
▁Buffalo	-10346
▁Sug	-10347
anche	-10348
▁golden	-10349
▁Amendment	-10350
▁structural	-10351
oded	-10352
▁Eth	-10353
▁XII	-10354
▁administer	-10355
▁complained	-10356
▁1892	-10357
▁feared	-10358
▁devoted	-10359
▁Scar	-10360
▁Indonesian	-10361
▁Vl	-10362
▁Kam	-10363
castle	-10364
istent	-10365
▁Cardiff	-10366
▁addressed	-10367
▁columns	-10368
▁evident	-10369
▁sailing	-10370
▁requiring	-10371
▁proof	-10372
ocation	-10373
▁rejoin	-10374
▁Symphony	-10375
▁southeastern	-10376
aha	-10377
▁wine	-10378
▁manip	-10379
▁merc	-10380
▁dwarf	-10381
▁oriented	-10382
aping	-10383
▁Ivan	-10384
▁Sout	-10385
▁breaks	-10386
▁fame	-10387
▁nurs	-10388
▁Conservation	-10389
▁Days	-10390
▁Nord	-10391
▁error	-10392
oda	-10393
▁observation	-10394
▁156	-10395
▁tribe	-10396
▁Without	-10397
▁Electric	-10398
▁followers	-10399
▁mythology	-10400
enson	-10401
▁cards	-10402
▁voyage	-10403
▁Register	-10404
▁Vel	-10405
▁bell	-10406
▁kidn	-10407
▁Danny	-10408
▁Brooks	-10409
▁interaction	-10410
berry	-10411
▁1800	-10412
▁Fact	-10413
▁judges	-10414
▁pregnant	-10415
▁confusion	-10416
▁researchers	-10417
▁Kyle	-10418
▁knee	-10419
▁Hunter	-10420
▁Sox	-10421
▁jurisdiction	-10422
▁pip	-10423
▁boot	-10424
▁gene	-10425
▁Burns	-10426
▁Cavalry	-10427
▁quarters	-10428
asha	-10429
▁Sultan	-10430
▁recept	-10431
▁Section	-10432
▁operates	-10433
usalem	-10434
▁Ground	-10435
▁Nature	-10436
▁suddenly	-10437
▁Full	-10438
▁Until	-10439
▁categories	-10440
▁Gw	-10441
▁pink	-10442
▁opens	-10443
▁commenting	-10444
je	-10445
ospel	-10446
▁Ruth	-10447
▁writings	-10448
▁diplomatic	-10449
▁oblig	-10450
heric	-10451
▁Islamic	-10452
▁intermedi	-10453
mn	-10454
▁Actress	-10455
▁physics	-10456
▁tension	-10457
▁⁄	-10458
car	-10459
▁135	-10460
onsin	-10461
rific	-10462
▁Johann	-10463
▁superst	-10464
▁embarked	-10465
▁advancing	-10466
▁sculpture	-10467
▁highlighted	-10468
▁rib	-10469
▁extensively	-10470
▁Metropolitan	-10471
isons	-10472
▁Hope	-10473
▁Walt	-10474
▁rect	-10475
▁sized	-10476
▁₹	-10477
▁thrown	-10478
▁similarities	-10479
owski	-10480
▁ages	-10481
▁fert	-10482
▁Boeing	-10483
▁gaining	-10484
▁studying	-10485
▁Jerusalem	-10486
▁principle	-10487
▁challenges	-10488
hers	-10489
▁Terr	-10490
▁assum	-10491
▁sugar	-10492
minster	-10493
▁CO	-10494
▁ho	-10495
▁bears	-10496
▁Airlines	-10497
▁Pok	-10498
▁Side	-10499
▁Wisc	-10500
▁vari	-10501
▁Executive	-10502
pot	-10503
othy	-10504
boards	-10505
▁Justin	-10506
▁gardens	-10507
fr	-10508
amount	-10509
▁Bible	-10510
▁Reich	-10511
▁153	-10512
▁Abu	-10513
gomery	-10514
▁Trade	-10515
▁manif	-10516
▁equally	-10517
▁lifetime	-10518
▁Montgomery	-10519
▁statements	-10520
eness	-10521
▁drown	-10522
▁neighb	-10523
▁Edition	-10524
▁Typhoon	-10525
▁knocked	-10526
▁sentenced	-10527
▁McN	-10528
▁jack	-10529
▁constitu	-10530
▁infrastructure	-10531
▁fee	-10532
assed	-10533
▁locally	-10534
▁educated	-10535
sts	-10536
born	-10537
▁Legisl	-10538
anted	-10539
ocket	-10540
▁rivals	-10541
▁disturbance	-10542
▁240	-10543
▁Start	-10544
▁Barnes	-10545
▁orange	-10546
▁AA	-10547
▁Based	-10548
▁Titan	-10549
▁tooth	-10550
▁divorce	-10551
▁gift	-10552
▁dealing	-10553
▁boundaries	-10554
▁traditionally	-10555
nels	-10556
thodox	-10557
▁Schum	-10558
▁predators	-10559
▁Env	-10560
▁ties	-10561
▁Wonder	-10562
▁Wisconsin	-10563
▁variation	-10564
▁Prest	-10565
▁priest	-10566
▁Independence	-10567
▁overlook	-10568
▁universal	-10569
▁documented	-10570
▁Crus	-10571
ancellor	-10572
▁explaining	-10573
ye	-10574
▁empty	-10575
▁resolved	-10576
▁Turkey	-10577
▁1888	-10578
▁Attorney	-10579
▁Bes	-10580
▁Rogers	-10581
▁stretch	-10582
enos	-10583
▁amph	-10584
isfact	-10585
▁Miles	-10586
▁rings	-10587
▁receives	-10588
▁spawn	-10589
▁Century	-10590
▁enabled	-10591
▁Grade	-10592
▁sword	-10593
▁recruited	-10594
▁settlements	-10595
arks	-10596
pine	-10597
▁Baron	-10598
▁Control	-10599
▁garnered	-10600
▁Scots	-10601
lington	-10602
▁travelling	-10603
▁Sean	-10604
▁naming	-10605
▁explore	-10606
▁benefits	-10607
▁discontin	-10608
▁commercially	-10609
▁considerably	-10610
oria	-10611
▁1885	-10612
▁tape	-10613
▁helps	-10614
▁tickets	-10615
▁villain	-10616
▁Cemetery	-10617
▁MacArthur	-10618
opp	-10619
quest	-10620
▁Saturn	-10621
▁rescued	-10622
▁mud	-10623
▁options	-10624
ét	-10625
osaurs	-10626
▁crashed	-10627
▁hostile	-10628
▁urg	-10629
▁Aber	-10630
▁Icel	-10631
▁ashore	-10632
▁substitute	-10633
▁tu	-10634
▁Tang	-10635
▁lift	-10636
ulsion	-10637
ometric	-10638
▁involves	-10639
▁weakening	-10640
▁nep	-10641
▁Leaf	-10642
▁Quar	-10643
▁seas	-10644
▁supern	-10645
▁batted	-10646
▁smoke	-10647
▁tasked	-10648
▁disorder	-10649
▁proteins	-10650
ando	-10651
▁Sid	-10652
▁forb	-10653
piece	-10654
▁Gang	-10655
angular	-10656
▁Pierre	-10657
▁concerning	-10658
▁guy	-10659
▁Ages	-10660
▁dying	-10661
▁housed	-10662
▁escorted	-10663
▁Christians	-10664
▁Mall	-10665
unning	-10666
▁doors	-10667
▁assert	-10668
▁Ins	-10669
▁dim	-10670
▁Patri	-10671
▁detect	-10672
▁depicts	-10673
▁MI	-10674
▁inning	-10675
▁obvious	-10676
▁elaborate	-10677
▁Um	-10678
aple	-10679
ovak	-10680
▁Baltic	-10681
▁Iceland	-10682
▁pursuit	-10683
▁volunteers	-10684
iar	-10685
▁borrow	-10686
▁concurrent	-10687
▁Judge	-10688
▁dimin	-10689
▁dinner	-10690
▁imprisoned	-10691
▁circular	-10692
▁gods	-10693
▁Management	-10694
▁authorized	-10695
▁collections	-10696
iko	-10697
▁Fitz	-10698
▁inhib	-10699
▁navig	-10700
▁Spider	-10701
▁Thames	-10702
▁editions	-10703
▁warships	-10704
▁conflicts	-10705
▁competitions	-10706
▁flex	-10707
▁Romney	-10708
▁teammate	-10709
▁innoc	-10710
▁pursued	-10711
▁UC	-10712
▁Athens	-10713
▁Hearts	-10714
▁Barbara	-10715
uters	-10716
▁tempo	-10717
▁revival	-10718
▁1865	-10719
▁Mind	-10720
master	-10721
▁Movie	-10722
▁favourite	-10723
vet	-10724
▁Ta	-10725
edia	-10726
▁spar	-10727
lights	-10728
▁reass	-10729
▁eventual	-10730
▁politicians	-10731
rien	-10732
▁Evil	-10733
▁Pant	-10734
▁beliefs	-10735
▁virtually	-10736
▁Stra	-10737
▁ramp	-10738
▁Aren	-10739
▁urged	-10740
▁chemistry	-10741
▁112	-10742
▁vig	-10743
agers	-10744
▁Tourn	-10745
▁Reagan	-10746
▁Against	-10747
▁Sherman	-10748
▁renewed	-10749
▁opposing	-10750
▁manufacturing	-10751
▁NATO	-10752
▁fron	-10753
▁styl	-10754
▁drain	-10755
▁Comedy	-10756
▁veteran	-10757
▁handling	-10758
▁Kan	-10759
▁Wes	-10760
▁abroad	-10761
▁Representatives	-10762
▁Code	-10763
▁Zone	-10764
▁chase	-10765
▁census	-10766
▁mixture	-10767
▁Nancy	-10768
▁velocity	-10769
▁Toy	-10770
▁Winn	-10771
▁handle	-10772
▁stones	-10773
▁Regional	-10774
▁portrait	-10775
▁examination	-10776
▁Ted	-10777
▁universities	-10778
▁Bask	-10779
▁epic	-10780
uction	-10781
▁suspected	-10782
lon	-10783
▁131	-10784
▁Flore	-10785
▁Il	-10786
rene	-10787
▁nut	-10788
backs	-10789
▁Flow	-10790
▁Hunt	-10791
▁unve	-10792
▁Fight	-10793
▁cable	-10794
ublin	-10795
▁Meth	-10796
▁medals	-10797
▁stolen	-10798
▁participants	-10799
▁Vic	-10800
▁Tribune	-10801
▁Amb	-10802
▁pill	-10803
▁Sonic	-10804
▁trailer	-10805
▁gh	-10806
wright	-10807
▁colours	-10808
▁rushing	-10809
▁congress	-10810
▁promoting	-10811
▁remembered	-10812
▁laps	-10813
▁promise	-10814
▁thereby	-10815
▁rendered	-10816
▁organisms	-10817
ME	-10818
▁Fish	-10819
▁Nova	-10820
▁inherited	-10821
rh	-10822
lane	-10823
▁145	-10824
▁Report	-10825
▁pitcher	-10826
▁taste	-10827
▁verte	-10828
▁cattle	-10829
▁convey	-10830
▁sharks	-10831
▁conj	-10832
▁spur	-10833
▁analog	-10834
izer	-10835
▁Ref	-10836
▁leaf	-10837
▁Krist	-10838
▁apply	-10839
isition	-10840
onation	-10841
▁Any	-10842
▁Stein	-10843
▁Branch	-10844
▁Portugal	-10845
▁capturing	-10846
▁117	-10847
▁Had	-10848
▁comics	-10849
▁Newcastle	-10850
gow	-10851
rift	-10852
seud	-10853
▁159	-10854
▁Invest	-10855
▁trapped	-10856
▁interven	-10857
▁decreased	-10858
arest	-10859
▁Face	-10860
▁Fern	-10861
▁tissue	-10862
▁costume	-10863
▁tracked	-10864
▁bombardment	-10865
ulus	-10866
▁Constantinople	-10867
▁Nas	-10868
▁Crow	-10869
▁hopes	-10870
▁inhab	-10871
▁Ernest	-10872
▁positively	-10873
▁compositions	-10874
▁Und	-10875
inery	-10876
▁accidentally	-10877
▁ol	-10878
▁Beh	-10879
▁invaded	-10880
▁CP	-10881
▁tel	-10882
ellar	-10883
▁prototype	-10884
▁celebration	-10885
HS	-10886
▁metric	-10887
oids	-10888
▁blend	-10889
▁Personnel	-10890
▁prox	-10891
▁Draft	-10892
▁juven	-10893
▁confirm	-10894
urst	-10895
▁Pete	-10896
▁vital	-10897
▁warned	-10898
▁tornado	-10899
▁Charlotte	-10900
▁occasional	-10901
▁450	-10902
▁maps	-10903
▁links	-10904
▁fra	-10905
ridor	-10906
▁loud	-10907
▁Magic	-10908
▁Heavyweight	-10909
▁118	-10910
▁José	-10911
anim	-10912
▁Bert	-10913
▁hoping	-10914
▁anticipated	-10915
▁Joint	-10916
▁Bright	-10917
▁upcoming	-10918
▁Laboratory	-10919
▁Heb	-10920
▁1864	-10921
▁Merced	-10922
▁Affairs	-10923
▁Liberty	-10924
▁boyfriend	-10925
▁variations	-10926
▁Environment	-10927
limin	-10928
▁thro	-10929
▁Cornwall	-10930
avan	-10931
rible	-10932
▁rains	-10933
▁Others	-10934
▁goddess	-10935
▁avo	-10936
otion	-10937
ampton	-10938
▁Chapel	-10939
▁bomber	-10940
▁batteries	-10941
▁Chad	-10942
▁Poly	-10943
▁dozen	-10944
▁laboratory	-10945
▁provisions	-10946
OC	-10947
▁genu	-10948
enburg	-10949
igious	-10950
▁marking	-10951
▁sinking	-10952
▁accessible	-10953
▁guests	-10954
▁impressive	-10955
▁separation	-10956
eff	-10957
▁114	-10958
▁Youth	-10959
▁Voice	-10960
▁Freedom	-10961
tes	-10962
colm	-10963
▁Filming	-10964
▁horizont	-10965
▁nickname	-10966
▁dependent	-10967
▁biological	-10968
anne	-10969
▁laugh	-10970
▁easier	-10971
▁scandal	-10972
iga	-10973
erts	-10974
▁Sud	-10975
▁politician	-10976
▁sor	-10977
▁Glas	-10978
▁supports	-10979
▁parliamentary	-10980
roe	-10981
▁ib	-10982
▁fires	-10983
▁indigenous	-10984
▁rever	-10985
▁avoided	-10986
▁Neb	-10987
▁nose	-10988
▁Leices	-10989
restrial	-10990
▁Friends	-10991
ilda	-10992
artime	-10993
▁afford	-10994
▁threats	-10995
ardo	-10996
▁Bud	-10997
▁Pul	-10998
▁cow	-10999
▁Winds	-11000
▁random	-11001
▁progressed	-11002
aco	-11003
▁Tu	-11004
▁dust	-11005
▁Chester	-11006
▁Marines	-11007
▁Armenian	-11008
▁deputy	-11009
▁formula	-11010
▁biography	-11011
▁consumption	-11012
▁restrictions	-11013
icking	-11014
▁Kenneth	-11015
▁Members	-11016
▁corporate	-11017
rior	-11018
▁Agu	-11019
▁lighter	-11020
▁volcanic	-11021
▁fed	-11022
▁eld	-11023
▁Cryst	-11024
▁truly	-11025
▁Malcolm	-11026
ín	-11027
hill	-11028
▁liver	-11029
▁Protestant	-11030
▁Meteorological	-11031
▁Oscar	-11032
▁imposed	-11033
osph	-11034
ught	-11035
▁Case	-11036
▁rugby	-11037
▁Energy	-11038
▁mixing	-11039
▁Orchestra	-11040
▁occurring	-11041
▁particles	-11042
▁sav	-11043
▁Vick	-11044
▁Pedro	-11045
▁usage	-11046
▁Chamberlain	-11047
cliff	-11048
▁Cena	-11049
▁Duch	-11050
▁fier	-11051
▁trunk	-11052
▁produces	-11053
▁Tru	-11054
agles	-11055
eling	-11056
▁Bapt	-11057
▁fles	-11058
▁Bears	-11059
▁toxic	-11060
▁noticed	-11061
▁murdered	-11062
▁evacuation	-11063
held	-11064
▁Skin	-11065
▁cash	-11066
▁Lower	-11067
▁dreadn	-11068
ailing	-11069
▁Isaac	-11070
▁license	-11071
▁Boulevard	-11072
▁customers	-11073
▁Beth	-11074
▁contracts	-11075
▁defenders	-11076
▁enh	-11077
▁Cinc	-11078
▁Dublin	-11079
orted	-11080
▁acre	-11081
ielder	-11082
▁DJ	-11083
isan	-11084
▁ERA	-11085
▁Tree	-11086
▁exile	-11087
▁wound	-11088
changed	-11089
oples	-11090
ocal	-11091
▁1862	-11092
▁Chair	-11093
▁Sic	-11094
▁Cinem	-11095
▁lawsuit	-11096
▁cathedral	-11097
▁Zero	-11098
▁Athletic	-11099
ptic	-11100
▁relation	-11101
fly	-11102
amics	-11103
▁Peng	-11104
▁grap	-11105
▁wake	-11106
▁choir	-11107
▁Cyclone	-11108
▁Room	-11109
▁intent	-11110
▁speculation	-11111
▁killer	-11112
▁nephew	-11113
gé	-11114
▁XX	-11115
action	-11116
▁Antar	-11117
▁debris	-11118
▁ordinary	-11119
▁engineers	-11120
NC	-11121
▁hence	-11122
▁stall	-11123
▁plates	-11124
ía	-11125
▁LP	-11126
▁Saf	-11127
▁Term	-11128
▁angry	-11129
point	-11130
▁Eddie	-11131
▁Action	-11132
▁Career	-11133
▁Bradley	-11134
▁depicting	-11135
▁aside	-11136
▁eastward	-11137
▁disappointed	-11138
▁Guild	-11139
▁timber	-11140
icken	-11141
▁prest	-11142
▁developments	-11143
▁intellectual	-11144
▁MV	-11145
▁Fil	-11146
▁kilog	-11147
▁Glee	-11148
▁ignored	-11149
▁decrease	-11150
▁encounters	-11151
▁industries	-11152
▁Continental	-11153
▁threatening	-11154
▁Break	-11155
▁lyrical	-11156
▁conquest	-11157
▁Tournament	-11158
▁Gabri	-11159
▁throwing	-11160
ulum	-11161
enberg	-11162
▁Metro	-11163
izz	-11164
▁cam	-11165
▁Serbia	-11166
▁Archbishop	-11167
▁complicated	-11168
▁territorial	-11169
eps	-11170
uri	-11171
overed	-11172
▁mechanism	-11173
▁undertaken	-11174
quer	-11175
▁abb	-11176
▁mol	-11177
▁Alberta	-11178
▁Cincinn	-11179
▁thunderstorm	-11180
▁revolutionary	-11181
▁Saw	-11182
▁Traff	-11183
▁Altern	-11184
▁vicinity	-11185
gett	-11186
▁Take	-11187
▁Watch	-11188
▁mounts	-11189
mo	-11190
▁elite	-11191
▁strikes	-11192
▁touchdowns	-11193
▁convicted	-11194
▁une	-11195
emble	-11196
▁Bark	-11197
▁exhibit	-11198
▁humanity	-11199
▁championships	-11200
auc	-11201
aneous	-11202
entieth	-11203
▁focuses	-11204
▁conversation	-11205
▁107	-11206
▁Has	-11207
▁Tommy	-11208
▁confident	-11209
▁Collection	-11210
▁Springfield	-11211
osion	-11212
▁remin	-11213
umbered	-11214
▁lacking	-11215
▁mammals	-11216
▁contacted	-11217
▁inaugural	-11218
▁Gon	-11219
▁Micha	-11220
▁fab	-11221
▁therm	-11222
▁Future	-11223
▁entert	-11224
▁farmers	-11225
▁preserve	-11226
▁realistic	-11227
▁suspension	-11228
▁Than	-11229
heimer	-11230
▁Gates	-11231
▁Đ	-11232
▁gif	-11233
▁ward	-11234
▁Place	-11235
▁Villa	-11236
▁constantly	-11237
▁RO	-11238
racks	-11239
rogen	-11240
▁Shah	-11241
▁boost	-11242
▁Gibral	-11243
▁Muslims	-11244
▁Joan	-11245
▁arose	-11246
▁ferry	-11247
▁metre	-11248
▁infection	-11249
▁Yugoslavia	-11250
▁helicopter	-11251
▁breast	-11252
itime	-11253
▁Studies	-11254
▁diamond	-11255
idia	-11256
▁157	-11257
▁voters	-11258
▁Marshal	-11259
ovic	-11260
▁stim	-11261
liminary	-11262
▁feathers	-11263
▁collaborated	-11264
▁predominantly	-11265
oba	-11266
▁1840	-11267
▁facil	-11268
▁posts	-11269
▁stern	-11270
▁tools	-11271
▁thorough	-11272
encer	-11273
▁Malta	-11274
▁Canu	-11275
▁Slav	-11276
▁Shiva	-11277
▁Wagner	-11278
▁desper	-11279
▁asserted	-11280
iked	-11281
icing	-11282
▁Jake	-11283
▁Mang	-11284
hanced	-11285
▁patient	-11286
▁absorbed	-11287
▁Gibraltar	-11288
▁Ent	-11289
▁Cand	-11290
▁Maine	-11291
mont	-11292
▁castles	-11293
▁centered	-11294
▁releasing	-11295
etary	-11296
▁Shep	-11297
▁holes	-11298
osy	-11299
▁Pas	-11300
▁grows	-11301
▁infer	-11302
▁Cincinnati	-11303
▁mos	-11304
▁por	-11305
quiry	-11306
▁Taiwan	-11307
▁removing	-11308
▁peninsula	-11309
▁220	-11310
▁Parks	-11311
▁illustrated	-11312
▁Vo	-11313
▁Sex	-11314
▁mit	-11315
▁Rear	-11316
▁Ancient	-11317
▁Angelou	-11318
▁Friedrich	-11319
▁explanation	-11320
oirs	-11321
▁tune	-11322
rolled	-11323
▁knows	-11324
▁Comics	-11325
▁speeds	-11326
▁sustain	-11327
oting	-11328
▁user	-11329
ortion	-11330
▁Bulgar	-11331
▁apolog	-11332
itol	-11333
▁Hood	-11334
▁Robin	-11335
▁compiled	-11336
▁Luft	-11337
▁breeds	-11338
▁canceled	-11339
onial	-11340
▁bowl	-11341
leb	-11342
▁Ord	-11343
▁Reed	-11344
▁Tint	-11345
▁penn	-11346
▁antib	-11347
▁photo	-11348
▁resid	-11349
▁retrie	-11350
▁relieved	-11351
▁Waters	-11352
▁Normandy	-11353
▁situations	-11354
▁independently	-11355
▁AL	-11356
itic	-11357
ellers	-11358
▁enorm	-11359
▁chrom	-11360
alg	-11361
hou	-11362
auge	-11363
▁Lords	-11364
regular	-11365
▁roadway	-11366
▁Uk	-11367
▁isn	-11368
odium	-11369
▁1887	-11370
DI	-11371
▁LS	-11372
▁da	-11373
gans	-11374
▁978	-11375
ubble	-11376
▁Hull	-11377
▁Maced	-11378
▁Vegas	-11379
▁lover	-11380
▁Shield	-11381
▁pleased	-11382
Hg	-11383
asury	-11384
iture	-11385
▁Bulg	-11386
issioned	-11387
▁Alliance	-11388
▁offshore	-11389
▁Camb	-11390
▁Olivia	-11391
▁layers	-11392
▁marched	-11393
▁Chet	-11394
▁Round	-11395
▁sheep	-11396
▁clergy	-11397
▁Afghanistan	-11398
▁Hom	-11399
▁locomotives	-11400
hart	-11401
▁1863	-11402
▁VIII	-11403
▁incom	-11404
▁Madison	-11405
▁viewing	-11406
▁outstanding	-11407
▁perc	-11408
▁couldn	-11409
▁Twitter	-11410
▁recruit	-11411
assy	-11412
ipher	-11413
▁Burke	-11414
▁arena	-11415
▁genres	-11416
▁paying	-11417
▁Conservative	-11418
▁Mi	-11419
▁126	-11420
▁132	-11421
▁1886	-11422
▁Edmund	-11423
▁expanding	-11424
ocol	-11425
▁pig	-11426
▁closure	-11427
▁prosper	-11428
▁varying	-11429
▁Technology	-11430
cha	-11431
▁Pay	-11432
▁Gregory	-11433
▁Leeds	-11434
▁Former	-11435
▁colored	-11436
umberland	-11437
▁Schumacher	-11438
akh	-11439
occ	-11440
▁119	-11441
▁disappeared	-11442
atsu	-11443
▁Revolutionary	-11444
▁cu	-11445
▁mild	-11446
overty	-11447
▁suggestion	-11448
▁regulations	-11449
rels	-11450
▁Poké	-11451
▁reporting	-11452
▁JNA	-11453
▁Kid	-11454
▁aest	-11455
▁mask	-11456
▁celebrate	-11457
▁atop	-11458
▁Orton	-11459
▁armoured	-11460
ieg	-11461
▁hybrid	-11462
▁fungus	-11463
▁Brooklyn	-11464
▁sentiment	-11465
instein	-11466
▁Mercury	-11467
▁inducted	-11468
▁conspiracy	-11469
▁bapt	-11470
ennial	-11471
ischer	-11472
▁blast	-11473
▁backst	-11474
▁Princeton	-11475
▁Pros	-11476
▁Julian	-11477
▁butter	-11478
▁faculty	-11479
▁attraction	-11480
lem	-11481
▁lib	-11482
ribution	-11483
▁McKinley	-11484
omed	-11485
ework	-11486
found	-11487
ritic	-11488
▁Dennis	-11489
▁romance	-11490
▁reporter	-11491
▁Cer	-11492
▁Hubb	-11493
▁Mann	-11494
▁Mult	-11495
▁flour	-11496
▁dropping	-11497
▁nevertheless	-11498
imony	-11499
music	-11500
▁Browns	-11501
▁Kon	-11502
izard	-11503
onnie	-11504
▁blamed	-11505
▁witnesses	-11506
ulates	-11507
▁Tigers	-11508
▁conced	-11509
▁submer	-11510
▁Els	-11511
▁Cort	-11512
▁Rush	-11513
▁Serge	-11514
▁Organization	-11515
leted	-11516
▁swept	-11517
▁Nation	-11518
▁fundamental	-11519
▁Dud	-11520
▁Helen	-11521
▁remote	-11522
▁companion	-11523
▁publicity	-11524
▁Leo	-11525
▁eagle	-11526
▁repris	-11527
▁stored	-11528
▁organic	-11529
▁MLB	-11530
▁Nathan	-11531
▁parking	-11532
▁whatever	-11533
▁submarines	-11534
▁spir	-11535
▁Brand	-11536
▁Historical	-11537
▁positioned	-11538
▁patri	-11539
▁retreated	-11540
▁mad	-11541
▁fant	-11542
▁annex	-11543
▁verses	-11544
▁Musical	-11545
▁stability	-11546
etta	-11547
▁Month	-11548
▁focusing	-11549
▁progressive	-11550
▁fortifications	-11551
▁1884	-11552
▁inHg	-11553
▁oxid	-11554
▁fract	-11555
▁shelter	-11556
▁targeted	-11557
▁condemned	-11558
▁NASA	-11559
▁Hubbard	-11560
▁Fly	-11561
ensis	-11562
▁Soph	-11563
▁Barcel	-11564
▁Glasgow	-11565
▁wrap	-11566
▁Talk	-11567
▁noise	-11568
▁Salv	-11569
acular	-11570
▁Steam	-11571
▁flown	-11572
▁monit	-11573
▁gentle	-11574
▁irregular	-11575
▁corresponding	-11576
▁tent	-11577
▁Tests	-11578
▁curve	-11579
▁Canucks	-11580
▁disbanded	-11581
▁resignation	-11582
▁Eld	-11583
▁fossils	-11584
iah	-11585
▁asc	-11586
mates	-11587
▁Isle	-11588
▁lung	-11589
▁Father	-11590
▁Political	-11591
▁Aub	-11592
▁drunk	-11593
▁confused	-11594
▁detected	-11595
▁mail	-11596
▁winners	-11597
▁convince	-11598
▁telephone	-11599
▁torpedoes	-11600
▁challenging	-11601
acht	-11602
▁Devil	-11603
▁Opera	-11604
▁magnetic	-11605
▁preceding	-11606
▁Isab	-11607
▁swing	-11608
▁cruise	-11609
▁rebounds	-11610
▁roster	-11611
▁machines	-11612
▁mentions	-11613
▁Coal	-11614
▁Fifth	-11615
▁Smack	-11616
▁quoted	-11617
▁Phillies	-11618
▁Kaz	-11619
▁Ghost	-11620
▁brings	-11621
▁Holland	-11622
▁Montana	-11623
▁rice	-11624
▁studios	-11625
▁insurance	-11626
▁NW	-11627
▁worse	-11628
▁calculated	-11629
én	-11630
▁Stal	-11631
▁Solar	-11632
▁fault	-11633
▁melod	-11634
▁solely	-11635
▁concepts	-11636
▁directing	-11637
inated	-11638
▁Herbert	-11639
▁Theodore	-11640
▁creature	-11641
▁terminal	-11642
▁diversity	-11643
▁regiments	-11644
▁BCE	-11645
▁Percy	-11646
▁tourist	-11647
enz	-11648
mans	-11649
▁Kill	-11650
▁Nass	-11651
▁migr	-11652
▁Inside	-11653
▁darker	-11654
▁Millennium	-11655
auded	-11656
▁thanks	-11657
▁judicial	-11658
▁rotation	-11659
▁Westminster	-11660
▁Morning	-11661
▁Oil	-11662
▁1877	-11663
▁Chem	-11664
▁Insp	-11665
ishops	-11666
usters	-11667
▁Burg	-11668
▁nice	-11669
▁Tintin	-11670
▁triumph	-11671
▁historically	-11672
▁151	-11673
icles	-11674
▁hide	-11675
▁Celtic	-11676
▁favored	-11677
▁Adventure	-11678
▁CEO	-11679
arded	-11680
▁examined	-11681
▁scholarship	-11682
oom	-11683
wing	-11684
▁aqu	-11685
▁jersey	-11686
▁Mercedes	-11687
▁103	-11688
▁Chang	-11689
utter	-11690
▁bore	-11691
▁Denver	-11692
▁myself	-11693
ré	-11694
bel	-11695
▁Hus	-11696
▁1876	-11697
▁Vern	-11698
▁Basketball	-11699
▁Kin	-11700
▁cha	-11701
▁Epis	-11702
onso	-11703
igger	-11704
overy	-11705
▁gear	-11706
▁zero	-11707
olia	-11708
▁Lud	-11709
amine	-11710
▁Cond	-11711
▁steadily	-11712
▁prompting	-11713
▁battlefield	-11714
▁138	-11715
▁Austro	-11716
▁config	-11717
▁wartime	-11718
▁acclaimed	-11719
iors	-11720
hentic	-11721
▁Albany	-11722
▁messages	-11723
bie	-11724
▁sulf	-11725
▁trio	-11726
▁balls	-11727
▁walked	-11728
▁rounded	-11729
gus	-11730
▁cotton	-11731
▁sharing	-11732
▁measuring	-11733
▁monastery	-11734
▁Poe	-11735
▁jew	-11736
▁spacecraft	-11737
▁reconstruction	-11738
ewise	-11739
▁Glou	-11740
▁Yard	-11741
▁Ronald	-11742
▁Strong	-11743
▁screens	-11744
▁Additional	-11745
▁af	-11746
▁connects	-11747
▁elevated	-11748
▁Bulgarian	-11749
▁Cany	-11750
▁guards	-11751
▁agencies	-11752
▁eligible	-11753
var	-11754
▁ghost	-11755
▁gusts	-11756
▁agrees	-11757
▁Theater	-11758
cour	-11759
omon	-11760
▁116	-11761
▁Rus	-11762
avian	-11763
▁troop	-11764
▁curved	-11765
▁themed	-11766
▁routing	-11767
▁decisive	-11768
▁commitment	-11769
▁distinction	-11770
hend	-11771
▁Tir	-11772
roscop	-11773
▁Ottawa	-11774
▁presents	-11775
▁Pick	-11776
▁Athen	-11777
▁motif	-11778
▁Carlos	-11779
▁Gothic	-11780
▁Current	-11781
▁refuses	-11782
▁accomplished	-11783
▁EC	-11784
qual	-11785
▁Nevada	-11786
▁clouds	-11787
▁opined	-11788
gary	-11789
lude	-11790
▁Aer	-11791
▁hyper	-11792
▁postp	-11793
▁Rivers	-11794
▁radius	-11795
▁revenge	-11796
▁conducting	-11797
▁Cou	-11798
▁Cox	-11799
▁Expl	-11800
▁kids	-11801
▁masc	-11802
assing	-11803
▁cemetery	-11804
▁exterior	-11805
▁arguments	-11806
▁incidents	-11807
zes	-11808
atty	-11809
ishn	-11810
▁Sri	-11811
▁walks	-11812
▁physically	-11813
gon	-11814
▁Ce	-11815
▁Pokémon	-11816
▁Barcelona	-11817
▁Territory	-11818
▁proclaimed	-11819
cell	-11820
▁linear	-11821
▁Michaels	-11822
▁creatures	-11823
▁kilometers	-11824
asp	-11825
uka	-11826
ampa	-11827
▁129	-11828
▁230	-11829
▁tap	-11830
▁echo	-11831
▁flower	-11832
▁consequence	-11833
▁participating	-11834
ahl	-11835
▁1830	-11836
▁comed	-11837
▁encomp	-11838
▁integrated	-11839
hall	-11840
▁122	-11841
lined	-11842
▁hosp	-11843
▁Squad	-11844
▁tough	-11845
▁134	-11846
▁1875	-11847
▁loose	-11848
▁finest	-11849
▁venues	-11850
▁indirect	-11851
▁Cardinals	-11852
opard	-11853
▁rebel	-11854
▁width	-11855
▁Paraly	-11856
▁centimet	-11857
ju	-11858
inge	-11859
▁RI	-11860
▁fo	-11861
▁Abra	-11862
▁Enix	-11863
lett	-11864
▁Berm	-11865
omical	-11866
▁chann	-11867
istical	-11868
▁theaters	-11869
▁complimented	-11870
bach	-11871
flow	-11872
aults	-11873
▁Chuck	-11874
▁spell	-11875
▁intend	-11876
▁runner	-11877
▁properly	-11878
▁ceremonies	-11879
reeks	-11880
▁milk	-11881
▁lesser	-11882
▁ritual	-11883
▁enhanced	-11884
▁demographic	-11885
ding	-11886
itars	-11887
▁Drake	-11888
▁Milan	-11889
▁spots	-11890
▁poster	-11891
▁prince	-11892
▁extends	-11893
▁Churchill	-11894
▁contribute	-11895
▁lakes	-11896
▁scout	-11897
▁telesc	-11898
▁Parkway	-11899
▁reminisc	-11900
▁deliberately	-11901
▁touc	-11902
▁Colin	-11903
▁bowled	-11904
▁peoples	-11905
▁Bris	-11906
▁varies	-11907
▁Raymond	-11908
▁mansion	-11909
▁preparations	-11910
ettes	-11911
ighed	-11912
▁cosm	-11913
acking	-11914
alling	-11915
▁Foster	-11916
▁remake	-11917
▁borough	-11918
▁heavier	-11919
▁martial	-11920
eda	-11921
▁Hok	-11922
▁1883	-11923
▁Derby	-11924
▁insuff	-11925
▁Esc	-11926
▁RBI	-11927
arthy	-11928
▁Mega	-11929
▁Metac	-11930
▁harsh	-11931
▁weakness	-11932
▁instructions	-11933
▁Barn	-11934
▁Emma	-11935
▁canon	-11936
▁contrad	-11937
▁Operations	-11938
▁southwestern	-11939
▁Caes	-11940
season	-11941
▁onwards	-11942
▁Romanian	-11943
▁ministers	-11944
▁transformed	-11945
▁intermediate	-11946
unge	-11947
rians	-11948
▁Wings	-11949
▁Sor	-11950
Music	-11951
▁1881	-11952
▁Marl	-11953
▁Verm	-11954
▁updated	-11955
▁playable	-11956
▁possessed	-11957
▁continental	-11958
rob	-11959
▁Manuel	-11960
▁coaches	-11961
inter	-11962
▁achievements	-11963
Down	-11964
▁Jose	-11965
▁hurt	-11966
▁rook	-11967
arians	-11968
▁Circle	-11969
▁SmackDown	-11970
▁sensitive	-11971
▁initiative	-11972
▁Pel	-11973
▁Ran	-11974
ashire	-11975
▁Sciences	-11976
▁airborne	-11977
▁prospect	-11978
▁Occ	-11979
▁logo	-11980
▁rider	-11981
▁outcome	-11982
AP	-11983
nda	-11984
▁Venice	-11985
▁propaganda	-11986
▁transmission	-11987
▁Led	-11988
▁aided	-11989
▁Northwest	-11990
▁homosexual	-11991
▁Jamaica	-11992
▁Middles	-11993
▁Computer	-11994
▁consideration	-11995
zed	-11996
▁yd	-11997
▁fru	-11998
▁Pack	-11999
▁optim	-12000
▁Hispan	-12001
▁allied	-12002
▁variable	-12003
▁critically	-12004
▁Bour	-12005
▁Brah	-12006
▁Belie	-12007
▁disabled	-12008
▁Richardson	-12009
▁vegetation	-12010
▁autobiography	-12011
▁consciousness	-12012
▁Duc	-12013
▁RNA	-12014
herent	-12015
▁Paralymp	-12016
▁orchestral	-12017
▁1869	-12018
▁Diamond	-12019
▁deposits	-12020
▁emerging	-12021
▁tourists	-12022
▁Rosen	-12023
▁Powell	-12024
▁estimate	-12025
▁depiction	-12026
▁exercises	-12027
▁Nad	-12028
▁Blair	-12029
▁Duncan	-12030
▁monster	-12031
▁Lancashire	-12032
elin	-12033
▁moist	-12034
▁spite	-12035
▁Calgary	-12036
ironments	-12037
▁Composition	-12038
▁unh	-12039
izers	-12040
▁Body	-12041
▁landmark	-12042
▁Henderson	-12043
▁permanently	-12044
ubs	-12045
▁Unit	-12046
alties	-12047
▁Arena	-12048
▁unanim	-12049
▁worker	-12050
▁routine	-12051
▁punishment	-12052
▁consistently	-12053
cont	-12054
▁Sad	-12055
▁1866	-12056
▁Hein	-12057
▁comprising	-12058
▁northeastern	-12059
▁Ga	-12060
acer	-12061
▁wit	-12062
▁grid	-12063
▁latest	-12064
▁borders	-12065
▁presidency	-12066
▁Ferdin	-12067
orf	-12068
aton	-12069
▁Brid	-12070
▁Delta	-12071
▁Floyd	-12072
▁Isles	-12073
▁Total	-12074
▁staged	-12075
▁Weather	-12076
▁assassination	-12077
▁Voy	-12078
▁managing	-12079
▁delegates	-12080
▁searching	-12081
▁journalists	-12082
▁subtropical	-12083
eries	-12084
▁ascend	-12085
▁payment	-12086
▁sailors	-12087
▁damaging	-12088
▁municipal	-12089
▁performers	-12090
▁achievement	-12091
▁environments	-12092
vor	-12093
iffer	-12094
▁Alam	-12095
▁Speed	-12096
▁honors	-12097
▁summon	-12098
▁doctrine	-12099
▁belonging	-12100
▁revealing	-12101
lake	-12102
▁witnessed	-12103
rang	-12104
▁Syn	-12105
works	-12106
▁mysterious	-12107
▁bin	-12108
▁marg	-12109
riages	-12110
▁encourage	-12111
▁128	-12112
▁Mills	-12113
▁Using	-12114
▁honey	-12115
▁psychiat	-12116
▁archaeological	-12117
▁input	-12118
▁priority	-12119
▁reluctant	-12120
▁complement	-12121
RS	-12122
bu	-12123
▁dock	-12124
▁Canyon	-12125
▁Contem	-12126
▁Crawford	-12127
▁philosopher	-12128
ni	-12129
▁epit	-12130
▁Range	-12131
▁Schol	-12132
▁phenomenon	-12133
▁preventing	-12134
▁reh	-12135
▁amphib	-12136
▁Springs	-12137
▁Leicester	-12138
▁dispatched	-12139
▁unsuccessfully	-12140
▁Seb	-12141
▁odd	-12142
▁marsh	-12143
▁Archae	-12144
▁Frances	-12145
Brien	-12146
▁Ellen	-12147
▁argue	-12148
▁enlar	-12149
▁gates	-12150
atorial	-12151
▁silent	-12152
▁venture	-12153
▁actively	-12154
▁Herm	-12155
▁versus	-12156
▁hypothesis	-12157
▁Rav	-12158
▁Wis	-12159
▁pref	-12160
▁lengths	-12161
▁Veronica	-12162
▁belonged	-12163
▁coaching	-12164
▁switched	-12165
▁Rodrig	-12166
▁confer	-12167
assic	-12168
▁Grove	-12169
▁750	-12170
▁finance	-12171
▁frigate	-12172
▁strange	-12173
GM	-12174
▁seal	-12175
▁anarch	-12176
▁ceiling	-12177
▁poverty	-12178
▁disputed	-12179
▁Palestine	-12180
▁executives	-12181
▁distinguish	-12182
▁124	-12183
▁Arc	-12184
▁Planet	-12185
▁Crystal	-12186
▁eighteen	-12187
▁awareness	-12188
▁listening	-12189
▁scientist	-12190
▁corruption	-12191
▁Hi	-12192
▁Tas	-12193
actic	-12194
▁Fischer	-12195
▁introduce	-12196
anka	-12197
▁Nam	-12198
▁Tucker	-12199
▁Conserv	-12200
▁mechanics	-12201
▁directions	-12202
▁Headquarters	-12203
▁contributing	-12204
alia	-12205
▁1873	-12206
▁Medic	-12207
▁shaft	-12208
▁exploration	-12209
▁expectations	-12210
ikes	-12211
▁oct	-12212
adows	-12213
iating	-12214
▁ion	-12215
▁1882	-12216
▁Assist	-12217
▁procedure	-12218
▁Mut	-12219
▁Wel	-12220
ijing	-12221
▁1871	-12222
▁Carn	-12223
▁adjust	-12224
▁Telegraph	-12225
▁internationally	-12226
▁Fun	-12227
▁molecular	-12228
▁formations	-12229
pin	-12230
▁icon	-12231
▁Region	-12232
▁whales	-12233
▁rational	-12234
▁naturally	-12235
▁surpassed	-12236
Tunes	-12237
▁Cloud	-12238
▁metals	-12239
▁objectives	-12240
▁1867	-12241
▁Food	-12242
▁Punk	-12243
▁gest	-12244
▁mbar	-12245
▁vamp	-12246
▁Films	-12247
▁carved	-12248
▁guitars	-12249
▁leagues	-12250
▁mystery	-12251
▁Flanders	-12252
▁advocated	-12253
▁improving	-12254
atar	-12255
▁root	-12256
rington	-12257
▁Truman	-12258
abad	-12259
rium	-12260
▁intr	-12261
▁saving	-12262
▁tribut	-12263
▁desired	-12264
▁É	-12265
eches	-12266
odied	-12267
▁Marqu	-12268
▁sheet	-12269
▁privile	-12270
▁shipped	-12271
chi	-12272
▁reop	-12273
istocr	-12274
▁accus	-12275
▁Kepler	-12276
▁Commons	-12277
▁submerged	-12278
▁dimensional	-12279
LA	-12280
usty	-12281
▁plum	-12282
▁pseud	-12283
▁Intellig	-12284
▁abundant	-12285
▁discussing	-12286
▁processing	-12287
vik	-12288
▁abst	-12289
▁requirement	-12290
▁overwhelming	-12291
▁staying	-12292
ogg	-12293
core	-12294
▁Seas	-12295
▁tasks	-12296
▁remind	-12297
▁temples	-12298
▁acceptance	-12299
olan	-12300
▁Kil	-12301
▁1878	-12302
▁Pine	-12303
▁crucial	-12304
▁Mile	-12305
▁cubic	-12306
▁reson	-12307
▁unrel	-12308
▁Dudley	-12309
▁Standard	-12310
▁associate	-12311
▁horsepower	-12312
▁UB	-12313
nery	-12314
▁Alt	-12315
ierra	-12316
▁mant	-12317
▁Deputy	-12318
▁Beijing	-12319
▁convert	-12320
▁Why	-12321
asaki	-12322
▁Shin	-12323
angered	-12324
▁partners	-12325
zig	-12326
▁True	-12327
▁Watson	-12328
▁Masters	-12329
▁explored	-12330
chw	-12331
asia	-12332
▁Anat	-12333
▁estates	-12334
▁comprised	-12335
▁Ply	-12336
erness	-12337
▁nervous	-12338
▁McCarthy	-12339
▁blockade	-12340
▁speculated	-12341
umi	-12342
usive	-12343
▁dive	-12344
▁genes	-12345
▁Desert	-12346
▁Commerc	-12347
▁channels	-12348
▁keyboard	-12349
▁opinions	-12350
▁refugees	-12351
▁composers	-12352
gor	-12353
▁SA	-12354
▁liv	-12355
▁cameo	-12356
▁Newman	-12357
▁Trinity	-12358
▁collecting	-12359
rews	-12360
▁Bea	-12361
asses	-12362
▁adequ	-12363
amation	-12364
▁resemble	-12365
▁authentic	-12366
▁fragments	-12367
appa	-12368
▁Adela	-12369
▁Exped	-12370
▁loaded	-12371
▁navigation	-12372
▁eleph	-12373
▁suffer	-12374
isations	-12375
▁undertook	-12376
▁Gibson	-12377
▁iTunes	-12378
▁immigrants	-12379
eded	-12380
▁Luftw	-12381
HC	-12382
▁jaw	-12383
▁averaged	-12384
▁habitats	-12385
▁turbines	-12386
▁percussion	-12387
▁pump	-12388
▁Professional	-12389
▁137	-12390
immer	-12391
▁seeds	-12392
▁Guadal	-12393
kh	-12394
lex	-12395
▁Raid	-12396
▁republic	-12397
▁complaints	-12398
▁compromise	-12399
▁manufactured	-12400
▁202	-12401
utely	-12402
thlete	-12403
▁whale	-12404
▁genera	-12405
▁posthum	-12406
rehensive	-12407
▁Clif	-12408
▁ants	-12409
▁Alpha	-12410
▁assets	-12411
▁homeless	-12412
▁networks	-12413
arus	-12414
suing	-12415
▁Mail	-12416
▁craf	-12417
▁Eagle	-12418
▁Malay	-12419
▁photos	-12420
▁rushed	-12421
▁ov	-12422
▁haz	-12423
▁Culture	-12424
▁discour	-12425
▁consequences	-12426
▁Aqu	-12427
▁Meyer	-12428
▁bench	-12429
▁femin	-12430
▁faction	-12431
▁manages	-12432
▁coastline	-12433
▁underwater	-12434
▁Surv	-12435
▁bars	-12436
▁gauge	-12437
▁absolute	-12438
▁dissolved	-12439
▁Metacritic	-12440
▁Wellington	-12441
▁Ib	-12442
▁Berg	-12443
▁Hass	-12444
▁Angle	-12445
▁Colomb	-12446
▁symbols	-12447
▁eruption	-12448
▁reconstruct	-12449
▁psychological	-12450
ilogy	-12451
▁lesb	-12452
ulture	-12453
▁Mobile	-12454
▁fabric	-12455
▁honorary	-12456
▁Luftwaffe	-12457
▁Rif	-12458
▁Tib	-12459
▁Aaron	-12460
▁repet	-12461
▁stair	-12462
▁Luther	-12463
▁Bermuda	-12464
boat	-12465
▁Syl	-12466
▁Shelley	-12467
▁lengthy	-12468
▁Trav	-12469
▁Appro	-12470
▁Psych	-12471
▁ineff	-12472
▁relied	-12473
▁Baptist	-12474
▁consensus	-12475
rection	-12476
▁lemurs	-12477
▁variant	-12478
▁ultimate	-12479
▁sic	-12480
▁Vlad	-12481
▁loyalty	-12482
▁Bass	-12483
▁adds	-12484
employ	-12485
▁Method	-12486
▁Monroe	-12487
ographed	-12488
▁ensuing	-12489
▁singers	-12490
▁aristocr	-12491
oves	-12492
▁fears	-12493
▁summar	-12494
▁signals	-12495
IV	-12496
▁Mak	-12497
iggins	-12498
▁improv	-12499
▁Monster	-12500
▁landings	-12501
▁reserves	-12502
▁unveiled	-12503
aba	-12504
amped	-12505
▁Want	-12506
isting	-12507
mother	-12508
▁eldest	-12509
▁intact	-12510
▁phosph	-12511
▁qualities	-12512
▁1872	-12513
▁cave	-12514
▁assessment	-12515
▁disappoint	-12516
ilera	-12517
▁1868	-12518
▁fraud	-12519
▁Selena	-12520
▁Machine	-12521
▁Aguilera	-12522
▁teachers	-12523
▁Notable	-12524
▁contempor	-12525
inqu	-12526
▁RPG	-12527
▁Mick	-12528
▁Timber	-12529
▁doctors	-12530
▁defenses	-12531
▁ambassador	-12532
orig	-12533
▁Otto	-12534
▁unre	-12535
▁flesh	-12536
▁rocket	-12537
▁millions	-12538
▁Engineering	-12539
▁interactions	-12540
▁battlecruisers	-12541
▁Urban	-12542
▁harvest	-12543
▁emotions	-12544
▁spectators	-12545
avil	-12546
▁Cut	-12547
▁Mull	-12548
▁Various	-12549
▁delight	-12550
▁grossed	-12551
▁printing	-12552
▁literally	-12553
child	-12554
▁duck	-12555
▁Choice	-12556
▁Wolver	-12557
▁pounder	-12558
▁Henri	-12559
▁owing	-12560
▁tradem	-12561
▁comparing	-12562
▁twentieth	-12563
isk	-12564
▁buff	-12565
alysis	-12566
▁essay	-12567
▁anthem	-12568
▁weighed	-12569
▁costumes	-12570
▁songwriting	-12571
▁Marx	-12572
▁amid	-12573
▁brut	-12574
▁clip	-12575
▁sear	-12576
▁Flames	-12577
▁lifted	-12578
▁enormous	-12579
▁Woods	-12580
▁Cabinet	-12581
rays	-12582
▁Pon	-12583
grade	-12584
licted	-12585
▁Ellis	-12586
▁Female	-12587
▁explosive	-12588
▁Dakota	-12589
▁bacteria	-12590
▁engaging	-12591
unar	-12592
ipping	-12593
▁dealt	-12594
▁trips	-12595
through	-12596
▁batsman	-12597
▁revived	-12598
▁SH	-12599
imity	-12600
▁rally	-12601
▁patrols	-12602
▁appealed	-12603
▁instructed	-12604
▁Renaissance	-12605
otypes	-12606
igrated	-12607
▁stabil	-12608
▁Genesis	-12609
▁intelligent	-12610
▁politically	-12611
▁insufficient	-12612
▁Hil	-12613
▁Leigh	-12614
▁Stage	-12615
▁deals	-12616
endar	-12617
▁strings	-12618
▁relating	-12619
▁tensions	-12620
▁Expedition	-12621
▁instrumentation	-12622
GB	-12623
▁MVP	-12624
▁cro	-12625
▁Money	-12626
▁telev	-12627
▁reader	-12628
▁stroke	-12629
▁Newport	-12630
▁Soviets	-12631
▁enrolled	-12632
stown	-12633
▁stom	-12634
▁interf	-12635
▁suited	-12636
▁graphic	-12637
▁Chandler	-12638
▁diseases	-12639
▁horizontal	-12640
▁cats	-12641
monton	-12642
▁WWF	-12643
▁raw	-12644
▁ups	-12645
▁metall	-12646
▁Maxwell	-12647
▁Phillips	-12648
▁hurricanes	-12649
▁Fa	-12650
▁sin	-12651
▁Plat	-12652
▁Curtis	-12653
▁Adelaide	-12654
▁Geoffrey	-12655
▁vocalist	-12656
iki	-12657
omys	-12658
▁Riley	-12659
▁Heaven	-12660
▁bitter	-12661
▁Barrett	-12662
▁referee	-12663
keley	-12664
▁Nept	-12665
▁widow	-12666
▁slower	-12667
BO	-12668
rip	-12669
▁anx	-12670
▁Cool	-12671
▁Butler	-12672
▁termed	-12673
▁chapters	-12674
▁subordin	-12675
▁reminiscent	-12676
orge	-12677
▁Chan	-12678
▁Hanc	-12679
▁perf	-12680
▁Wrest	-12681
▁Ferdinand	-12682
▁exhibited	-12683
▁intersections	-12684
iary	-12685
▁digit	-12686
▁Surrey	-12687
▁Knights	-12688
▁missile	-12689
▁mushroom	-12690
▁allegations	-12691
▁declaration	-12692
ido	-12693
anus	-12694
arma	-12695
▁clan	-12696
utonium	-12697
auna	-12698
▁Essex	-12699
▁wishes	-12700
▁incomple	-12701
▁Therefore	-12702
ugs	-12703
ouch	-12704
▁etc	-12705
▁counsel	-12706
▁involve	-12707
▁mistake	-12708
▁overcome	-12709
▁discipline	-12710
opol	-12711
▁Poll	-12712
▁hier	-12713
▁incred	-12714
▁tactical	-12715
▁mathematics	-12716
ulk	-12717
otto	-12718
▁Abraham	-12719
▁Capital	-12720
▁Spencer	-12721
▁Plymouth	-12722
▁extraordin	-12723
aku	-12724
▁Madrid	-12725
▁Romans	-12726
▁GameSpot	-12727
▁disliked	-12728
▁sacrifice	-12729
eta	-12730
▁Fellow	-12731
▁gallery	-12732
▁cultures	-12733
cht	-12734
▁shirt	-12735
▁Combat	-12736
▁Prison	-12737
▁athletic	-12738
▁quantities	-12739
▁Blake	-12740
▁joins	-12741
▁Gonz	-12742
▁Lore	-12743
▁interference	-12744
bery	-12745
▁subd	-12746
▁modest	-12747
▁Movement	-12748
▁proceeds	-12749
▁thickness	-12750
▁CM	-12751
edar	-12752
▁Nak	-12753
▁hunt	-12754
▁expense	-12755
▁transit	-12756
▁syndrome	-12757
ebe	-12758
oric	-12759
▁Fur	-12760
▁Burger	-12761
▁Marcus	-12762
elia	-12763
▁123	-12764
▁Kerr	-12765
▁Bosnia	-12766
▁fights	-12767
▁caliber	-12768
▁circles	-12769
▁Resident	-12770
▁nicknamed	-12771
ht	-12772
atem	-12773
▁gam	-12774
▁Sche	-12775
▁supporter	-12776
▁Contemporary	-12777
yc	-12778
uits	-12779
▁Lamb	-12780
▁Adrian	-12781
▁Screen	-12782
▁Daniels	-12783
▁Hancock	-12784
▁machinery	-12785
▁migration	-12786
RC	-12787
▁assign	-12788
▁nomine	-12789
▁panels	-12790
▁spores	-12791
▁imported	-12792
▁Brigadier	-12793
▁Relations	-12794
▁locomotive	-12795
dam	-12796
▁141	-12797
heads	-12798
▁rifle	-12799
▁repaired	-12800
▁interviewed	-12801
▁Come	-12802
▁Spit	-12803
▁Right	-12804
▁gaming	-12805
▁washed	-12806
▁Aviation	-12807
▁frog	-12808
▁fatal	-12809
▁Florence	-12810
▁resur	-12811
▁fare	-12812
▁hung	-12813
▁Tales	-12814
▁Fergus	-12815
▁bankrupt	-12816
▁shopping	-12817
▁molecules	-12818
▁commentators	-12819
▁Hond	-12820
▁Shan	-12821
▁joke	-12822
▁custody	-12823
▁unaware	-12824
▁proximity	-12825
▁Publishing	-12826
iden	-12827
▁fluid	-12828
▁continent	-12829
▁Rah	-12830
▁Jeremy	-12831
▁finger	-12832
▁MC	-12833
▁Kes	-12834
▁Garc	-12835
▁Baldwin	-12836
▁currency	-12837
▁Admiralty	-12838
▁mes	-12839
▁shar	-12840
▁weld	-12841
otilla	-12842
▁Heath	-12843
imer	-12844
pect	-12845
urers	-12846
kinson	-12847
▁Norse	-12848
▁Usher	-12849
▁curves	-12850
▁Reading	-12851
▁redesign	-12852
▁pronounced	-12853
igo	-12854
▁Dj	-12855
▁NL	-12856
▁fir	-12857
▁Hergé	-12858
▁Vienna	-12859
▁Manning	-12860
▁Preston	-12861
▁Agricult	-12862
▁Arkansas	-12863
▁Jennifer	-12864
cock	-12865
▁Ltd	-12866
▁Drum	-12867
▁Nobel	-12868
▁allocated	-12869
yan	-12870
olith	-12871
▁beer	-12872
▁Flood	-12873
▁Contin	-12874
▁Tasman	-12875
▁Twenty	-12876
▁Article	-12877
▁Romania	-12878
▁acquire	-12879
▁rulers	-12880
▁Banksia	-12881
▁knowing	-12882
▁contested	-12883
▁successive	-12884
▁View	-12885
▁Metal	-12886
▁relay	-12887
athetic	-12888
▁floors	-12889
▁Stories	-12890
▁undergo	-12891
▁separately	-12892
▁puzz	-12893
itects	-12894
▁betray	-12895
▁demanding	-12896
istle	-12897
▁reef	-12898
▁aviation	-12899
▁memories	-12900
▁populated	-12901
agi	-12902
urbs	-12903
▁Lead	-12904
▁Leban	-12905
▁woods	-12906
▁McDonald	-12907
xide	-12908
▁Mom	-12909
elfth	-12910
▁hect	-12911
▁maneuver	-12912
▁Architect	-12913
▁gathering	-12914
▁discussions	-12915
▁preliminary	-12916
nal	-12917
rint	-12918
cious	-12919
ungle	-12920
▁1879	-12921
▁Sans	-12922
▁Wool	-12923
▁riot	-12924
▁disgu	-12925
▁hatch	-12926
agons	-12927
▁publish	-12928
▁northwestern	-12929
▁Kem	-12930
▁Brew	-12931
▁Minogue	-12932
▁Newfound	-12933
▁comparable	-12934
▁interrupted	-12935
▁mim	-12936
▁zones	-12937
▁scrapped	-12938
▁cylinder	-12939
▁regardless	-12940
▁JG	-12941
alid	-12942
▁Pent	-12943
▁bills	-12944
▁farms	-12945
▁proud	-12946
▁McCain	-12947
▁screening	-12948
▁Electronic	-12949
▁photographer	-12950
star	-12951
▁Idol	-12952
▁dawn	-12953
▁sect	-12954
icular	-12955
▁Bowie	-12956
▁Orthodox	-12957
▁demonstrate	-12958
▁Chin	-12959
▁Chase	-12960
▁cease	-12961
▁Skinner	-12962
▁advances	-12963
▁discontinued	-12964
yd	-12965
▁Bengal	-12966
▁damages	-12967
▁Allmusic	-12968
▁Hawaiian	-12969
▁massacre	-12970
▁installation	-12971
esses	-12972
lings	-12973
▁editing	-12974
▁tourism	-12975
▁nineteenth	-12976
▁Adri	-12977
▁golf	-12978
▁chlor	-12979
▁paved	-12980
▁dynamic	-12981
▁Edmonton	-12982
▁editorial	-12983
eward	-12984
▁Capitol	-12985
▁Lie	-12986
▁ally	-12987
▁halted	-12988
▁Character	-12989
▁Wa	-12990
▁bol	-12991
▁tong	-12992
ashing	-12993
▁sporting	-12994
▁Lancaster	-12995
▁Industrial	-12996
▁Tall	-12997
▁Sponge	-12998
▁subsidi	-12999
▁Newfoundland	-13000
wind	-13001
arted	-13002
osity	-13003
▁Perth	-13004
▁cylind	-13005
▁gravity	-13006
▁licensed	-13007
▁regained	-13008
▁Single	-13009
▁therapy	-13010
▁seemingly	-13011
▁neighbouring	-13012
nut	-13013
▁Esp	-13014
▁Suff	-13015
▁chord	-13016
▁subsc	-13017
istence	-13018
▁harbor	-13019
▁subtle	-13020
▁uprising	-13021
▁sew	-13022
▁Shar	-13023
▁Wald	-13024
▁opted	-13025
▁unrest	-13026
▁crowned	-13027
▁projected	-13028
▁Suz	-13029
▁busy	-13030
▁Turks	-13031
▁grain	-13032
▁Senior	-13033
▁citizen	-13034
ologically	-13035
▁contracted	-13036
▁administered	-13037
iang	-13038
▁Fab	-13039
▁Shadow	-13040
▁lessons	-13041
▁disputes	-13042
▁descended	-13043
▁protecting	-13044
▁Equ	-13045
aston	-13046
stand	-13047
▁Ports	-13048
▁creates	-13049
▁Beautiful	-13050
▁deployment	-13051
▁functional	-13052
▁instruction	-13053
▁anger	-13054
▁masses	-13055
▁openly	-13056
▁descendants	-13057
urse	-13058
▁trem	-13059
▁barely	-13060
▁Circuit	-13061
▁privately	-13062
lia	-13063
wig	-13064
▁Hat	-13065
▁lip	-13066
▁Winc	-13067
▁regist	-13068
▁accomplish	-13069
ör	-13070
▁Motor	-13071
▁coloured	-13072
▁cooperation	-13073
pit	-13074
▁Bent	-13075
▁totally	-13076
▁Senators	-13077
▁captivity	-13078
▁northwestward	-13079
ovsky	-13080
▁overh	-13081
▁deeper	-13082
▁symmet	-13083
▁jumping	-13084
▁volcano	-13085
▁Buddhist	-13086
▁corridor	-13087
ramid	-13088
▁honest	-13089
▁atmospheric	-13090
▁Mol	-13091
onnell	-13092
▁Janet	-13093
▁Logan	-13094
▁fluor	-13095
▁perpet	-13096
▁Mounted	-13097
▁farming	-13098
▁outdoor	-13099
▁Caroline	-13100
▁generals	-13101
▁collision	-13102
▁Laf	-13103
anian	-13104
▁misc	-13105
aceous	-13106
▁Louise	-13107
▁planes	-13108
▁rapper	-13109
▁delegation	-13110
▁necessarily	-13111
▁Gaz	-13112
▁lux	-13113
▁file	-13114
▁chess	-13115
▁lacks	-13116
▁delays	-13117
▁orient	-13118
▁steady	-13119
▁invented	-13120
▁ambitious	-13121
▁ibn	-13122
rosse	-13123
▁gamb	-13124
▁Motion	-13125
▁Adventures	-13126
front	-13127
guard	-13128
isphere	-13129
▁coalition	-13130
▁Protection	-13131
ikh	-13132
▁Task	-13133
▁Tiger	-13134
▁reiss	-13135
▁suburb	-13136
▁conting	-13137
▁Generation	-13138
blem	-13139
▁gran	-13140
ervers	-13141
▁eject	-13142
▁nests	-13143
▁quit	-13144
▁greet	-13145
▁Sierra	-13146
▁Nashville	-13147
▁developer	-13148
▁Chop	-13149
▁Crom	-13150
▁Make	-13151
▁cream	-13152
achelor	-13153
▁mutual	-13154
▁fatalities	-13155
▁Productions	-13156
imir	-13157
icity	-13158
▁Trad	-13159
▁roller	-13160
▁tracking	-13161
▁declaring	-13162
▁excessive	-13163
▁Bot	-13164
▁joy	-13165
▁oak	-13166
▁Bear	-13167
▁jokes	-13168
▁membr	-13169
AL	-13170
tage	-13171
▁Put	-13172
▁Lynch	-13173
▁Store	-13174
▁presum	-13175
▁trophy	-13176
how	-13177
▁270	-13178
▁Sep	-13179
▁Buch	-13180
▁AllMusic	-13181
rez	-13182
▁teammates	-13183
issa	-13184
▁Emily	-13185
▁Plaza	-13186
▁Online	-13187
▁Palmer	-13188
▁Commissioner	-13189
zac	-13190
▁146	-13191
▁Hous	-13192
▁lava	-13193
▁Shank	-13194
▁copyr	-13195
▁Observ	-13196
▁Airborne	-13197
▁prohibited	-13198
▁Hoff	-13199
▁calm	-13200
▁shops	-13201
▁divine	-13202
▁Bri	-13203
▁Kens	-13204
▁keen	-13205
▁Apart	-13206
graduate	-13207
▁Parachute	-13208
▁struggling	-13209
▁Num	-13210
▁sixty	-13211
▁unemploy	-13212
▁recognize	-13213
▁Consequently	-13214
lend	-13215
▁Tab	-13216
▁Spin	-13217
▁decomp	-13218
▁honours	-13219
▁kitchen	-13220
▁operator	-13221
▁Paramount	-13222
▁aggregate	-13223
▁pregnancy	-13224
isans	-13225
ficial	-13226
▁gains	-13227
▁Damage	-13228
▁Harper	-13229
▁inject	-13230
▁Garfield	-13231
▁realizes	-13232
eria	-13233
oths	-13234
▁puts	-13235
▁Busch	-13236
▁Drama	-13237
▁shadow	-13238
▁Nothing	-13239
▁generate	-13240
▁Sib	-13241
entric	-13242
▁cabin	-13243
▁Maurice	-13244
▁eliminate	-13245
▁Maxim	-13246
▁ironcl	-13247
ogs	-13248
hand	-13249
▁Yet	-13250
opsis	-13251
▁Chall	-13252
▁backup	-13253
▁Chairman	-13254
▁storylines	-13255
▁CC	-13256
anto	-13257
▁Bod	-13258
▁Devon	-13259
▁edges	-13260
▁findings	-13261
▁disappear	-13262
▁merchants	-13263
nolds	-13264
▁Hait	-13265
elfare	-13266
▁trigg	-13267
▁operas	-13268
▁attractive	-13269
▁dug	-13270
▁nam	-13271
▁Pall	-13272
▁acquisition	-13273
▁.3	-13274
▁Pi	-13275
▁Jen	-13276
▁pine	-13277
lessly	-13278
▁draws	-13279
▁reserved	-13280
oning	-13281
ayette	-13282
▁arbit	-13283
▁Regard	-13284
▁Griffin	-13285
▁auction	-13286
▁surfaces	-13287
▁memorable	-13288
▁unusually	-13289
edge	-13290
▁1874	-13291
▁Rams	-13292
▁metap	-13293
▁Arctic	-13294
▁Chancellor	-13295
▁remarkable	-13296
Pa	-13297
▁149	-13298
▁1848	-13299
▁Myst	-13300
▁Glass	-13301
▁ridic	-13302
letcher	-13303
▁Panama	-13304
▁experts	-13305
▁streams	-13306
▁reversed	-13307
▁incomplete	-13308
▁conjunction	-13309
▁proceedings	-13310
▁FM	-13311
▁Cann	-13312
▁unpop	-13313
▁scenario	-13314
▁adaptations	-13315
▁CN	-13316
▁Mk	-13317
yers	-13318
▁Large	-13319
▁Franco	-13320
▁decomm	-13321
▁grants	-13322
▁caution	-13323
▁electro	-13324
▁package	-13325
▁perfectly	-13326
legiate	-13327
▁Survey	-13328
▁sketch	-13329
ripp	-13330
▁Kub	-13331
▁freed	-13332
▁ruins	-13333
▁Finnish	-13334
▁chances	-13335
▁impress	-13336
▁secular	-13337
▁substance	-13338
▁restaurants	-13339
▁hur	-13340
▁minim	-13341
▁tennis	-13342
▁metropolitan	-13343
▁sufficiently	-13344
very	-13345
▁keeps	-13346
▁Starting	-13347
▁motorway	-13348
abet	-13349
list	-13350
raid	-13351
▁Moz	-13352
▁clay	-13353
▁princ	-13354
▁SpongeB	-13355
▁Gust	-13356
ophical	-13357
▁Windsor	-13358
▁Michelle	-13359
▁Bott	-13360
▁lobby	-13361
▁Holmes	-13362
▁pedest	-13363
▁Armenia	-13364
▁worried	-13365
▁veterans	-13366
▁lifestyle	-13367
ndum	-13368
▁Carr	-13369
▁soap	-13370
▁Serbs	-13371
▁modes	-13372
▁resort	-13373
▁Jacques	-13374
▁Junction	-13375
▁Lindwall	-13376
▁assessed	-13377
▁detached	-13378
▁floating	-13379
▁allegedly	-13380
▁Ky	-13381
▁shed	-13382
▁transc	-13383
▁transp	-13384
▁emphasized	-13385
lew	-13386
▁.2	-13387
▁Heat	-13388
▁pray	-13389
▁Number	-13390
▁Tunnel	-13391
▁diving	-13392
▁tunnels	-13393
▁progression	-13394
▁topic	-13395
▁Formula	-13396
▁festivals	-13397
▁Soft	-13398
▁Trip	-13399
taining	-13400
▁hiding	-13401
▁Koreans	-13402
▁demonstration	-13403
▁210	-13404
▁Jur	-13405
▁Too	-13406
▁spo	-13407
▁tum	-13408
▁dors	-13409
▁Arabic	-13410
▁muzzle	-13411
▁nights	-13412
▁Solomon	-13413
▁erosion	-13414
▁loading	-13415
▁manifest	-13416
▁incorporates	-13417
aurus	-13418
ushes	-13419
▁Edwin	-13420
uxili	-13421
▁Bron	-13422
▁Guatem	-13423
▁Advance	-13424
▁climbing	-13425
▁speeches	-13426
▁plutonium	-13427
ho	-13428
agic	-13429
▁Starr	-13430
rozen	-13431
▁Phant	-13432
▁Randy	-13433
▁Monday	-13434
▁monitor	-13435
▁Stanford	-13436
▁attachment	-13437
▁Hip	-13438
▁rays	-13439
olades	-13440
rolling	-13441
▁Claire	-13442
▁floods	-13443
▁Berkeley	-13444
▁supplement	-13445
ocene	-13446
▁Dian	-13447
▁Doug	-13448
▁Valent	-13449
inguished	-13450
▁Superman	-13451
▁Booth	-13452
▁escal	-13453
▁errors	-13454
▁amendment	-13455
▁diagnosed	-13456
bus	-13457
▁Spy	-13458
▁trap	-13459
▁Gerald	-13460
▁ranged	-13461
▁tended	-13462
▁Presley	-13463
▁centres	-13464
▁upgrade	-13465
▁investigated	-13466
pes	-13467
pow	-13468
▁flee	-13469
▁param	-13470
▁Martha	-13471
▁overth	-13472
▁internet	-13473
▁pleasure	-13474
▁prosecut	-13475
▁appreciated	-13476
▁modifications	-13477
enne	-13478
orus	-13479
▁Spiel	-13480
▁Reform	-13481
▁consul	-13482
iability	-13483
▁warrant	-13484
▁introducing	-13485
▁EU	-13486
ivic	-13487
umar	-13488
▁sty	-13489
▁Bast	-13490
▁Luis	-13491
▁Guards	-13492
▁Legion	-13493
▁merger	-13494
▁counteratt	-13495
irk	-13496
▁Gy	-13497
▁Mam	-13498
▁haul	-13499
▁naked	-13500
▁Pierce	-13501
▁cameras	-13502
▁consent	-13503
▁inhabited	-13504
ère	-13505
▁unst	-13506
▁Cuban	-13507
▁mobil	-13508
▁overd	-13509
▁lineup	-13510
▁generations	-13511
iti	-13512
▁144	-13513
▁crust	-13514
▁notion	-13515
▁securing	-13516
▁comfortable	-13517
ugu	-13518
▁Sold	-13519
▁ease	-13520
official	-13521
▁Gabriel	-13522
▁Jennings	-13523
▁Rhodesia	-13524
pat	-13525
▁Sue	-13526
penter	-13527
▁Recre	-13528
▁hamlet	-13529
▁nearest	-13530
▁Augustus	-13531
▁Bulgaria	-13532
▁confined	-13533
▁thoughts	-13534
▁Broadcasting	-13535
▁Yok	-13536
▁1851	-13537
▁Manor	-13538
▁enable	-13539
▁incons	-13540
▁stance	-13541
▁thrust	-13542
▁qualify	-13543
▁Soundtrack	-13544
▁strengthening	-13545
ema	-13546
otus	-13547
ylum	-13548
▁Aur	-13549
▁metab	-13550
▁synth	-13551
▁Finals	-13552
▁organs	-13553
▁Chapman	-13554
▁Commercial	-13555
iche	-13556
▁fox	-13557
▁bonds	-13558
▁inver	-13559
▁reads	-13560
▁pushing	-13561
imination	-13562
▁Sr	-13563
▁Wake	-13564
▁Delhi	-13565
▁Irving	-13566
▁Turnpike	-13567
▁maintains	-13568
mate	-13569
birds	-13570
▁Hawk	-13571
▁item	-13572
▁electoral	-13573
di	-13574
ulu	-13575
▁Price	-13576
▁revel	-13577
▁Illust	-13578
▁Collect	-13579
▁Warwick	-13580
▁stripped	-13581
asi	-13582
raine	-13583
▁artif	-13584
overning	-13585
▁colleges	-13586
▁waterline	-13587
▁Anti	-13588
▁Gran	-13589
▁outs	-13590
▁muscle	-13591
▁doubles	-13592
▁speaker	-13593
aude	-13594
▁Kiss	-13595
rators	-13596
▁embarr	-13597
▁elderly	-13598
▁SpongeBob	-13599
stad	-13600
▁Wid	-13601
▁Holl	-13602
▁butt	-13603
▁compat	-13604
▁monkey	-13605
▁Hopkins	-13606
▁grandson	-13607
▁graduating	-13608
tz	-13609
iop	-13610
▁IC	-13611
▁Cec	-13612
▁Cos	-13613
▁ampl	-13614
houses	-13615
▁flags	-13616
▁Mirror	-13617
▁Jeffrey	-13618
▁Glenn	-13619
▁Hayes	-13620
▁monks	-13621
▁ensemble	-13622
▁Subsequently	-13623
iots	-13624
▁Prepar	-13625
▁Things	-13626
▁enthusiastic	-13627
bing	-13628
▁Marath	-13629
istically	-13630
hero	-13631
ichi	-13632
ocaust	-13633
veloped	-13634
▁filter	-13635
▁preval	-13636
▁sacred	-13637
▁successes	-13638
▁legitimate	-13639
erek	-13640
▁Berry	-13641
▁Tyr	-13642
atoes	-13643
▁Sword	-13644
▁brigades	-13645
▁carefully	-13646
▁HM	-13647
▁Kath	-13648
▁cere	-13649
▁Edgar	-13650
▁stepped	-13651
SA	-13652
holm	-13653
odon	-13654
▁phyl	-13655
▁layout	-13656
▁rookie	-13657
▁Borough	-13658
▁barrier	-13659
▁courage	-13660
▁escapes	-13661
▁Fletcher	-13662
asse	-13663
mill	-13664
▁Schw	-13665
▁tool	-13666
▁Crime	-13667
▁laying	-13668
▁Manager	-13669
▁Reviews	-13670
▁monthly	-13671
▁infected	-13672
▁sexually	-13673
▁Spielberg	-13674
▁incorporate	-13675
▁entertaining	-13676
inus	-13677
▁Rup	-13678
avour	-13679
▁Laura	-13680
▁restr	-13681
▁witch	-13682
▁eleventh	-13683
▁exceeded	-13684
▁Southampton	-13685
▁compensation	-13686
▁Squ	-13687
▁ump	-13688
▁Ober	-13689
▁Belle	-13690
▁Kenny	-13691
osystem	-13692
▁Sunder	-13693
▁wounds	-13694
▁exhaust	-13695
▁honored	-13696
▁darkness	-13697
mel	-13698
anan	-13699
▁280	-13700
▁satir	-13701
▁Brandon	-13702
▁genuine	-13703
▁readily	-13704
▁frontier	-13705
▁promising	-13706
▁knock	-13707
▁schem	-13708
▁Patton	-13709
▁Saints	-13710
▁Pirates	-13711
▁defeats	-13712
▁healthy	-13713
▁definitely	-13714
nan	-13715
▁sus	-13716
enhower	-13717
▁pressed	-13718
▁Á	-13719
▁soci	-13720
▁Bangl	-13721
▁Bolton	-13722
▁mistaken	-13723
▁monarchy	-13724
▁invitation	-13725
▁consequently	-13726
▁ber	-13727
▁Cave	-13728
▁rely	-13729
▁Venus	-13730
ountain	-13731
▁Global	-13732
len	-13733
▁Fac	-13734
rieved	-13735
▁fusion	-13736
▁midnight	-13737
▁maneuvers	-13738
mat	-13739
▁NOK	-13740
erals	-13741
▁Made	-13742
▁Basin	-13743
▁Easter	-13744
▁slowed	-13745
▁missiles	-13746
isle	-13747
umni	-13748
▁coc	-13749
▁diary	-13750
▁drives	-13751
▁thirds	-13752
▁spawned	-13753
▁fragment	-13754
▁Artillery	-13755
lesi	-13756
▁ESP	-13757
rified	-13758
▁locate	-13759
▁pupils	-13760
▁Hendrix	-13761
▁concludes	-13762
▁sophistic	-13763
▁unpopular	-13764
oshi	-13765
▁148	-13766
▁Lut	-13767
▁Prin	-13768
▁tram	-13769
▁Porter	-13770
▁submit	-13771
▁profits	-13772
▁employee	-13773
▁reflects	-13774
▁Principal	-13775
▁disappointment	-13776
▁identification	-13777
▁Pra	-13778
hurst	-13779
▁Goeb	-13780
▁bend	-13781
▁Crane	-13782
▁Rugby	-13783
▁reper	-13784
▁Gardens	-13785
vo	-13786
cut	-13787
ymn	-13788
▁fib	-13789
▁Rocky	-13790
▁Truth	-13791
▁Artist	-13792
▁Member	-13793
▁blacks	-13794
▁magical	-13795
▁negotiated	-13796
▁destination	-13797
▁inscription	-13798
▁measurements	-13799
▁corp	-13800
▁immun	-13801
▁retros	-13802
▁convinc	-13803
▁exciting	-13804
▁Lightning	-13805
▁competitors	-13806
▁136	-13807
oints	-13808
▁Hess	-13809
▁refit	-13810
▁Leader	-13811
▁coffee	-13812
▁constr	-13813
▁heroes	-13814
▁traits	-13815
▁celebrity	-13816
▁northbound	-13817
icus	-13818
imid	-13819
▁duet	-13820
▁mirror	-13821
▁Treasury	-13822
▁computers	-13823
▁Eisenhower	-13824
▁controlling	-13825
DA	-13826
▁tide	-13827
osphere	-13828
▁assume	-13829
mons	-13830
▁sel	-13831
▁Rare	-13832
▁Lakes	-13833
▁fever	-13834
▁Stefani	-13835
▁dispers	-13836
▁consumed	-13837
▁Argentine	-13838
▁assignment	-13839
▁Lay	-13840
▁colonel	-13841
▁affecting	-13842
PS	-13843
igon	-13844
▁McA	-13845
osely	-13846
▁Warsaw	-13847
▁physician	-13848
ibal	-13849
oline	-13850
alogue	-13851
ictions	-13852
▁accuracy	-13853
▁automatic	-13854
▁testimony	-13855
▁Gas	-13856
canal	-13857
neath	-13858
▁AIDS	-13859
▁Lucy	-13860
▁posed	-13861
▁Sebast	-13862
▁choosing	-13863
▁neighboring	-13864
▁predecessors	-13865
▁133	-13866
▁forts	-13867
▁lined	-13868
▁Hammer	-13869
▁arcade	-13870
▁distances	-13871
▁struggles	-13872
▁evolutionary	-13873
anz	-13874
▁Almost	-13875
▁Sussex	-13876
▁deciding	-13877
▁procedures	-13878
▁capabilities	-13879
lies	-13880
▁370	-13881
andin	-13882
▁Gone	-13883
▁Wals	-13884
▁Powers	-13885
▁topics	-13886
▁freight	-13887
▁Ferguson	-13888
Ne	-13889
▁Rhode	-13890
tershire	-13891
▁unnamed	-13892
isor	-13893
▁sink	-13894
ophone	-13895
▁Willis	-13896
▁Britney	-13897
▁drainage	-13898
omes	-13899
▁acids	-13900
▁wouldn	-13901
▁realize	-13902
▁Columbus	-13903
▁relevant	-13904
▁Guadalcanal	-13905
▁es	-13906
▁oral	-13907
▁besie	-13908
▁stomach	-13909
▁Reynolds	-13910
▁dorm	-13911
▁smart	-13912
▁Morton	-13913
▁regret	-13914
▁preceded	-13915
▁unt	-13916
▁jail	-13917
▁lion	-13918
▁rush	-13919
▁fairy	-13920
▁SE	-13921
▁demon	-13922
▁spare	-13923
▁Castro	-13924
▁herald	-13925
▁Universe	-13926
▁momentum	-13927
▁volunteer	-13928
irs	-13929
uchi	-13930
▁Doc	-13931
▁abd	-13932
▁psy	-13933
adequ	-13934
olics	-13935
pling	-13936
changes	-13937
▁Variety	-13938
▁requests	-13939
▁illustrations	-13940
▁IU	-13941
irate	-13942
▁Fear	-13943
▁seiz	-13944
▁antiqu	-13945
▁choices	-13946
▁leather	-13947
▁hardware	-13948
▁respected	-13949
odia	-13950
▁Gam	-13951
▁Hyd	-13952
▁carn	-13953
▁Annie	-13954
▁blown	-13955
▁tribal	-13956
▁feminist	-13957
▁settings	-13958
▁suburban	-13959
▁Hutch	-13960
▁Places	-13961
▁Russians	-13962
▁advocate	-13963
▁nobility	-13964
VA	-13965
▁CG	-13966
ilia	-13967
▁Ess	-13968
uates	-13969
▁Rice	-13970
▁Munich	-13971
▁kicked	-13972
▁enhance	-13973
▁speakers	-13974
▁warriors	-13975
▁dimensions	-13976
inite	-13977
▁bold	-13978
▁Citiz	-13979
▁burst	-13980
▁incorrect	-13981
▁limitations	-13982
zo	-13983
▁hin	-13984
▁Beyond	-13985
▁Calvin	-13986
▁Greeks	-13987
▁bassist	-13988
rimination	-13989
▁Lithuania	-13990
▁governing	-13991
gs	-13992
▁Site	-13993
▁Hanna	-13994
▁abolished	-13995
RT	-13996
▁Vul	-13997
▁tea	-13998
▁Flag	-13999
writer	-14000
▁teenage	-14001
▁twelfth	-14002
▁anywhere	-14003
▁resembles	-14004
▁SN	-14005
tegr	-14006
▁toss	-14007
▁Rever	-14008
▁illeg	-14009
▁painter	-14010
▁suspect	-14011
▁endorsed	-14012
▁absolutely	-14013
▁referendum	-14014
▁underneath	-14015
▁enforcement	-14016
▁tab	-14017
▁Municip	-14018
▁wanting	-14019
▁conquered	-14020
igu	-14021
oop	-14022
▁ecl	-14023
▁vit	-14024
versely	-14025
▁crystal	-14026
▁Intelligence	-14027
dict	-14028
▁Nebr	-14029
▁Spect	-14030
▁bread	-14031
▁Batter	-14032
▁Popular	-14033
▁precise	-14034
▁comprises	-14035
▁Lithuanian	-14036
dan	-14037
beit	-14038
▁lease	-14039
▁lemur	-14040
▁Eighth	-14041
▁repeat	-14042
▁thriller	-14043
▁accordance	-14044
▁congregation	-14045
post	-14046
archy	-14047
ocese	-14048
▁Stop	-14049
▁Ultimately	-14050
▁nationally	-14051
▁municipality	-14052
▁€	-14053
brook	-14054
▁Boyd	-14055
▁Dawn	-14056
▁ware	-14057
▁namely	-14058
▁AF	-14059
▁260	-14060
▁Franz	-14061
▁proven	-14062
▁Hammond	-14063
▁maturity	-14064
▁skeleton	-14065
DP	-14066
▁Cu	-14067
▁depr	-14068
isbury	-14069
▁Eugene	-14070
▁prayer	-14071
▁renown	-14072
▁commerce	-14073
▁secretly	-14074
▁Catholics	-14075
▁underlying	-14076
▁Distinguished	-14077
CO	-14078
zi	-14079
quet	-14080
▁Bav	-14081
▁Rhys	-14082
▁presc	-14083
▁fortified	-14084
▁imprisonment	-14085
▁extraordinary	-14086
▁jam	-14087
▁que	-14088
▁Derek	-14089
▁nickel	-14090
nor	-14091
▁142	-14092
lance	-14093
▁Mumb	-14094
▁Page	-14095
▁fees	-14096
▁Rather	-14097
▁extant	-14098
▁Quarter	-14099
▁Ps	-14100
▁1859	-14101
▁Ming	-14102
▁Style	-14103
▁dorsal	-14104
▁rumors	-14105
▁safely	-14106
▁innovative	-14107
▁specialized	-14108
iott	-14109
ovich	-14110
▁seize	-14111
▁coupled	-14112
▁Southeast	-14113
▁negotiate	-14114
▁extinction	-14115
ão	-14116
▁Lois	-14117
▁locked	-14118
▁customs	-14119
▁substantially	-14120
▁Yu	-14121
elic	-14122
▁Nab	-14123
▁Lear	-14124
▁wool	-14125
▁Britt	-14126
itating	-14127
▁totaled	-14128
▁Robertson	-14129
▁keyboards	-14130
▁aug	-14131
▁Gren	-14132
▁Roads	-14133
▁genius	-14134
▁scales	-14135
▁united	-14136
▁enacted	-14137
▁plastic	-14138
▁Ultimate	-14139
▁limestone	-14140
vae	-14141
cycl	-14142
soon	-14143
▁judgment	-14144
▁specialist	-14145
oub	-14146
ishi	-14147
▁Ost	-14148
▁Pun	-14149
ainted	-14150
▁Remix	-14151
▁Sport	-14152
▁gifts	-14153
▁scope	-14154
▁albeit	-14155
▁Associated	-14156
mitt	-14157
irmed	-14158
▁Comic	-14159
▁atoms	-14160
▁export	-14161
▁hanging	-14162
▁retaining	-14163
▁subsidiary	-14164
▁millimetres	-14165
▁nationalist	-14166
ipel	-14167
usel	-14168
iolet	-14169
▁Hast	-14170
▁Blaine	-14171
▁Wander	-14172
▁chains	-14173
▁Nebraska	-14174
▁conviction	-14175
▁efficiency	-14176
jud	-14177
▁Shack	-14178
▁compact	-14179
▁preview	-14180
▁copyright	-14181
▁hospitals	-14182
▁trademark	-14183
comm	-14184
▁Cant	-14185
▁Canber	-14186
▁rewrit	-14187
▁societies	-14188
neum	-14189
▁pian	-14190
▁runway	-14191
▁catalog	-14192
▁Taxonomy	-14193
▁pointing	-14194
▁deriv	-14195
▁eaten	-14196
▁fitting	-14197
▁Sunderland	-14198
HA	-14199
▁Was	-14200
▁1845	-14201
▁fart	-14202
▁pige	-14203
▁Joyce	-14204
▁micro	-14205
▁patch	-14206
▁Fraser	-14207
▁inadequ	-14208
ED	-14209
▁anat	-14210
▁Gross	-14211
▁array	-14212
▁realm	-14213
▁crowds	-14214
▁Outside	-14215
▁murders	-14216
▁investigations	-14217
▁139	-14218
abling	-14219
▁divide	-14220
▁sphere	-14221
▁throat	-14222
▁welcom	-14223
▁deceased	-14224
▁factions	-14225
▁designers	-14226
▁southbound	-14227
▁preservation	-14228
▁comprehensive	-14229
lides	-14230
▁Balk	-14231
▁Quinn	-14232
agonists	-14233
▁Wrestle	-14234
▁summary	-14235
▁Gameplay	-14236
▁Salisbury	-14237
▁Ned	-14238
▁sou	-14239
inely	-14240
▁Dart	-14241
▁axis	-14242
▁guided	-14243
▁Brighton	-14244
▁pla	-14245
▁fake	-14246
▁garage	-14247
▁occupy	-14248
▁thinks	-14249
▁Scouting	-14250
▁introduces	-14251
▁perception	-14252
bage	-14253
▁rod	-14254
▁Fant	-14255
▁Joel	-14256
▁Reds	-14257
▁stunt	-14258
▁Double	-14259
▁achieving	-14260
▁helicopters	-14261
▁Arms	-14262
▁Mine	-14263
▁bout	-14264
▁Jenna	-14265
▁Linda	-14266
▁Willie	-14267
▁inflicted	-14268
▁sexuality	-14269
▁confronted	-14270
onom	-14271
oton	-14272
▁1200	-14273
▁cliff	-14274
▁Critic	-14275
▁Lesser	-14276
▁domain	-14277
▁contrary	-14278
ounce	-14279
▁Stalin	-14280
▁servants	-14281
▁breakdown	-14282
▁Timberlake	-14283
▁intercepted	-14284
▁HIV	-14285
gence	-14286
▁RIAA	-14287
▁inex	-14288
▁facts	-14289
▁volunt	-14290
▁freshman	-14291
▁merchand	-14292
▁realised	-14293
▁Holocaust	-14294
▁‘	-14295
▁Fan	-14296
▁Wed	-14297
▁relax	-14298
▁dragon	-14299
▁inquiry	-14300
▁resolve	-14301
▁seventeen	-14302
▁highlights	-14303
▁Dry	-14304
▁Sed	-14305
▁vow	-14306
▁rape	-14307
▁permit	-14308
▁athlete	-14309
▁tendency	-14310
▁Dominican	-14311
essa	-14312
▁Hig	-14313
outed	-14314
▁Axis	-14315
▁blank	-14316
▁Racing	-14317
▁infant	-14318
▁scorer	-14319
▁Arabian	-14320
apa	-14321
elest	-14322
▁Woll	-14323
▁alert	-14324
▁Buenos	-14325
▁Whitney	-14326
▁monsters	-14327
▁pitching	-14328
▁protective	-14329
▁prosecution	-14330
ovo	-14331
▁Exam	-14332
▁Swan	-14333
▁excited	-14334
▁effectiveness	-14335
adic	-14336
▁Dre	-14337
▁Norton	-14338
▁Torres	-14339
▁tender	-14340
▁solutions	-14341
▁Portsmouth	-14342
▁availability	-14343
▁decommissioned	-14344
▁Shen	-14345
▁vacc	-14346
▁Karen	-14347
▁grace	-14348
▁mouse	-14349
▁admired	-14350
▁matched	-14351
▁contents	-14352
▁synthesis	-14353
▁Pred	-14354
orters	-14355
rically	-14356
▁Scotia	-14357
▁cement	-14358
▁rolling	-14359
▁drawings	-14360
▁Von	-14361
▁dome	-14362
▁amino	-14363
▁ballot	-14364
▁pocket	-14365
gun	-14366
iji	-14367
▁Doll	-14368
spring	-14369
▁basement	-14370
▁activated	-14371
▁ancestors	-14372
▁....	-14373
▁lesbian	-14374
▁substit	-14375
▁monuments	-14376
▁barb	-14377
▁blog	-14378
aulted	-14379
▁Dayton	-14380
▁unders	-14381
▁Aircraft	-14382
▁Petersburg	-14383
▁collective	-14384
▁Amaz	-14385
▁Diet	-14386
▁gram	-14387
▁Shawn	-14388
▁Metall	-14389
▁Elliott	-14390
oft	-14391
▁depends	-14392
▁Nonetheless	-14393
▁Euro	-14394
▁wors	-14395
▁Forbes	-14396
▁Besides	-14397
▁suburbs	-14398
▁adoption	-14399
▁performer	-14400
▁placement	-14401
▁endangered	-14402
▁Wend	-14403
▁Sicily	-14404
▁homage	-14405
▁skiing	-14406
▁Ferrari	-14407
▁amazing	-14408
▁careers	-14409
▁Information	-14410
▁citizenship	-14411
ittees	-14412
▁Bailey	-14413
sa	-14414
acco	-14415
▁Chi	-14416
▁hell	-14417
agonal	-14418
▁Durham	-14419
▁Webber	-14420
▁Scandin	-14421
▁Monument	-14422
▁stopping	-14423
▁concluding	-14424
▁HV	-14425
▁Raf	-14426
▁rer	-14427
▁rode	-14428
▁Omaha	-14429
▁spont	-14430
▁barracks	-14431
▁regulation	-14432
▁mathematical	-14433
▁ank	-14434
itory	-14435
▁1820	-14436
▁Coul	-14437
▁Pend	-14438
▁Lodge	-14439
▁Galile	-14440
▁underm	-14441
▁Economic	-14442
▁BM	-14443
▁SMS	-14444
▁Humph	-14445
▁Singh	-14446
▁meteor	-14447
▁favoured	-14448
▁varieties	-14449
auer	-14450
▁147	-14451
▁Gav	-14452
▁Kot	-14453
▁ESPN	-14454
▁Hugo	-14455
▁mere	-14456
▁annoy	-14457
▁alumin	-14458
▁insect	-14459
▁denomin	-14460
▁runners	-14461
▁visuals	-14462
▁reliable	-14463
▁Engineers	-14464
▁Volt	-14465
▁motivated	-14466
▁countryside	-14467
cope	-14468
ente	-14469
▁Resp	-14470
▁ears	-14471
▁Strait	-14472
▁worlds	-14473
▁bishops	-14474
▁Historian	-14475
▁commended	-14476
▁dinosaurs	-14477
▁departments	-14478
zym	-14479
▁Dy	-14480
▁fut	-14481
▁gren	-14482
▁goalkeeper	-14483
▁Block	-14484
▁Given	-14485
▁McMah	-14486
▁Model	-14487
▁botan	-14488
▁semif	-14489
▁Anders	-14490
uxiliary	-14491
▁unhappy	-14492
▁colleague	-14493
▁organisations	-14494
cat	-14495
▁Lope	-14496
esters	-14497
▁Train	-14498
▁solve	-14499
▁worksh	-14500
▁Gardner	-14501
▁millimeter	-14502
▁receiver	-14503
▁seasonal	-14504
▁oz	-14505
▁slot	-14506
▁Austen	-14507
▁subsid	-14508
▁puzzles	-14509
▁governed	-14510
▁reconcil	-14511
▁democracy	-14512
▁satisfied	-14513
▁reflecting	-14514
▁Pitt	-14515
▁dign	-14516
iblings	-14517
▁binding	-14518
▁watches	-14519
▁Moreover	-14520
▁dominance	-14521
▁Philippine	-14522
▁installment	-14523
▁Bog	-14524
adoes	-14525
▁Birth	-14526
▁Maple	-14527
▁Mumbai	-14528
▁Bahamas	-14529
▁Assistant	-14530
▁specified	-14531
▁accelerated	-14532
olo	-14533
▁Cros	-14534
retion	-14535
▁stuck	-14536
▁Caesar	-14537
▁talked	-14538
▁fortune	-14539
▁inherit	-14540
▁rehabil	-14541
▁eccentric	-14542
▁je	-14543
rock	-14544
▁cheap	-14545
▁Monica	-14546
▁phases	-14547
▁Canberra	-14548
▁woodland	-14549
▁diagnosis	-14550
▁correspondence	-14551
PC	-14552
nae	-14553
nam	-14554
▁IX	-14555
audi	-14556
osal	-14557
armed	-14558
▁fails	-14559
▁Prussia	-14560
▁borrowed	-14561
▁averaging	-14562
▁observers	-14563
▁terrestrial	-14564
rav	-14565
inate	-14566
luence	-14567
▁Angela	-14568
▁Ruther	-14569
▁Democrat	-14570
▁explicitly	-14571
▁incorporating	-14572
fold	-14573
▁Ana	-14574
▁1854	-14575
▁cott	-14576
estock	-14577
▁lingu	-14578
▁theor	-14579
▁goaltend	-14580
▁maritime	-14581
iasm	-14582
ithm	-14583
▁guid	-14584
▁Lopez	-14585
▁Priest	-14586
▁exagger	-14587
▁silence	-14588
▁isotopes	-14589
▁persisted	-14590
▁Lag	-14591
▁sid	-14592
iatus	-14593
sover	-14594
▁1857	-14595
▁Rovers	-14596
▁clever	-14597
unciation	-14598
▁activist	-14599
▁funk	-14600
▁Snake	-14601
▁juvenile	-14602
▁siblings	-14603
▁frustrated	-14604
▁businessman	-14605
elda	-14606
▁Giant	-14607
▁downed	-14608
▁leaked	-14609
▁Concord	-14610
▁exhibits	-14611
onde	-14612
▁Lav	-14613
▁Lil	-14614
▁NME	-14615
▁Sha	-14616
▁stip	-14617
▁Pearson	-14618
▁cluster	-14619
▁ensured	-14620
▁remarks	-14621
▁charting	-14622
▁performs	-14623
▁detachment	-14624
lass	-14625
▁Kos	-14626
▁ram	-14627
▁MacL	-14628
▁Wong	-14629
▁evol	-14630
▁Aires	-14631
▁Plate	-14632
▁backd	-14633
▁valued	-14634
▁boarding	-14635
▁Distribution	-14636
▁configuration	-14637
agedy	-14638
▁morale	-14639
▁precurs	-14640
▁conductor	-14641
▁ecosystem	-14642
▁shortened	-14643
▁Myc	-14644
▁cler	-14645
▁Diana	-14646
▁Syrian	-14647
▁orbits	-14648
▁Hamburg	-14649
▁Recreation	-14650
▁presenting	-14651
DT	-14652
▁FC	-14653
▁ps	-14654
▁lod	-14655
arity	-14656
▁Wilm	-14657
▁Oppen	-14658
▁anthrop	-14659
▁sounded	-14660
iri	-14661
▁Sau	-14662
ctive	-14663
▁Tell	-14664
▁Wang	-14665
▁buses	-14666
▁steal	-14667
▁mineral	-14668
▁disagreed	-14669
▁Kann	-14670
▁boom	-14671
▁erup	-14672
▁Eagles	-14673
▁trilogy	-14674
▁avoiding	-14675
▁intentions	-14676
▁cit	-14677
ishna	-14678
▁Jazz	-14679
▁Tampa	-14680
▁Newark	-14681
▁Duchess	-14682
▁variants	-14683
▁Pix	-14684
avity	-14685
ovakia	-14686
▁drift	-14687
▁Joshua	-14688
▁aliens	-14689
▁slopes	-14690
▁Engineer	-14691
▁expelled	-14692
the	-14693
oufl	-14694
xter	-14695
▁Smy	-14696
▁Ster	-14697
▁mast	-14698
cliffe	-14699
▁unity	-14700
iblical	-14701
▁Volume	-14702
▁anchor	-14703
▁median	-14704
▁develops	-14705
▁immigration	-14706
▁descriptions	-14707
▁northeastward	-14708
ệm	-14709
ław	-14710
ovan	-14711
rina	-14712
▁tyr	-14713
▁Diệm	-14714
▁tier	-14715
aunton	-14716
▁Lions	-14717
▁reunited	-14718
▁née	-14719
▁trump	-14720
▁Holden	-14721
▁immune	-14722
▁Playing	-14723
▁orbital	-14724
▁poisoning	-14725
▁determination	-14726
ride	-14727
▁Franç	-14728
▁Jesse	-14729
▁lowered	-14730
▁steering	-14731
▁Aven	-14732
▁Pont	-14733
▁sanct	-14734
▁regain	-14735
▁Neither	-14736
▁outlets	-14737
▁portrays	-14738
▁bure	-14739
▁Beast	-14740
▁Compton	-14741
▁screened	-14742
▁afterward	-14743
▁Cyp	-14744
▁bicy	-14745
▁imper	-14746
▁rises	-14747
▁scripts	-14748
▁organize	-14749
▁persuade	-14750
▁satisfact	-14751
▁foundations	-14752
▁Kay	-14753
▁hipp	-14754
▁mall	-14755
▁depot	-14756
▁saves	-14757
▁Hallow	-14758
▁Destiny	-14759
▁doubled	-14760
▁retiring	-14761
▁superhero	-14762
▁prominence	-14763
▁Ré	-14764
▁Creat	-14765
▁accent	-14766
▁bowler	-14767
▁larvae	-14768
▁strain	-14769
▁cinemat	-14770
▁Zh	-14771
▁Lac	-14772
▁rav	-14773
▁Pand	-14774
▁lean	-14775
▁Adult	-14776
▁frigates	-14777
▁overhaul	-14778
▁shelters	-14779
▁inability	-14780
▁attributes	-14781
▁Environmental	-14782
▁Rhine	-14783
▁drops	-14784
itational	-14785
▁chambers	-14786
▁primitive	-14787
▁adventures	-14788
▁continuously	-14789
grim	-14790
▁Shir	-14791
▁Savage	-14792
▁bigger	-14793
▁freely	-14794
▁tailed	-14795
▁Concert	-14796
isch	-14797
riet	-14798
enary	-14799
▁Core	-14800
▁Hannah	-14801
▁dreams	-14802
▁Knowles	-14803
▁narrowly	-14804
▁Azer	-14805
▁Cruz	-14806
▁Wick	-14807
▁inev	-14808
▁Armed	-14809
▁Ashley	-14810
▁judged	-14811
▁welcome	-14812
▁peaceful	-14813
▁symbolic	-14814
idity	-14815
swick	-14816
▁Kang	-14817
ailand	-14818
astical	-14819
▁Immedi	-14820
onscious	-14821
▁smallest	-14822
▁Bangladesh	-14823
ifax	-14824
▁Bun	-14825
olesc	-14826
ubles	-14827
▁Duck	-14828
▁thank	-14829
▁Yang	-14830
▁Claud	-14831
▁roofs	-14832
▁tales	-14833
▁Writers	-14834
▁enlarged	-14835
▁graduation	-14836
empl	-14837
phan	-14838
▁Ivy	-14839
▁Hers	-14840
▁Male	-14841
▁Dover	-14842
▁cheer	-14843
▁Schools	-14844
▁linking	-14845
ighthouse	-14846
▁Adriatic	-14847
▁overtime	-14848
▁manuscripts	-14849
▁breakthrough	-14850
iev	-14851
aird	-14852
zens	-14853
▁Gat	-14854
throp	-14855
▁1858	-14856
▁Berk	-14857
▁Gaza	-14858
▁Prev	-14859
▁acute	-14860
▁conve	-14861
▁Dodgers	-14862
▁Kingston	-14863
▁accommodation	-14864
roft	-14865
▁dio	-14866
▁Dale	-14867
▁vibr	-14868
▁Allan	-14869
▁Bened	-14870
[...]
